{
  "version": "1.0",
  "truncation": null,
  "padding": null,
  "added_tokens": [
    {
      "id": 0,
      "content": "\n",
      "single_word": false,
      "lstrip": false,
      "rstrip": false,
      "normalized": false,
      "special": true
    },
    {
      "id": 1,
      "content": "[UNK]",
      "single_word": false,
      "lstrip": false,
      "rstrip": false,
      "normalized": false,
      "special": true
    },
    {
      "id": 2,
      "content": "[BOS]",
      "single_word": false,
      "lstrip": false,
      "rstrip": false,
      "normalized": false,
      "special": true
    },
    {
      "id": 3,
      "content": "[EOS]",
      "single_word": false,
      "lstrip": false,
      "rstrip": false,
      "normalized": false,
      "special": true
    },
    {
      "id": 4,
      "content": "[PAD]",
      "single_word": false,
      "lstrip": false,
      "rstrip": false,
      "normalized": false,
      "special": true
    }
  ],
  "normalizer": null,
  "pre_tokenizer": {
    "type": "ByteLevel",
    "add_prefix_space": true,
    "trim_offsets": true,
    "use_regex": true
  },
  "post_processor": {
    "type": "ByteLevel",
    "add_prefix_space": true,
    "trim_offsets": true,
    "use_regex": true
  },
  "decoder": {
    "type": "ByteLevel",
    "add_prefix_space": true,
    "trim_offsets": true,
    "use_regex": true
  },
  "model": {
    "type": "BPE",
    "dropout": null,
    "unk_token": null,
    "continuing_subword_prefix": null,
    "end_of_word_suffix": null,
    "fuse_unk": false,
    "byte_fallback": false,
    "ignore_merges": false,
    "vocab": {
      "\n": 0,
      "[UNK]": 1,
      "[BOS]": 2,
      "[EOS]": 3,
      "[PAD]": 4,
      "!": 5,
      "\"": 6,
      "#": 7,
      "$": 8,
      "%": 9,
      "&": 10,
      "'": 11,
      "(": 12,
      ")": 13,
      "*": 14,
      "+": 15,
      ",": 16,
      "-": 17,
      ".": 18,
      "/": 19,
      "0": 20,
      "1": 21,
      "2": 22,
      "3": 23,
      "4": 24,
      "5": 25,
      "6": 26,
      "7": 27,
      "8": 28,
      "9": 29,
      ":": 30,
      ";": 31,
      "<": 32,
      "=": 33,
      ">": 34,
      "?": 35,
      "@": 36,
      "A": 37,
      "B": 38,
      "C": 39,
      "D": 40,
      "E": 41,
      "F": 42,
      "G": 43,
      "H": 44,
      "I": 45,
      "J": 46,
      "K": 47,
      "L": 48,
      "M": 49,
      "N": 50,
      "O": 51,
      "P": 52,
      "Q": 53,
      "R": 54,
      "S": 55,
      "T": 56,
      "U": 57,
      "V": 58,
      "W": 59,
      "X": 60,
      "Y": 61,
      "Z": 62,
      "[": 63,
      "\\": 64,
      "]": 65,
      "^": 66,
      "_": 67,
      "`": 68,
      "a": 69,
      "b": 70,
      "c": 71,
      "d": 72,
      "e": 73,
      "f": 74,
      "g": 75,
      "h": 76,
      "i": 77,
      "j": 78,
      "k": 79,
      "l": 80,
      "m": 81,
      "n": 82,
      "o": 83,
      "p": 84,
      "q": 85,
      "r": 86,
      "s": 87,
      "t": 88,
      "u": 89,
      "v": 90,
      "w": 91,
      "x": 92,
      "y": 93,
      "z": 94,
      "{": 95,
      "|": 96,
      "}": 97,
      "~": 98,
      "¡": 99,
      "¢": 100,
      "£": 101,
      "¤": 102,
      "¥": 103,
      "¦": 104,
      "§": 105,
      "¨": 106,
      "©": 107,
      "ª": 108,
      "«": 109,
      "¬": 110,
      "®": 111,
      "¯": 112,
      "°": 113,
      "±": 114,
      "²": 115,
      "³": 116,
      "´": 117,
      "µ": 118,
      "¶": 119,
      "·": 120,
      "¸": 121,
      "¹": 122,
      "º": 123,
      "»": 124,
      "¼": 125,
      "½": 126,
      "¾": 127,
      "¿": 128,
      "À": 129,
      "Á": 130,
      "Â": 131,
      "Ã": 132,
      "Ä": 133,
      "Å": 134,
      "Æ": 135,
      "Ç": 136,
      "È": 137,
      "É": 138,
      "Ê": 139,
      "Ë": 140,
      "Ì": 141,
      "Í": 142,
      "Î": 143,
      "Ï": 144,
      "Ð": 145,
      "Ñ": 146,
      "Ò": 147,
      "Ó": 148,
      "Ô": 149,
      "Õ": 150,
      "Ö": 151,
      "×": 152,
      "Ø": 153,
      "Ù": 154,
      "Ú": 155,
      "Û": 156,
      "Ü": 157,
      "Ý": 158,
      "Þ": 159,
      "ß": 160,
      "à": 161,
      "á": 162,
      "â": 163,
      "ã": 164,
      "ä": 165,
      "å": 166,
      "æ": 167,
      "ç": 168,
      "è": 169,
      "é": 170,
      "ê": 171,
      "ë": 172,
      "ì": 173,
      "í": 174,
      "î": 175,
      "ï": 176,
      "ð": 177,
      "ñ": 178,
      "ò": 179,
      "ó": 180,
      "ô": 181,
      "õ": 182,
      "ö": 183,
      "÷": 184,
      "ø": 185,
      "ù": 186,
      "ú": 187,
      "û": 188,
      "ü": 189,
      "ý": 190,
      "þ": 191,
      "ÿ": 192,
      "Ā": 193,
      "ā": 194,
      "Ă": 195,
      "ă": 196,
      "Ą": 197,
      "ą": 198,
      "Ć": 199,
      "ć": 200,
      "Ĉ": 201,
      "ĉ": 202,
      "Ċ": 203,
      "ċ": 204,
      "Č": 205,
      "č": 206,
      "Ď": 207,
      "ď": 208,
      "Đ": 209,
      "đ": 210,
      "Ē": 211,
      "ē": 212,
      "Ĕ": 213,
      "ĕ": 214,
      "Ė": 215,
      "ė": 216,
      "Ę": 217,
      "ę": 218,
      "Ě": 219,
      "ě": 220,
      "Ĝ": 221,
      "ĝ": 222,
      "Ğ": 223,
      "ğ": 224,
      "Ġ": 225,
      "ġ": 226,
      "Ģ": 227,
      "ģ": 228,
      "Ĥ": 229,
      "ĥ": 230,
      "Ħ": 231,
      "ħ": 232,
      "Ĩ": 233,
      "ĩ": 234,
      "Ī": 235,
      "ī": 236,
      "Ĭ": 237,
      "ĭ": 238,
      "Į": 239,
      "į": 240,
      "İ": 241,
      "ı": 242,
      "Ĳ": 243,
      "ĳ": 244,
      "Ĵ": 245,
      "ĵ": 246,
      "Ķ": 247,
      "ķ": 248,
      "ĸ": 249,
      "Ĺ": 250,
      "ĺ": 251,
      "Ļ": 252,
      "ļ": 253,
      "Ľ": 254,
      "ľ": 255,
      "Ŀ": 256,
      "ŀ": 257,
      "Ł": 258,
      "ł": 259,
      "Ń": 260,
      "Ġt": 261,
      "ou": 262,
      "Ġa": 263,
      "re": 264,
      "Ġd": 265,
      "Ġp": 266,
      "Ġs": 267,
      "es": 268,
      "on": 269,
      "en": 270,
      "Ġl": 271,
      "is": 272,
      "er": 273,
      "in": 274,
      "Ġc": 275,
      "Ġm": 276,
      "Ã©": 277,
      "he": 278,
      "an": 279,
      "ĠI": 280,
      "it": 281,
      "Ġn": 282,
      "Ġf": 283,
      "Ġw": 284,
      "om": 285,
      "Ġb": 286,
      "as": 287,
      "qu": 288,
      "ll": 289,
      "ĠT": 290,
      "at": 291,
      "Ġde": 292,
      "Ġv": 293,
      "Ġh": 294,
      "ar": 295,
      "Ġy": 296,
      "or": 297,
      "Ġto": 298,
      "ĠJ": 299,
      "Ġyou": 300,
      "Ġqu": 301,
      "ent": 302,
      "Ġthe": 303,
      "ous": 304,
      "ve": 305,
      "ai": 306,
      "un": 307,
      "est": 308,
      "le": 309,
      "ĠÃ": 310,
      "ing": 311,
      "Ġg": 312,
      "et": 313,
      "Ġth": 314,
      "us": 315,
      "ed": 316,
      "ĠJe": 317,
      "Ġpas": 318,
      "ais": 319,
      "Ġo": 320,
      "Ġun": 321,
      "eu": 322,
      "our": 323,
      "Ġque": 324,
      "ot": 325,
      "Ġne": 326,
      "Ġ?": 327,
      "Ġj": 328,
      "ĠTom": 329,
      "te": 330,
      "ri": 331,
      "Ġla": 332,
      "Ġle": 333,
      "Ġre": 334,
      "Ġin": 335,
      "ro": 336,
      "Ġis": 337,
      "ĠÃł": 338,
      "il": 339,
      "ant": 340,
      "ait": 341,
      "'t": 342,
      "ce": 343,
      "ĠC": 344,
      "lle": 345,
      "Ġme": 346,
      "ĠL": 347,
      "ir": 348,
      "im": 349,
      "Ġsu": 350,
      "Ġe": 351,
      "se": 352,
      "Ã¨": 353,
      "ĠS": 354,
      "Ġbe": 355,
      "ion": 356,
      "ĠW": 357,
      "Ġen": 358,
      "Ġan": 359,
      "id": 360,
      "Ġof": 361,
      "ay": 362,
      "Ġest": 363,
      "ĠH": 364,
      "ĠIl": 365,
      "al": 366,
      "ch": 367,
      "Ġha": 368,
      "ow": 369,
      "ut": 370,
      "Ġtr": 371,
      "ĠM": 372,
      "Ġch": 373,
      "Ġdo": 374,
      "Ã©t": 375,
      "me": 376,
      "ĠE": 377,
      "Ġhe": 378,
      "ic": 379,
      "Ġr": 380,
      "out": 381,
      "ment": 382,
      "ĠThe": 383,
      "Ġon": 384,
      "ĠA": 385,
      "'s": 386,
      "ie": 387,
      "ain": 388,
      "Ġse": 389,
      "ver": 390,
      "Ġpl": 391,
      "Ġli": 392,
      "ĠN": 393,
      "ĠD": 394,
      "ke": 395,
      "ld": 396,
      "au": 397,
      "st": 398,
      "Ġpar": 399,
      "ont": 400,
      "Ġce": 401,
      "Ġthat": 402,
      "Ġte": 403,
      "am": 404,
      "Ġcom": 405,
      "pp": 406,
      "oi": 407,
      "Ġfor": 408,
      "ĠY": 409,
      "Ġvous": 410,
      "hat": 411,
      "ĠHe": 412,
      "ag": 413,
      "ad": 414,
      "oo": 415,
      "and": 416,
      "tu": 417,
      "Ġwas": 418,
      "ĠP": 419,
      "ren": 420,
      "ig": 421,
      "Ġune": 422,
      "ill": 423,
      "Ġit": 424,
      "res": 425,
      "ans": 426,
      "ons": 427,
      "Ġles": 428,
      "ĠYou": 429,
      "eux": 430,
      "Ġpour": 431,
      "Ġwe": 432,
      "ur": 433,
      "end": 434,
      "Ġnot": 435,
      "ac": 436,
      "Ġhave": 437,
      "ĠÃ©t": 438,
      "ter": 439,
      "ne": 440,
      "av": 441,
      "Ġk": 442,
      "Ġas": 443,
      "Ãª": 444,
      "Ġje": 445,
      "ble": 446,
      "Ġdon": 447,
      "Ġst": 448,
      "ien": 449,
      "ang": 450,
      "Ġso": 451,
      "Ġau": 452,
      "que": 453,
      "ue": 454,
      "Ġdes": 455,
      "aire": 456,
      "Ġyour": 457,
      "os": 458,
      "Ġpr": 459,
      "ould": 460,
      "Ã©e": 461,
      "Ġ!": 462,
      "if": 463,
      "ith": 464,
      "Ġmy": 465,
      "all": 466,
      "ht": 467,
      "Ġat": 468,
      "ĠV": 469,
      "ĠdÃ©": 470,
      "Ġcan": 471,
      "ol": 472,
      "Ġall": 473,
      "Ġpro": 474,
      "Ã¨re": 475,
      "Ġthis": 476,
      "Ġare": 477,
      "ore": 478,
      "vous": 479,
      "Ġsuis": 480,
      "ly": 481,
      "ĠShe": 482,
      "Ġwith": 483,
      "Ġgo": 484,
      "ure": 485,
      "Ġand": 486,
      "'m": 487,
      "ers": 488,
      "ui": 489,
      "Ġwant": 490,
      "ct": 491,
      "ĠElle": 492,
      "ĠWe": 493,
      "tre": 494,
      "Ġdans": 495,
      "ard": 496,
      "Ġet": 497,
      "Ġmon": 498,
      "eur": 499,
      "mp": 500,
      "Ġcon": 501,
      "Ġav": 502,
      "ort": 503,
      "pe": 504,
      "ĠIt": 505,
      "now": 506,
      "Ġtu": 507,
      "ĠQ": 508,
      "Ġplus": 509,
      "Ġave": 510,
      "Ġfr": 511,
      "oir": 512,
      "Ġknow": 513,
      "ation": 514,
      "ĠNous": 515,
      "Ġsh": 516,
      "Ġdu": 517,
      "ess": 518,
      "Ġwh": 519,
      "Ġex": 520,
      "Ġlike": 521,
      "ĠMar": 522,
      "ul": 523,
      "ens": 524,
      "ust": 525,
      "ap": 526,
      "Ġhis": 527,
      "Ġdid": 528,
      "Ġsom": 529,
      "'re": 530,
      "her": 531,
      "Ã©c": 532,
      "Ġfaire": 533,
      "ĠTu": 534,
      "ire": 535,
      "Ã¨s": 536,
      "ĠO": 537,
      "Ã©s": 538,
      "Ġsa": 539,
      "Ġsur": 540,
      "Ġri": 541,
      "hing": 542,
      "Ġam": 543,
      "ook": 544,
      "up": 545,
      "Ġma": 546,
      "de": 547,
      "ink": 548,
      "Ġnous": 549,
      "Ġar": 550,
      "ĠÃª": 551,
      "ĠLe": 552,
      "Ġab": 553,
      "tes": 554,
      "ong": 555,
      "age": 556,
      "Ġfait": 557,
      "ier": 558,
      "ĠVous": 559,
      "Ġal": 560,
      "el": 561,
      "ĠB": 562,
      "oin": 563,
      "one": 564,
      "Ġqui": 565,
      "ose": 566,
      "Ġher": 567,
      "Ġhim": 568,
      "ĠTh": 569,
      "Ġwor": 570,
      "Ġta": 571,
      "ght": 572,
      "Ġavec": 573,
      "ois": 574,
      "ime": 575,
      "op": 576,
      "ĠWh": 577,
      "ĠWhat": 578,
      "Ġcomp": 579,
      "ave": 580,
      "ĠF": 581,
      "ite": 582,
      "ette": 583,
      "bl": 584,
      "Ġsont": 585,
      "Ġtout": 586,
      "Ġwhat": 587,
      "rai": 588,
      "Ġver": 589,
      "ouv": 590,
      "imp": 591,
      "Ġson": 592,
      "ate": 593,
      "ist": 594,
      "Ġdev": 595,
      "ĠDo": 596,
      "ĠLa": 597,
      "ĠMary": 598,
      "ez": 599,
      "Ġman": 600,
      "che": 601,
      "Ġus": 602,
      "ood": 603,
      "Ġthink": 604,
      "ici": 605,
      "ind": 606,
      "ive": 607,
      "ci": 608,
      "Ġany": 609,
      "§a": 610,
      "Ġhas": 611,
      "ine": 612,
      "Ġpeu": 613,
      "oy": 614,
      "ff": 615,
      "are": 616,
      "mes": 617,
      "Ġmais": 618,
      "Ġfe": 619,
      "Ġpart": 620,
      "ĠLes": 621,
      "Ãł": 622,
      "ĠrÃ©": 623,
      "ux": 624,
      "Ġapp": 625,
      "dre": 626,
      "ĠÃ§a": 627,
      "Ġdis": 628,
      "ĠThey": 629,
      "Ġwill": 630,
      "aut": 631,
      "ille": 632,
      "cc": 633,
      "Ġgr": 634,
      "si": 635,
      "Ġsi": 636,
      "ost": 637,
      "ours": 638,
      "Ġquel": 639,
      "ry": 640,
      "um": 641,
      "onne": 642,
      "oun": 643,
      "ĠThis": 644,
      "Ġveux": 645,
      "oup": 646,
      "ak": 647,
      "mps": 648,
      "Ġtime": 649,
      "ide": 650,
      "Ġvery": 651,
      "Ġabout": 652,
      "Ġcl": 653,
      "Ġup": 654,
      "'ll": 655,
      "Ġil": 656,
      "Ġout": 657,
      "uis": 658,
      "la": 659,
      "ance": 660,
      "rent": 661,
      "der": 662,
      "ase": 663,
      "Ġsee": 664,
      "ouve": 665,
      "Ġget": 666,
      "ĠtrÃ¨s": 667,
      "ense": 668,
      "Ġlui": 669,
      "ome": 670,
      "ĠÃ©": 671,
      "ĠÃ©tait": 672,
      "ally": 673,
      "Ġhad": 674,
      "Ġone": 675,
      "ĠQue": 676,
      "'ve": 677,
      "ays": 678,
      "very": 679,
      "ight": 680,
      "use": 681,
      "ĠCe": 682,
      "Ġtou": 683,
      "ast": 684,
      "iv": 685,
      "ĠNe": 686,
      "Ġdit": 687,
      "Ġren": 688,
      "app": 689,
      "Ġser": 690,
      "otre": 691,
      "pr": 692,
      "ions": 693,
      "Ġfrom": 694,
      "Ã§": 695,
      "ĠÃ©tÃ©": 696,
      "Ġwere": 697,
      "Ġno": 698,
      "ĠÃªtre": 699,
      "Ġhere": 700,
      "able": 701,
      "tÃ©": 702,
      "lles": 703,
      "ĠThat": 704,
      "Ġmoi": 705,
      "ĠG": 706,
      "art": 707,
      "Ġche": 708,
      "ĠCom": 709,
      "ice": 710,
      "Ġmar": 711,
      "Ġdem": 712,
      "une": 713,
      "day": 714,
      "uit": 715,
      "Ã´": 716,
      "Ġag": 717,
      "Ġby": 718,
      "Ġtemps": 719,
      "ĠHow": 720,
      "itÃ©": 721,
      "Ġco": 722,
      "Ġbut": 723,
      "alk": 724,
      "Ã®": 725,
      "Ġor": 726,
      "ab": 727,
      "ass": 728,
      "Ġcont": 729,
      "Ġlo": 730,
      "ten": 731,
      "ĠDon": 732,
      "je": 733,
      "ress": 734,
      "Ġdidn": 735,
      "ner": 736,
      "ven": 737,
      "Ã»": 738,
      "ĠPour": 739,
      "ors": 740,
      "ck": 741,
      "Ġcette": 742,
      "elle": 743,
      "ĠR": 744,
      "mer": 745,
      "Ġent": 746,
      "Ġjam": 747,
      "Ġbien": 748,
      "Ġvou": 749,
      "Ġgood": 750,
      "here": 751,
      "Ġneed": 752,
      "Ġvrai": 753,
      "Ġimp": 754,
      "iÃ¨re": 755,
      "Ã©r": 756,
      "Ġro": 757,
      "Ġlong": 758,
      "Ġhapp": 759,
      "ĠMy": 760,
      "Ġgoing": 761,
      "Ġes": 762,
      "Ġtro": 763,
      "Ġpeux": 764,
      "Ġshould": 765,
      "Ġtoo": 766,
      "rais": 767,
      "Ġlook": 768,
      "Ġcar": 769,
      "ish": 770,
      "Ġjust": 771,
      "Ġvotre": 772,
      "iff": 773,
      "ach": 774,
      "quoi": 775,
      "ge": 776,
      "Ġad": 777,
      "Ġpers": 778,
      "Ġwork": 779,
      "avai": 780,
      "Ġjamais": 781,
      "Ġbr": 782,
      "ack": 783,
      "ĠIls": 784,
      "Ġpense": 785,
      "Ġparl": 786,
      "Ã¹": 787,
      "bre": 788,
      "Ġthere": 789,
      "ade": 790,
      "Ġpe": 791,
      "ĠU": 792,
      "Ġper": 793,
      "ame": 794,
      "Ġwould": 795,
      "ise": 796,
      "Ġthan": 797,
      "Ġshe": 798,
      "Ġtravai": 799,
      "Ġliv": 800,
      "Ġbeau": 801,
      "Ġ\"": 802,
      "ep": 803,
      "Ġdire": 804,
      "ign": 805,
      "Ġdoes": 806,
      "air": 807,
      "Ġdiff": 808,
      "Ġchose": 809,
      "ique": 810,
      "ĠÂ": 811,
      "od": 812,
      "Ġpre": 813,
      "Ġres": 814,
      "Ġton": 815,
      "lp": 816,
      "Ġatt": 817,
      "Ġple": 818,
      "Ġspe": 819,
      "ĠQu": 820,
      "Ã©l": 821,
      "thing": 822,
      "Ġbl": 823,
      "orte": 824,
      "riend": 825,
      "Ġmore": 826,
      "gh": 827,
      "ĠÃªtes": 828,
      "Ġevery": 829,
      "Ġou": 830,
      "Ãªte": 831,
      "Ġsais": 832,
      "ile": 833,
      "Ġstu": 834,
      "Ġhelp": 835,
      "ob": 836,
      "Ġpass": 837,
      "Ġbeen": 838,
      "Ġtrain": 839,
      "Ġsp": 840,
      "Ġici": 841,
      "Ġgrand": 842,
      "Ġont": 843,
      "ud": 844,
      "ĠThere": 845,
      "ra": 846,
      "onn": 847,
      "ange": 848,
      "ĠEn": 849,
      "âĢ": 850,
      "Ġsome": 851,
      "coup": 852,
      "Ġoff": 853,
      "ient": 854,
      "other": 855,
      "Ġaut": 856,
      "Ġph": 857,
      "ound": 858,
      "lf": 859,
      "ĠAre": 860,
      "ence": 861,
      "ace": 862,
      "anger": 863,
      "Ġcould": 864,
      "ree": 865,
      "iss": 866,
      "Ã©es": 867,
      "'d": 868,
      "row": 869,
      "gl": 870,
      "orm": 871,
      "ants": 872,
      "ies": 873,
      "Ġpeut": 874,
      "Ġwho": 875,
      "Ġfin": 876,
      "Ġseu": 877,
      "Ġtell": 878,
      "ought": 879,
      "Ġvraiment": 880,
      "Ġcomme": 881,
      "rit": 882,
      "ars": 883,
      "Ġnever": 884,
      "ami": 885,
      "Ġreally": 886,
      "ĠÃ©c": 887,
      "moi": 888,
      "Ġtalk": 889,
      "ĠOn": 890,
      "ond": 891,
      "Ġarri": 892,
      "Ġmain": 893,
      "Ġexp": 894,
      "Ġvo": 895,
      "Ġbeaucoup": 896,
      "ĠPourquoi": 897,
      "iez": 898,
      "Ġpens": 899,
      "Ġlet": 900,
      "Ġmat": 901,
      "Ġmal": 902,
      "ale": 903,
      "âĢĻ": 904,
      "ĠWhy": 905,
      "ĠSami": 906,
      "Ġthey": 907,
      "Ġcome": 908,
      "fe": 909,
      "rendre": 910,
      "Ãªme": 911,
      "Ġtoi": 912,
      "Ġcela": 913,
      "Ġcomm": 914,
      "Ġif": 915,
      "Ġtous": 916,
      "Ġdeux": 917,
      "ĠCan": 918,
      "uch": 919,
      "Ġgot": 920,
      "Ġbes": 921,
      "ert": 922,
      "Ġnow": 923,
      "ils": 924,
      "Ġfriend": 925,
      "Ġcro": 926,
      "Ġrest": 927,
      "Ġdemand": 928,
      "Ġbus": 929,
      "Ġvie": 930,
      "aid": 931,
      "Ġquelque": 932,
      "Ġwhen": 933,
      "Ġbesoin": 934,
      "Ġlove": 935,
      "Ġsav": 936,
      "ick": 937,
      "mb": 938,
      "Ã©ri": 939,
      "Ã¢": 940,
      "Ġaf": 941,
      "Ġread": 942,
      "Ġacc": 943,
      "Ġbook": 944,
      "ds": 945,
      "Ġint": 946,
      "vez": 947,
      "pt": 948,
      "Ġses": 949,
      "Ġsem": 950,
      "jours": 951,
      "Ġtoujours": 952,
      "Ġlit": 953,
      "Ġbu": 954,
      "Ġmuch": 955,
      "ussi": 956,
      "Ġtom": 957,
      "ild": 958,
      "ather": 959,
      "Ġjus": 960,
      "Ãªtre": 961,
      "Ġjour": 962,
      "ĠEst": 963,
      "ĠIs": 964,
      "arg": 965,
      "Ġavons": 966,
      "Ġmonde": 967,
      "Ġpos": 968,
      "Ġsay": 969,
      "ople": 970,
      "Ġparler": 971,
      "Ġsomet": 972,
      "Ġspeak": 973,
      "Ġeat": 974,
      "Ġmaison": 975,
      "sez": 976,
      "du": 977,
      "Ġrien": 978,
      "Ã©p": 979,
      "aime": 980,
      "self": 981,
      "ool": 982,
      "aient": 983,
      "Ġdi": 984,
      "Ġreg": 985,
      "Ġhome": 986,
      "Ġenc": 987,
      "aiss": 988,
      "Ġfer": 989,
      "aÃ®": 990,
      "Ġsommes": 991,
      "Ġvoul": 992,
      "Ġquest": 993,
      "ity": 994,
      "ĠMon": 995,
      "Ġenf": 996,
      "ques": 997,
      "Ġask": 998,
      "Ġdr": 999,
      "ese": 1000,
      "Ġtrop": 1001,
      "Ġlang": 1002,
      "Ġpi": 1003,
      "Ġnouve": 1004,
      "ord": 1005,
      "Ġtake": 1006,
      "ident": 1007,
      "Ġaller": 1008,
      "Ġye": 1009,
      "Ġtw": 1010,
      "Ġmake": 1011,
      "Ġpri": 1012,
      "Ġavez": 1013,
      "Ġans": 1014,
      "Ġnew": 1015,
      "Ġbet": 1016,
      "vers": 1017,
      "Ġmes": 1018,
      "rÃ©": 1019,
      "ey": 1020,
      "Ġbon": 1021,
      "ĠComment": 1022,
      "ough": 1023,
      "ĠCh": 1024,
      "Ã©tait": 1025,
      "th": 1026,
      "ern": 1027,
      "eurs": 1028,
      "Åĵ": 1029,
      "Ġmo": 1030,
      "Ġright": 1031,
      "act": 1032,
      "ĩa": 1033,
      "Ġvoir": 1034,
      "ieux": 1035,
      "ĠIf": 1036,
      "ĠÃĩa": 1037,
      "ĠAs": 1038,
      "Ġhow": 1039,
      "Ġwon": 1040,
      "Ġsent": 1041,
      "Ġvoit": 1042,
      "ole": 1043,
      "Ġpol": 1044,
      "Ġmust": 1045,
      "Ġwat": 1046,
      "iens": 1047,
      "Ġheure": 1048,
      "omme": 1049,
      "ces": 1050,
      "Ġthem": 1051,
      "Ġsomething": 1052,
      "Ġpeople": 1053,
      "red": 1054,
      "Ġven": 1055,
      "Ġca": 1056,
      "Ġva": 1057,
      "ĠdÃ©c": 1058,
      "ning": 1059,
      "Ġpet": 1060,
      "Ġconn": 1061,
      "aine": 1062,
      "Ġencore": 1063,
      "ĠlÃł": 1064,
      "ody": 1065,
      "Ġfl": 1066,
      "Ġunder": 1067,
      "ante": 1068,
      "Ġpouv": 1069,
      "Ġgu": 1070,
      "Ġvis": 1071,
      "Ġlast": 1072,
      "ĠLet": 1073,
      "ouse": 1074,
      "ĠSi": 1075,
      "ction": 1076,
      "Ġelle": 1077,
      "Ġdoesn": 1078,
      "ĠK": 1079,
      "Ġonly": 1080,
      "Ġday": 1081,
      "ures": 1082,
      "Ġthing": 1083,
      "Ġnom": 1084,
      "Ġback": 1085,
      "Ġmoney": 1086,
      "Ġstud": 1087,
      "Ġavait": 1088,
      "ĠUn": 1089,
      "Ġbel": 1090,
      "Ġwr": 1091,
      "Ġcons": 1092,
      "Ġfois": 1093,
      "jour": 1094,
      "Ġret": 1095,
      "cher": 1096,
      "Ġbec": 1097,
      "Ġcour": 1098,
      "rait": 1099,
      "tle": 1100,
      "Ġfeel": 1101,
      "Ġour": 1102,
      "Ġaussi": 1103,
      "Ġmont": 1104,
      "aux": 1105,
      "Ġsm": 1106,
      "ried": 1107,
      "Ġlot": 1108,
      "Ġsou": 1109,
      "Ġjou": 1110,
      "Ġsaid": 1111,
      "Ġold": 1112,
      "nÃ©": 1113,
      "ĠDid": 1114,
      "ĠQuel": 1115,
      "Ġvais": 1116,
      "Ġfais": 1117,
      "Ġfaut": 1118,
      "Ġavoir": 1119,
      "ĠMarie": 1120,
      "ways": 1121,
      "Ġpa": 1122,
      "Ġpu": 1123,
      "reat": 1124,
      "ty": 1125,
      "Ã´t": 1126,
      "Ġprop": 1127,
      "Ġway": 1128,
      "ĠprÃ©": 1129,
      "Ġter": 1130,
      "Ã¨me": 1131,
      "Ġfran": 1132,
      "Ġalways": 1133,
      "ved": 1134,
      "Ġvoiture": 1135,
      "Ġsupp": 1136,
      "og": 1137,
      "Ġmade": 1138,
      "Ġagain": 1139,
      "Ġcall": 1140,
      "ĠNo": 1141,
      "Ġvu": 1142,
      "ĠrÃ©p": 1143,
      "Ġhappen": 1144,
      "Ġdois": 1145,
      "ount": 1146,
      "Ġeu": 1147,
      "Ġrec": 1148,
      "rench": 1149,
      "Ġanything": 1150,
      "Ġai": 1151,
      "Ġmin": 1152,
      "own": 1153,
      "Ġchild": 1154,
      "Ã§ais": 1155,
      "Ġquoi": 1156,
      "ĠTout": 1157,
      "Ġop": 1158,
      "Ġke": 1159,
      "Ġtold": 1160,
      "ĠJap": 1161,
      "tenant": 1162,
      "Ġfam": 1163,
      "oint": 1164,
      "aÃ®t": 1165,
      "ĠFrench": 1166,
      "Ġplay": 1167,
      "ouver": 1168,
      "Ġ1": 1169,
      "Ġover": 1170,
      "ĠWhere": 1171,
      "fore": 1172,
      "Ġsec": 1173,
      "Ġmet": 1174,
      "Ġwent": 1175,
      "argent": 1176,
      "Ġsoit": 1177,
      "Ã©tais": 1178,
      "Ġpo": 1179,
      "hui": 1180,
      "Ġhouse": 1181,
      "Ġsc": 1182,
      "ĠPle": 1183,
      "ĠdÃ©s": 1184,
      "lement": 1185,
      "ĠÂ«": 1186,
      "Ġthought": 1187,
      "ther": 1188,
      "ex": 1189,
      "Ġmany": 1190,
      "ft": 1191,
      "ĠPlease": 1192,
      "iz": 1193,
      "ake": 1194,
      "lez": 1195,
      "Ġac": 1196,
      "oth": 1197,
      "ĠElles": 1198,
      "prÃ¨s": 1199,
      "ĠfranÃ§ais": 1200,
      "ting": 1201,
      "Ġten": 1202,
      "hed": 1203,
      "ves": 1204,
      "rer": 1205,
      "Ġcr": 1206,
      "Ġsure": 1207,
      "Ġtravail": 1208,
      "jourd": 1209,
      "Ġfut": 1210,
      "rents": 1211,
      "be": 1212,
      "Ġaw": 1213,
      "Ġdern": 1214,
      "ents": 1215,
      "iÃ©": 1216,
      "Ġnight": 1217,
      "Ġtwo": 1218,
      "ĠOÃ¹": 1219,
      "ult": 1220,
      "Ġinv": 1221,
      "Ġpris": 1222,
      "ĠmÃªme": 1223,
      "ok": 1224,
      "Ġplan": 1225,
      "ĠoÃ¹": 1226,
      "Ġaux": 1227,
      "Ġbelie": 1228,
      "Ġbefore": 1229,
      "vÃ©": 1230,
      "ĠIn": 1231,
      "jÃł": 1232,
      "ĠdÃ©jÃł": 1233,
      "Ġsch": 1234,
      "Ġregard": 1235,
      "ĠtÃ©l": 1236,
      "Ġlivre": 1237,
      "min": 1238,
      "Ġwell": 1239,
      "Ġdown": 1240,
      "Ġrep": 1241,
      "Ġim": 1242,
      "ek": 1243,
      "Ġpersonne": 1244,
      "li": 1245,
      "bien": 1246,
      "orrow": 1247,
      "Ġstill": 1248,
      "Ġprobl": 1249,
      "ĠÂ»": 1250,
      "Ġmaintenant": 1251,
      "ĠCette": 1252,
      "Ġmus": 1253,
      "ros": 1254,
      "Ġconf": 1255,
      "Ġtheir": 1256,
      "Ġlittle": 1257,
      "nÃ©e": 1258,
      "Ġsans": 1259,
      "ary": 1260,
      "Ġquand": 1261,
      "Ġinto": 1262,
      "ĠWhen": 1263,
      "Ġroom": 1264,
      "asse": 1265,
      "Ġveu": 1266,
      "Ġbetter": 1267,
      "itu": 1268,
      "oire": 1269,
      "ouvez": 1270,
      "Ġmom": 1271,
      "oc": 1272,
      "Ġfem": 1273,
      "les": 1274,
      "kes": 1275,
      "Ġporte": 1276,
      "ĠHave": 1277,
      "Ġschool": 1278,
      "Ġid": 1279,
      "ĠWho": 1280,
      "Ġhand": 1281,
      "ention": 1282,
      "arn": 1283,
      "ĠÃĢ": 1284,
      "Ġunderst": 1285,
      "ated": 1286,
      "ail": 1287,
      "endre": 1288,
      "Ġsouv": 1289,
      "Ãªt": 1290,
      "Ġjuste": 1291,
      "Ġsw": 1292,
      "ich": 1293,
      "Ġparents": 1294,
      "Ġcare": 1295,
      "Ġtoday": 1296,
      "ms": 1297,
      "Ġafter": 1298,
      "get": 1299,
      "Ġhappy": 1300,
      "ret": 1301,
      "Ġinte": 1302,
      "irst": 1303,
      "aimer": 1304,
      "Ġhard": 1305,
      "Ġgl": 1306,
      "Ġweek": 1307,
      "auv": 1308,
      "ats": 1309,
      "Ġquestion": 1310,
      "ful": 1311,
      "Ġsort": 1312,
      "acc": 1313,
      "oston": 1314,
      "ĠBoston": 1315,
      "oute": 1316,
      "Ġcor": 1317,
      "Ġsimp": 1318,
      "Ġpay": 1319,
      "riez": 1320,
      "Ġend": 1321,
      "ĠsÃ»": 1322,
      "read": 1323,
      "urn": 1324,
      "Ġrem": 1325,
      "Ġemp": 1326,
      "Ġchez": 1327,
      "ĠPar": 1328,
      "Ġdog": 1329,
      "Ġstay": 1330,
      "att": 1331,
      "Ġavant": 1332,
      "Ġinc": 1333,
      "erre": 1334,
      "Åĵur": 1335,
      "Ġput": 1336,
      "ber": 1337,
      "rive": 1338,
      "ition": 1339,
      "Ġmot": 1340,
      "Ġdoing": 1341,
      "Ġlangu": 1342,
      "ĠpÃ¨re": 1343,
      "ger": 1344,
      "wn": 1345,
      "Ġocc": 1346,
      "Ġgir": 1347,
      "Ġlife": 1348,
      "Ġgive": 1349,
      "Ġpetit": 1350,
      "Ġache": 1351,
      "ĠdÃ©t": 1352,
      "ĠEngl": 1353,
      "Ġprom": 1354,
      "Ġmoment": 1355,
      "Ġess": 1356,
      "Ġob": 1357,
      "ĠDe": 1358,
      "Ġunderstand": 1359,
      "ester": 1360,
      "ĠÃ©tud": 1361,
      "Ġfind": 1362,
      "ĠmÃ©": 1363,
      "ture": 1364,
      "Ġwhere": 1365,
      "Ġteach": 1366,
      "body": 1367,
      "eau": 1368,
      "Ġdep": 1369,
      "aimerais": 1370,
      "Ġwait": 1371,
      "Ġisn": 1372,
      "Ġproble": 1373,
      "Ġtrois": 1374,
      "ying": 1375,
      "Ġmor": 1376,
      "ĠQui": 1377,
      "sible": 1378,
      "ict": 1379,
      "Ġimport": 1380,
      "pect": 1381,
      "anc": 1382,
      "Ġbelieve": 1383,
      "ĠEvery": 1384,
      "Ġaujourd": 1385,
      "Ġcha": 1386,
      "uss": 1387,
      "Ġenfants": 1388,
      "Ġgens": 1389,
      "esp": 1390,
      "Ġfather": 1391,
      "Ġprof": 1392,
      "ĠEs": 1393,
      "Ġleft": 1394,
      "Ġdisc": 1395,
      "Ġprendre": 1396,
      "Ġjob": 1397,
      "Ġmieux": 1398,
      "leep": 1399,
      "Ġother": 1400,
      "ĠMa": 1401,
      "ets": 1402,
      "Ġpres": 1403,
      "illes": 1404,
      "Ġsoir": 1405,
      "Ġdrink": 1406,
      "Ġbo": 1407,
      "ĠAvez": 1408,
      "Ġnotre": 1409,
      "Ġfirst": 1410,
      "Ġbonne": 1411,
      "Ġseul": 1412,
      "iste": 1413,
      "ath": 1414,
      "ffe": 1415,
      "ĠplaÃ®t": 1416,
      "xt": 1417,
      "Ġfo": 1418,
      "ages": 1419,
      "Ġsaw": 1420,
      "ins": 1421,
      "ired": 1422,
      "endu": 1423,
      "ĠSt": 1424,
      "cont": 1425,
      "Ġlive": 1426,
      "esterday": 1427,
      "Ġthree": 1428,
      "Ġenv": 1429,
      "ider": 1430,
      "ĠAn": 1431,
      "Ġaim": 1432,
      "ĠEnglish": 1433,
      "ains": 1434,
      "Ġfriends": 1435,
      "ations": 1436,
      "Ġass": 1437,
      "ĠaprÃ¨s": 1438,
      "ĠAll": 1439,
      "Ġyears": 1440,
      "Ã©n": 1441,
      "ĠdÃ©p": 1442,
      "Ġpoint": 1443,
      "Ġhier": 1444,
      "Ġho": 1445,
      "Ġplace": 1446,
      "Ġlaiss": 1447,
      "ory": 1448,
      "ĠPers": 1449,
      "cle": 1450,
      "rest": 1451,
      "Ġassez": 1452,
      "Ġnuit": 1453,
      "Ġces": 1454,
      "Ġcoup": 1455,
      "Ġtomorrow": 1456,
      "avez": 1457,
      "Ġdisp": 1458,
      "omp": 1459,
      "Ġsurpr": 1460,
      "Ġtrouv": 1461,
      "ug": 1462,
      "leur": 1463,
      "ĠmÃ¨re": 1464,
      "Ġrencont": 1465,
      "Ġviv": 1466,
      "Ġsens": 1467,
      "Ġwanted": 1468,
      "enc": 1469,
      "oses": 1470,
      "ĠproblÃ¨me": 1471,
      "Ġtoute": 1472,
      "Ġplease": 1473,
      "di": 1474,
      "Ġleave": 1475,
      "Ġrais": 1476,
      "ĠPersonne": 1477,
      "Ġleur": 1478,
      "ank": 1479,
      "Ġdou": 1480,
      "Ġprem": 1481,
      "Ġdemain": 1482,
      "ause": 1483,
      "Ġever": 1484,
      "Ġcou": 1485,
      "ĠHis": 1486,
      "Ġheures": 1487,
      "avais": 1488,
      "Ġtable": 1489,
      "Ġmother": 1490,
      "tement": 1491,
      "Ġparle": 1492,
      "rends": 1493,
      "Ġcount": 1494,
      "Ġmeet": 1495,
      ".\"": 1496,
      "Ġchien": 1497,
      "Ġcap": 1498,
      "Ġconc": 1499,
      "ister": 1500,
      "int": 1501,
      "Ġhomme": 1502,
      "Ġstart": 1503,
      "Ġeven": 1504,
      "llement": 1505,
      "ager": 1506,
      "Ġmanger": 1507,
      "Ġbeaut": 1508,
      "Ġcat": 1509,
      "Ġcham": 1510,
      "ris": 1511,
      "Ġaway": 1512,
      "Ġide": 1513,
      "Ġname": 1514,
      "Ġceci": 1515,
      "Ġasked": 1516,
      "Ġfemme": 1517,
      "ente": 1518,
      "vis": 1519,
      "Ġalone": 1520,
      "Ġtoutes": 1521,
      "ip": 1522,
      "ia": 1523,
      "Ġnothing": 1524,
      "ĠdÃ»": 1525,
      "nous": 1526,
      "ute": 1527,
      "Ġhur": 1528,
      "Ġenough": 1529,
      "ĠFr": 1530,
      "per": 1531,
      "Ġgar": 1532,
      "ĠCel": 1533,
      "ĠJapan": 1534,
      "Ġref": 1535,
      "Ġmort": 1536,
      "Ġdone": 1537,
      "Ġdevrais": 1538,
      "Ġeverything": 1539,
      "Ġcond": 1540,
      "Ġmay": 1541,
      "Ġfu": 1542,
      "Ġcert": 1543,
      "Ġtravaill": 1544,
      "Ġfille": 1545,
      "Ġyesterday": 1546,
      "endant": 1547,
      "Ġstr": 1548,
      "ĠRe": 1549,
      "Ġlearn": 1550,
      "Ġtes": 1551,
      "Ġvol": 1552,
      "Ġcher": 1553,
      "ious": 1554,
      "Ġcame": 1555,
      "Ġpuis": 1556,
      "Ġauc": 1557,
      "Ġins": 1558,
      "Ġoccup": 1559,
      "Ġwithout": 1560,
      "bles": 1561,
      "vent": 1562,
      "Ã§on": 1563,
      "Ġchoses": 1564,
      "ĠrÃ©s": 1565,
      "ĠQuand": 1566,
      "ving": 1567,
      "Ġpain": 1568,
      "Ġdec": 1569,
      "ily": 1570,
      "Ã©cole": 1571,
      "hone": 1572,
      "Ġnon": 1573,
      "imes": 1574,
      "Ġcomment": 1575,
      "Ġbuy": 1576,
      "Ġinf": 1577,
      "arr": 1578,
      "Ġbeing": 1579,
      "Ġproblem": 1580,
      "Ġveut": 1581,
      "Ġmoin": 1582,
      "igh": 1583,
      "Ġwalk": 1584,
      "autre": 1585,
      "Ġchildren": 1586,
      "Ġpat": 1587,
      "Ġfat": 1588,
      "Ġuse": 1589,
      "Ġbou": 1590,
      "Ġboy": 1591,
      "Ġhab": 1592,
      "Ġworld": 1593,
      "Ġtook": 1594,
      "Ġvi": 1595,
      "Ġvoy": 1596,
      "Ġnext": 1597,
      "Ġhear": 1598,
      "Ġwater": 1599,
      "Ġessay": 1600,
      "Ġfac": 1601,
      "Ġdur": 1602,
      "Ġbig": 1603,
      "00": 1604,
      "ĠCombien": 1605,
      "Ġlate": 1606,
      "Ġfun": 1607,
      "ĠÃī": 1608,
      "man": 1609,
      "Ġbecause": 1610,
      "Ġthings": 1611,
      "uses": 1612,
      "Ġpartir": 1613,
      "mber": 1614,
      "Ġtrans": 1615,
      "Ġgirl": 1616,
      "Ġsavoir": 1617,
      "cept": 1618,
      "ife": 1619,
      "jet": 1620,
      "orry": 1621,
      "Ġcol": 1622,
      "ĠYour": 1623,
      "ital": 1624,
      "ĠÃĬ": 1625,
      "ready": 1626,
      "Ġdro": 1627,
      "Ġfound": 1628,
      "Ġalready": 1629,
      "lo": 1630,
      "Ġtra": 1631,
      "rez": 1632,
      "Ġpolice": 1633,
      "Ġbad": 1634,
      "Ġgreat": 1635,
      "Ġfort": 1636,
      "Ġphot": 1637,
      "ĠprÃ©s": 1638,
      "Ġkind": 1639,
      "Ġyoun": 1640,
      "ote": 1641,
      "Ã¨rent": 1642,
      "king": 1643,
      "Ġhappened": 1644,
      "Ġsal": 1645,
      "Ġdoor": 1646,
      "ches": 1647,
      "Ġwrong": 1648,
      "ĠprÃ©f": 1649,
      "sem": 1650,
      "Ã¨res": 1651,
      "Ġlors": 1652,
      "Ġsleep": 1653,
      "Ġbest": 1654,
      "ĠBe": 1655,
      "Ġquelqu": 1656,
      "Ġpeur": 1657,
      "Ġjours": 1658,
      "Ġann": 1659,
      "ĠÃĬtes": 1660,
      "temps": 1661,
      "ends": 1662,
      "ĠUne": 1663,
      "Ġpensais": 1664,
      "aisse": 1665,
      "chÃ©": 1666,
      "Ġimportant": 1667,
      "ĠCela": 1668,
      "Ġcle": 1669,
      "Ġbeg": 1670,
      "Ġshow": 1671,
      "ĠderniÃ¨re": 1672,
      "Ġsait": 1673,
      "Ġgard": 1674,
      "Ġturn": 1675,
      "oh": 1676,
      "Ġaff": 1677,
      "Ġhum": 1678,
      "Ġmeill": 1679,
      "ĠAu": 1680,
      "ience": 1681,
      "aise": 1682,
      "quÃ©": 1683,
      "ĠAr": 1684,
      "Ġexc": 1685,
      "avant": 1686,
      "Ġlun": 1687,
      "Ġmauv": 1688,
      "Ġfil": 1689,
      "iful": 1690,
      "Ġgave": 1691,
      "Ġused": 1692,
      "ys": 1693,
      "Ġkeep": 1694,
      "Ġsing": 1695,
      "Ã©g": 1696,
      "Ġopen": 1697,
      "Ġnouveau": 1698,
      "ted": 1699,
      "Ġquelques": 1700,
      "Ġnat": 1701,
      "ments": 1702,
      "Ġvos": 1703,
      "Ġwhy": 1704,
      "Ġmorning": 1705,
      "Ġoften": 1706,
      "Ãªtes": 1707,
      "util": 1708,
      "icile": 1709,
      "ts": 1710,
      "Ġact": 1711,
      "Ġwatch": 1712,
      "Ġlost": 1713,
      "ĠsÃ»r": 1714,
      "Ġsol": 1715,
      "Ġinter": 1716,
      "avoir": 1717,
      "ĠtÃ©lÃ©p": 1718,
      "Ġcet": 1719,
      "Ġdiffic": 1720,
      "Ġbusy": 1721,
      "Ġaime": 1722,
      "Ġexpl": 1723,
      "Ġbeautiful": 1724,
      "Ġpouvez": 1725,
      "Ġansw": 1726,
      "Ġsouvent": 1727,
      "nis": 1728,
      "Ġseen": 1729,
      "uire": 1730,
      "Ġdepuis": 1731,
      "ache": 1732,
      "Ġami": 1733,
      "Ġheureux": 1734,
      "Ġinterest": 1735,
      "Ġidea": 1736,
      "Ġlu": 1737,
      "ited": 1738,
      "Ġcompl": 1739,
      "Ġhope": 1740,
      "Ġmind": 1741,
      "Ġyet": 1742,
      "led": 1743,
      "Ġchance": 1744,
      "ĠpassÃ©": 1745,
      "Ġnum": 1746,
      "arm": 1747,
      "Ġ2": 1748,
      "Ġaccident": 1749,
      "Ġfai": 1750,
      "Ġchange": 1751,
      "member": 1752,
      "Ġautre": 1753,
      "Ġrester": 1754,
      "Ġpays": 1755,
      "ream": 1756,
      "Ġbed": 1757,
      "Ġeas": 1758,
      "Ġsk": 1759,
      "Ġrain": 1760,
      "igu": 1761,
      "Ġperson": 1762,
      "Ġdoct": 1763,
      "ince": 1764,
      "..": 1765,
      "ivers": 1766,
      "Ġtrouver": 1767,
      "rend": 1768,
      "Ġabs": 1769,
      "Ġmis": 1770,
      "Ġwom": 1771,
      "Ġgros": 1772,
      "utes": 1773,
      "ĠQuelle": 1774,
      "oke": 1775,
      "Ġaur": 1776,
      "Ġville": 1777,
      "ĠDan": 1778,
      "Ġdifficile": 1779,
      "onnes": 1780,
      "ible": 1781,
      "Ġlooking": 1782,
      "oud": 1783,
      "ĠSon": 1784,
      "Ġmag": 1785,
      "ĠvÃ©r": 1786,
      "mÃ©": 1787,
      "Ġlist": 1788,
      "ĠPuis": 1789,
      "Ġrapp": 1790,
      "Ġsho": 1791,
      "Ġnombre": 1792,
      "arly": 1793,
      "Ġamis": 1794,
      "Ġarr": 1795,
      "Ġvenir": 1796,
      "rÃ©c": 1797,
      "ĠWould": 1798,
      "Ġsimplement": 1799,
      "Ġtri": 1800,
      "Ġrel": 1801,
      "Ġsuch": 1802,
      "ĠAl": 1803,
      "Ġkne": 1804,
      "arrive": 1805,
      "Ġsemble": 1806,
      "angÃ©": 1807,
      "Ġchambre": 1808,
      "Ġmist": 1809,
      "Ġtour": 1810,
      "Ġmatin": 1811,
      "Ġteacher": 1812,
      "Ġport": 1813,
      "Ġhot": 1814,
      "Ġjusqu": 1815,
      "Ġey": 1816,
      "Ġdoit": 1817,
      "Ġsoon": 1818,
      "aider": 1819,
      "quer": 1820,
      "este": 1821,
      "Ġrun": 1822,
      "alement": 1823,
      "Ġsemaine": 1824,
      "Ġwasn": 1825,
      "Ġquestions": 1826,
      "ĠsÅĵur": 1827,
      "Ġpropos": 1828,
      "Ġraison": 1829,
      "ied": 1830,
      "aires": 1831,
      "Ġtired": 1832,
      "Ġcam": 1833,
      "Ġsame": 1834,
      "ĠÃ©p": 1835,
      "Ġpendant": 1836,
      "Ġthese": 1837,
      "Ġdeven": 1838,
      "elles": 1839,
      "Ġexam": 1840,
      "Ġentre": 1841,
      "Ġyear": 1842,
      "iques": 1843,
      "ĠAt": 1844,
      "Ġpourquoi": 1845,
      "Ġremember": 1846,
      "Ġsister": 1847,
      "Ġbro": 1848,
      "ĠMay": 1849,
      "Ġletter": 1850,
      "Ġrev": 1851,
      "Ġcouldn": 1852,
      "Ġseule": 1853,
      "Ġmoins": 1854,
      "iers": 1855,
      "Ġcri": 1856,
      "Ġpossible": 1857,
      "ĠidÃ©e": 1858,
      "Ġyoung": 1859,
      "lÃ©": 1860,
      "Ġeff": 1861,
      "Ġsorry": 1862,
      "raid": 1863,
      "Ġquit": 1864,
      "Ġgen": 1865,
      "aper": 1866,
      "Ġsera": 1867,
      "uter": 1868,
      "Ġyourself": 1869,
      "yez": 1870,
      "Ġstop": 1871,
      "ished": 1872,
      "Ġmiss": 1873,
      "gry": 1874,
      "ared": 1875,
      "Ġsurpris": 1876,
      "not": 1877,
      "Ġprob": 1878,
      "Ġafraid": 1879,
      "hab": 1880,
      "Ġsat": 1881,
      "Ġminutes": 1882,
      "ater": 1883,
      "Ġsign": 1884,
      "orter": 1885,
      "ienne": 1886,
      "ell": 1887,
      "Ġtry": 1888,
      "Ġphr": 1889,
      "Ġknew": 1890,
      "Ġlire": 1891,
      "Ġgrande": 1892,
      "Ġlangue": 1893,
      "ĠintÃ©": 1894,
      "fÃ©": 1895,
      "Ġbre": 1896,
      "Ġhun": 1897,
      "Ġwants": 1898,
      "qui": 1899,
      "Ġheard": 1900,
      "agne": 1901,
      "Ġcontr": 1902,
      "Ġanim": 1903,
      "Ġtrue": 1904,
      "aller": 1905,
      "Ġperdu": 1906,
      "Ġmer": 1907,
      "ĠÃ©taient": 1908,
      "Ġanyone": 1909,
      "Ġmost": 1910,
      "idÃ©": 1911,
      "Ġown": 1912,
      "Ġaround": 1913,
      "Ġcold": 1914,
      "Ġsecret": 1915,
      "Ġwind": 1916,
      "uth": 1917,
      "Ġstup": 1918,
      "ommes": 1919,
      "ates": 1920,
      "olog": 1921,
      "Ġvoulez": 1922,
      "heure": 1923,
      "Ġconse": 1924,
      "any": 1925,
      "ork": 1926,
      "Ġjeune": 1927,
      "osed": 1928,
      "Ġprofess": 1929,
      "Ġwish": 1930,
      "ĠdemandÃ©": 1931,
      "rant": 1932,
      "Ġcent": 1933,
      "Ġfatigu": 1934,
      "Ġchat": 1935,
      "ĠtÃ´t": 1936,
      "ĠJoh": 1937,
      "Ġcrois": 1938,
      "Ġmari": 1939,
      "semble": 1940,
      "Ġcin": 1941,
      "ĠpiÃ¨": 1942,
      "Ġswim": 1943,
      "ateur": 1944,
      "ical": 1945,
      "ĠJohn": 1946,
      "fait": 1947,
      "Ġlivres": 1948,
      "Ġquelle": 1949,
      "Ġel": 1950,
      "we": 1951,
      "Ġbought": 1952,
      "Ġpret": 1953,
      "Ġvoulais": 1954,
      "ral": 1955,
      "Ġmen": 1956,
      "ances": 1957,
      "jeun": 1958,
      "ĠrÃ©pon": 1959,
      "ĠachetÃ©": 1960,
      "Ġvois": 1961,
      "ĠdÃ©sol": 1962,
      "Ġfacile": 1963,
      "ues": 1964,
      "str": 1965,
      "Ġjouer": 1966,
      "gg": 1967,
      "toi": 1968,
      "aurais": 1969,
      "Ġart": 1970,
      "az": 1971,
      "Ġtard": 1972,
      "Ġknows": 1973,
      "Ġanswer": 1974,
      "Ġanother": 1975,
      "Ġhaven": 1976,
      "ĠvÃ©ritÃ©": 1977,
      "ĠLay": 1978,
      "Ġfew": 1979,
      "Ġcommenc": 1980,
      "Ġwhile": 1981,
      "Ġparty": 1982,
      "Ġproch": 1983,
      "Ġrend": 1984,
      "Ġready": 1985,
      "Ġlanguage": 1986,
      "Ġcountry": 1987,
      "iser": 1988,
      "Ġind": 1989,
      "rence": 1990,
      "ites": 1991,
      "Ġtruth": 1992,
      "Ġresp": 1993,
      "Ġdont": 1994,
      "Ġfar": 1995,
      "Ġkill": 1996,
      "Ġclass": 1997,
      "ĠFrance": 1998,
      "Ġconv": 1999,
      "Ġlongtemps": 2000,
      "Ġadv": 2001,
      "ato": 2002,
      "espÃ¨re": 2003,
      "Ġfi": 2004,
      "Ġpasse": 2005,
      "Ġentendu": 2006,
      "ĠLayla": 2007,
      "Ġtrouve": 2008,
      "Ġwrit": 2009,
      "Ġappel": 2010,
      "Ġlooks": 2011,
      "Ġutil": 2012,
      "Ġforg": 2013,
      "Ġbooks": 2014,
      "ĠSh": 2015,
      "Ġchau": 2016,
      "ĠcafÃ©": 2017,
      "ls": 2018,
      "Ġdin": 2019,
      "ĠdiffÃ©": 2020,
      "Ġbir": 2021,
      "erreur": 2022,
      "Ġsour": 2023,
      "ĠSome": 2024,
      "Ġcannot": 2025,
      "ĠtÃ©lÃ©phone": 2026,
      "Ġdifficult": 2027,
      "Ġaider": 2028,
      "Ġdays": 2029,
      "Ġrendre": 2030,
      "Ġnouvelle": 2031,
      "iction": 2032,
      "ĠtrouvÃ©": 2033,
      "nes": 2034,
      "Ãªter": 2035,
      "ba": 2036,
      "Ġonce": 2037,
      "Ġretard": 2038,
      "Ġbrother": 2039,
      "Ġcertain": 2040,
      "llow": 2041,
      "Ġdoll": 2042,
      "ĠdÃ©b": 2043,
      "ĠfrÃ¨re": 2044,
      "ject": 2045,
      "emp": 2046,
      "Ġlikes": 2047,
      "Ġmyself": 2048,
      "Ġcroire": 2049,
      "pital": 2050,
      "Ġdanger": 2051,
      "Ġrou": 2052,
      "Ġnour": 2053,
      "aie": 2054,
      "Ã©tÃ©": 2055,
      "Ġtemp": 2056,
      "lui": 2057,
      "Ġfro": 2058,
      "Ġbless": 2059,
      "Ġdiffe": 2060,
      "Ġable": 2061,
      "Ġdorm": 2062,
      "aissez": 2063,
      "?\"": 2064,
      "Ġsau": 2065,
      "Ġhor": 2066,
      "llez": 2067,
      "Ġpic": 2068,
      "Ġbor": 2069,
      "ĠallÃ©": 2070,
      "Ġwhich": 2071,
      "Ġvoud": 2072,
      "Ġoubl": 2073,
      "Ġelse": 2074,
      "Ġtried": 2075,
      "arge": 2076,
      "oix": 2077,
      "ression": 2078,
      "Ġlettre": 2079,
      "Ġdix": 2080,
      "Ġvisit": 2081,
      "Ġword": 2082,
      "Ġsy": 2083,
      "mand": 2084,
      "Ġfood": 2085,
      "Ġbri": 2086,
      "ĠÃ¢": 2087,
      "als": 2088,
      "Ġsix": 2089,
      "ĠarrivÃ©": 2090,
      "Ġmatter": 2091,
      "Ġbreak": 2092,
      "ian": 2093,
      "Ġdist": 2094,
      "mÃªme": 2095,
      "isÃ©": 2096,
      "Ġfall": 2097,
      "ĠCould": 2098,
      "ffee": 2099,
      "veill": 2100,
      "homme": 2101,
      "Ġtalking": 2102,
      "Ġprie": 2103,
      "Ġtrad": 2104,
      "pped": 2105,
      "Ġpersonnes": 2106,
      "Ġreal": 2107,
      "Ġperm": 2108,
      "ĠJapon": 2109,
      "Ġfamille": 2110,
      "jeuner": 2111,
      "iment": 2112,
      "aby": 2113,
      "most": 2114,
      "ĠParis": 2115,
      "Ġsous": 2116,
      "Ġment": 2117,
      "Ġfav": 2118,
      "ĠSa": 2119,
      "Ġmarried": 2120,
      "Ġdemande": 2121,
      "Ġface": 2122,
      "rions": 2123,
      "ĠÃ©tr": 2124,
      "port": 2125,
      "Ġdir": 2126,
      "Ġmil": 2127,
      "ĠTo": 2128,
      "cin": 2129,
      "Ġadd": 2130,
      "Ġpasser": 2131,
      "Ġempl": 2132,
      "ĠintÃ©ress": 2133,
      "Ġwife": 2134,
      "Ġtellement": 2135,
      "bÃ©": 2136,
      "its": 2137,
      "ĠthÃ©": 2138,
      "teau": 2139,
      "Ġbeh": 2140,
      "Ġseulement": 2141,
      "Ġpourrait": 2142,
      "Ġhist": 2143,
      "Ġpartie": 2144,
      "angl": 2145,
      "Ġcoffee": 2146,
      "Ġnice": 2147,
      "Ġyeux": 2148,
      "Ġattention": 2149,
      "Ġty": 2150,
      "ark": 2151,
      "Ġthr": 2152,
      "rire": 2153,
      "Ġrap": 2154,
      "Ġsl": 2155,
      "Ġmean": 2156,
      "ution": 2157,
      "Ġcontin": 2158,
      "Ġdoctor": 2159,
      "Ġlisten": 2160,
      "Ġcal": 2161,
      "ĠfÃªte": 2162,
      "Ġbi": 2163,
      "ĠÃ©tudi": 2164,
      "son": 2165,
      "inc": 2166,
      "Ġvers": 2167,
      "Ġwrite": 2168,
      "Ġpubl": 2169,
      "Ġleurs": 2170,
      "Ġgetting": 2171,
      "ĠgarÃ§on": 2172,
      "Ġtravailler": 2173,
      "uc": 2174,
      "Ġparce": 2175,
      "ignore": 2176,
      "Ġstation": 2177,
      "Ġrestau": 2178,
      "Ġpetite": 2179,
      "ĠtÃ©lÃ©": 2180,
      "ial": 2181,
      "Ġcours": 2182,
      "ating": 2183,
      "Ġeach": 2184,
      "Ġserv": 2185,
      "Ġord": 2186,
      "Ġpouvons": 2187,
      "Ġfamily": 2188,
      "Ġgent": 2189,
      "Ġgag": 2190,
      "Ġemb": 2191,
      "Ġautres": 2192,
      "Ġsavais": 2193,
      "ze": 2194,
      "Ġchant": 2195,
      "Ġcoming": 2196,
      "ball": 2197,
      "gr": 2198,
      "uie": 2199,
      "itude": 2200,
      "Ġchaque": 2201,
      "Ġsitu": 2202,
      "Ġmight": 2203,
      "Ġcontre": 2204,
      "Ġangl": 2205,
      "Ġwonder": 2206,
      "Ã¨te": 2207,
      "Ġlight": 2208,
      "ume": 2209,
      "Ġair": 2210,
      "veux": 2211,
      "ĠdonnÃ©": 2212,
      "Ġfilm": 2213,
      "Ġdress": 2214,
      "Ġmauvais": 2215,
      "Ġcuis": 2216,
      "Ġfau": 2217,
      "Ġvac": 2218,
      "Ġthose": 2219,
      "Ġbelle": 2220,
      "Ġnews": 2221,
      "Ġstudy": 2222,
      "Ġnos": 2223,
      "Ġfils": 2224,
      "Ġwin": 2225,
      "Ġsomeone": 2226,
      "ize": 2227,
      "Ġerreur": 2228,
      "ano": 2229,
      "Ġbit": 2230,
      "Ġdevons": 2231,
      "accord": 2232,
      "euille": 2233,
      "Ġsortir": 2234,
      "Ġthrough": 2235,
      "ever": 2236,
      "Ġpop": 2237,
      "ustral": 2238,
      "anglais": 2239,
      "ĠrÃª": 2240,
      "Ġseems": 2241,
      "Ġopin": 2242,
      "ghter": 2243,
      "ĠÃ©crit": 2244,
      "ĠtÃªte": 2245,
      "reux": 2246,
      "Ġseem": 2247,
      "meric": 2248,
      "Ġdream": 2249,
      "alth": 2250,
      "Ġhead": 2251,
      "Ġdonner": 2252,
      "Ġstand": 2253,
      "Ġpresque": 2254,
      "Ġvivre": 2255,
      "Ġcook": 2256,
      "Ġsujet": 2257,
      "ĠpiÃ¨ce": 2258,
      "nent": 2259,
      "erci": 2260,
      "Ġforget": 2261,
      "Ġprod": 2262,
      "vie": 2263,
      "Ġfore": 2264,
      "Ġbure": 2265,
      "Ġsmall": 2266,
      "iness": 2267,
      "Ġtrou": 2268,
      "Ġphone": 2269,
      "Ġtennis": 2270,
      "Ġeyes": 2271,
      "io": 2272,
      "ĠAmeric": 2273,
      "Ġits": 2274,
      "Ġphoto": 2275,
      "ieu": 2276,
      "Ġhair": 2277,
      "lect": 2278,
      "Ġwoman": 2279,
      "uv": 2280,
      "Ã©m": 2281,
      "Ġris": 2282,
      "ĠprÃªt": 2283,
      "Ġconnais": 2284,
      "ĠArr": 2285,
      "Ġtoget": 2286,
      "Ġbureau": 2287,
      "Ġtogether": 2288,
      "Ġmange": 2289,
      "Ġfour": 2290,
      "Ġvite": 2291,
      "entre": 2292,
      "Ġearly": 2293,
      "Ġvoulait": 2294,
      "Ġsick": 2295,
      "Ġcop": 2296,
      "Ã©ro": 2297,
      "Ġvit": 2298,
      "ĠHer": 2299,
      "Ġarg": 2300,
      "Ġmalade": 2301,
      "erai": 2302,
      "Ġmine": 2303,
      "Ġalmost": 2304,
      "Ġglad": 2305,
      "ib": 2306,
      "no": 2307,
      "par": 2308,
      "era": 2309,
      "Ġcalled": 2310,
      "ids": 2311,
      "Ġhurt": 2312,
      "joy": 2313,
      "Ġsois": 2314,
      "em": 2315,
      "ĠCes": 2316,
      "ason": 2317,
      "ĠTok": 2318,
      "Ġsucc": 2319,
      "Ġalors": 2320,
      "Ġils": 2321,
      "exp": 2322,
      "ĠStop": 2323,
      "ken": 2324,
      "Ġsuff": 2325,
      "ings": 2326,
      "ĠgÃ©n": 2327,
      "ige": 2328,
      "Ġadm": 2329,
      "Ġretour": 2330,
      "vision": 2331,
      "avons": 2332,
      "Ġeasy": 2333,
      "Ġmois": 2334,
      "Ġhigh": 2335,
      "ĠdÃ©m": 2336,
      "Ġinform": 2337,
      "Ġexpect": 2338,
      "ĠmÃ©de": 2339,
      "ps": 2340,
      "ĠmaniÃ¨re": 2341,
      "more": 2342,
      "ph": 2343,
      "Ã¯": 2344,
      "Ġfavor": 2345,
      "Ġsuc": 2346,
      "Ġpopul": 2347,
      "ane": 2348,
      "icy": 2349,
      "ĠPouvez": 2350,
      "ĠjournÃ©e": 2351,
      "Ġstarted": 2352,
      "Ġrestaurant": 2353,
      "ler": 2354,
      "Ġdiction": 2355,
      "used": 2356,
      "Ġtravers": 2357,
      "Ġlorsque": 2358,
      "ĠJapanese": 2359,
      "rap": 2360,
      "Ġplais": 2361,
      "Ġcolle": 2362,
      "Ġpolit": 2363,
      "Ġaucun": 2364,
      "ision": 2365,
      "ric": 2366,
      "Ġsub": 2367,
      "Ġanymore": 2368,
      "Ġmeeting": 2369,
      "avantage": 2370,
      "ĠArrÃªte": 2371,
      "less": 2372,
      "Ġrad": 2373,
      "Ġpouvoir": 2374,
      "Ġvas": 2375,
      "ĠÃīt": 2376,
      "Ġir": 2377,
      "Ġheart": 2378,
      "Ġcomple": 2379,
      "Ġmusic": 2380,
      "Ġdinner": 2381,
      "Ġbag": 2382,
      "ĠprÃ©sent": 2383,
      "Ġsun": 2384,
      "Ġvenu": 2385,
      "Ġmonth": 2386,
      "Ġaucune": 2387,
      "atoe": 2388,
      "Ġsit": 2389,
      "Ġvieux": 2390,
      "Ġhate": 2391,
      "Ġpremier": 2392,
      "Ġanglais": 2393,
      "aught": 2394,
      "ĠOur": 2395,
      "Ġap": 2396,
      "Ġsong": 2397,
      "Ġesp": 2398,
      "ĠpremiÃ¨re": 2399,
      "Ġfeu": 2400,
      "Ġvue": 2401,
      "Ġsoci": 2402,
      "llig": 2403,
      "ĠPeux": 2404,
      "Ġconnaiss": 2405,
      "atoeba": 2406,
      "Ġred": 2407,
      "Ġru": 2408,
      "Ġdevrait": 2409,
      "Ġenfant": 2410,
      "Ġcry": 2411,
      "Ġsuiv": 2412,
      "Ġenjoy": 2413,
      "ĠNot": 2414,
      "Ġfini": 2415,
      "riture": 2416,
      "Ġcause": 2417,
      "yo": 2418,
      "Ġ3": 2419,
      "Ġfollow": 2420,
      "Ġtre": 2421,
      "Ġvoyage": 2422,
      "ward": 2423,
      "Ã©d": 2424,
      "Ġfast": 2425,
      "Ġdevez": 2426,
      "rib": 2427,
      "tur": 2428,
      "Ġfaites": 2429,
      "Ġwouldn": 2430,
      "Ġtermin": 2431,
      "Ġsince": 2432,
      "rir": 2433,
      "Ġsatis": 2434,
      "Ġwindow": 2435,
      "Ġpretty": 2436,
      "til": 2437,
      "Ġsound": 2438,
      "Ġfree": 2439,
      "Ġbat": 2440,
      "urer": 2441,
      "Ġtransl": 2442,
      "Ġrapide": 2443,
      "Ġaren": 2444,
      "ĠTatoeba": 2445,
      "vert": 2446,
      "ĠDoes": 2447,
      "ĠÃ©g": 2448,
      "Ġdollars": 2449,
      "Ġmess": 2450,
      "Ġgone": 2451,
      "idi": 2452,
      "Ġdevoir": 2453,
      "Ġapprendre": 2454,
      "Ġarrive": 2455,
      "ĠcolÃ¨re": 2456,
      "ĠcÃ´": 2457,
      "Ġcity": 2458,
      "ower": 2459,
      "Ġtax": 2460,
      "oyer": 2461,
      "Ġreading": 2462,
      "Ġagainst": 2463,
      "ĠEveryone": 2464,
      "Ġdavantage": 2465,
      "eure": 2466,
      "Ġsuper": 2467,
      "Ġrespons": 2468,
      "ĠTokyo": 2469,
      "rist": 2470,
      "Ġdau": 2471,
      "ĠcÅĵur": 2472,
      "Ġviens": 2473,
      "Ġhon": 2474,
      "antÃ©": 2475,
      "iel": 2476,
      "Ġmakes": 2477,
      "Ġreste": 2478,
      "Ġpois": 2479,
      "cient": 2480,
      "Ġdied": 2481,
      "ĠPeu": 2482,
      "resse": 2483,
      "ĠprÃ¨s": 2484,
      "Ġcomprendre": 2485,
      "ĠoccupÃ©": 2486,
      "Ġcas": 2487,
      "Ġvient": 2488,
      "ĠDis": 2489,
      "Ġcombien": 2490,
      "ĠÃ©l": 2491,
      "Ġimpos": 2492,
      "na": 2493,
      "onom": 2494,
      "ĠmangÃ©": 2495,
      "ĠTell": 2496,
      "ett": 2497,
      "elt": 2498,
      "Ġhimself": 2499,
      "cer": 2500,
      "insi": 2501,
      "Ġthen": 2502,
      "Ġtrying": 2503,
      "Ġste": 2504,
      "Ġtrust": 2505,
      "Ġwear": 2506,
      "apon": 2507,
      "Ġlives": 2508,
      "zy": 2509,
      "Ġserait": 2510,
      "Ġchang": 2511,
      "Ġlooked": 2512,
      "Ġphrase": 2513,
      "Ġcost": 2514,
      "Ġattend": 2515,
      "Ġbecome": 2516,
      "Ġquite": 2517,
      "ided": 2518,
      "Ġhaving": 2519,
      "Ġwords": 2520,
      "Ã©rÃ©": 2521,
      "Ġtravaille": 2522,
      "Ġconfi": 2523,
      "Ġsil": 2524,
      "Ġfa": 2525,
      "Ġfit": 2526,
      "Ġfelt": 2527,
      "ĠTous": 2528,
      "Ġpied": 2529,
      "Ġwaiting": 2530,
      "ines": 2531,
      "ĠAustral": 2532,
      "Ġlonger": 2533,
      "Ġmettre": 2534,
      "Ġdernier": 2535,
      "Ġmeilleur": 2536,
      "Ġdri": 2537,
      "Ġfon": 2538,
      "br": 2539,
      "ually": 2540,
      "Ġfire": 2541,
      "Ġboth": 2542,
      "Ġjourn": 2543,
      "Ġsentence": 2544,
      "Ġprofesseur": 2545,
      "Ġnourriture": 2546,
      "Ġsituation": 2547,
      "Ġill": 2548,
      "ĠTake": 2549,
      "Ġcompte": 2550,
      "Ã§u": 2551,
      "Ġfoot": 2552,
      "ables": 2553,
      "Ġloin": 2554,
      "Ġprin": 2555,
      "Ġdevriez": 2556,
      "ĠGer": 2557,
      "omm": 2558,
      "ication": 2559,
      "ĠThank": 2560,
      "ced": 2561,
      "ences": 2562,
      "Ġcheveux": 2563,
      "ness": 2564,
      "Ġner": 2565,
      "Ġfen": 2566,
      "riÃ¨re": 2567,
      "Ġensemble": 2568,
      "Ġvoudrais": 2569,
      "Ġsac": 2570,
      "Ġsays": 2571,
      "iner": 2572,
      "Ġboire": 2573,
      "ĠdÃ©f": 2574,
      "Ġhands": 2575,
      "Ġmusique": 2576,
      "Ġfou": 2577,
      "Ġdess": 2578,
      "Ġprix": 2579,
      "Ġforgot": 2580,
      "Ġdaughter": 2581,
      "hait": 2582,
      "ĠAm": 2583,
      "Ġarriv": 2584,
      "Ġpiano": 2585,
      "Ġregarder": 2586,
      "Ġintellig": 2587,
      "ove": 2588,
      "ĠdÃ®": 2589,
      "arth": 2590,
      "Ġworking": 2591,
      "Ġfum": 2592,
      "Ġstory": 2593,
      "ĠdÃ©jeuner": 2594,
      "Ġimpossible": 2595,
      "Ġ:": 2596,
      "Ġmour": 2597,
      "itÃ©s": 2598,
      "roit": 2599,
      "aines": 2600,
      "ĠNob": 2601,
      "apprÃ©c": 2602,
      "Ġsecond": 2603,
      "Ġcareful": 2604,
      "lÃł": 2605,
      "Ġgre": 2606,
      "Ġfruit": 2607,
      "Ġtimes": 2608,
      "ĠMerci": 2609,
      "oss": 2610,
      "Ġaccept": 2611,
      "Ġopinion": 2612,
      "Ġdead": 2613,
      "oice": 2614,
      "ĠpensÃ©": 2615,
      "Ġplaying": 2616,
      "Ġimag": 2617,
      "Ġnature": 2618,
      "Ġsus": 2619,
      "Ġlarge": 2620,
      "Ġgiv": 2621,
      "Ġpeuvent": 2622,
      "arer": 2623,
      "ĠGet": 2624,
      "Ġprison": 2625,
      "Ġbas": 2626,
      "Ġbicy": 2627,
      "Ġdeath": 2628,
      "agn": 2629,
      "Ġfell": 2630,
      "leurs": 2631,
      "ween": 2632,
      "Ġainsi": 2633,
      "ĠApp": 2634,
      "Ġcelui": 2635,
      "Ġago": 2636,
      "Ġeveryone": 2637,
      "Ġsuppose": 2638,
      "Ġstupid": 2639,
      "iend": 2640,
      "anche": 2641,
      "Ġense": 2642,
      "renez": 2643,
      "Ġsoyez": 2644,
      "ablement": 2645,
      "Ġtonight": 2646,
      "Ġcorre": 2647,
      "ĠdÃ©teste": 2648,
      "Ġnumber": 2649,
      "ĠfatiguÃ©": 2650,
      "Ġfroid": 2651,
      "Ġdrive": 2652,
      "Ġjapon": 2653,
      "iles": 2654,
      "Ġsum": 2655,
      "ĠVeuille": 2656,
      "akes": 2657,
      "uro": 2658,
      "ĠgÃ¢": 2659,
      "ettes": 2660,
      "Ġchemin": 2661,
      "ĠComme": 2662,
      "Ġfinished": 2663,
      "Ġimm": 2664,
      "Ġfull": 2665,
      "Ġnager": 2666,
      "aide": 2667,
      "Ġamus": 2668,
      "ĠVeuillez": 2669,
      "ument": 2670,
      "Ġprend": 2671,
      "Ġlieu": 2672,
      "ĠGo": 2673,
      "Ġsouhait": 2674,
      "Ġacheter": 2675,
      "uy": 2676,
      "ination": 2677,
      "ĠAf": 2678,
      "Ġtele": 2679,
      "Ġautant": 2680,
      "Ġtant": 2681,
      "Ġsto": 2682,
      "Ġamie": 2683,
      "ĠGive": 2684,
      "Ã©rie": 2685,
      "ĠChin": 2686,
      "Ġreconn": 2687,
      "Ġ19": 2688,
      "ĠoubliÃ©": 2689,
      "ron": 2690,
      "ics": 2691,
      "Ġstudents": 2692,
      "gard": 2693,
      "ature": 2694,
      "Ġtown": 2695,
      "ĠWill": 2696,
      "Ġcomprends": 2697,
      "ĠdÃ©solÃ©": 2698,
      "Ġval": 2699,
      "ĠFais": 2700,
      "ĠrÃ©un": 2701,
      "Ġoffice": 2702,
      "ĠmÃ©decin": 2703,
      "Ġdiv": 2704,
      "Ġju": 2705,
      "oking": 2706,
      "ĠcÃ´tÃ©": 2707,
      "ĠMr": 2708,
      "Ġhealth": 2709,
      "ched": 2710,
      "Ġmots": 2711,
      "Ġaide": 2712,
      "Ġuntil": 2713,
      "Ġparti": 2714,
      "usement": 2715,
      "Ġshouldn": 2716,
      "ĠGerman": 2717,
      "Ġbicycle": 2718,
      "Ġbois": 2719,
      "Ã¨ve": 2720,
      "ĠdÃ©r": 2721,
      "Ġconfiance": 2722,
      "ctu": 2723,
      "Ġsugg": 2724,
      "Ġliving": 2725,
      "ĠCome": 2726,
      "amment": 2727,
      "Ġdemander": 2728,
      "Ġluck": 2729,
      "Ġpap": 2730,
      "Ġhours": 2731,
      "Ġreven": 2732,
      "Ġreason": 2733,
      "Ġtrave": 2734,
      "adore": 2735,
      "igne": 2736,
      "fer": 2737,
      "fois": 2738,
      "oubl": 2739,
      "ative": 2740,
      "Ġangry": 2741,
      "Ġmach": 2742,
      "Ġdifferent": 2743,
      "ĠNobody": 2744,
      "lus": 2745,
      "Ġsnow": 2746,
      "ĠEt": 2747,
      "Ġsimple": 2748,
      "Ġfive": 2749,
      "Ġbar": 2750,
      "Ġrac": 2751,
      "Ġesc": 2752,
      "Ġheureuse": 2753,
      "Ġlaisser": 2754,
      "ny": 2755,
      "occ": 2756,
      "tres": 2757,
      "antes": 2758,
      "Ġcommun": 2759,
      "Ġjoue": 2760,
      "Ġenvie": 2761,
      "Ġbroke": 2762,
      "Ġpublic": 2763,
      "Ġpost": 2764,
      "Ġban": 2765,
      "Ġgrow": 2766,
      "Ġweather": 2767,
      "avait": 2768,
      "ĠprÃ©c": 2769,
      "ĠOne": 2770,
      "Ġbetween": 2771,
      "Ġcinq": 2772,
      "gn": 2773,
      "ĠbÃ©": 2774,
      "Ġhommes": 2775,
      "ries": 2776,
      "ĠNotre": 2777,
      "orth": 2778,
      "Ġappris": 2779,
      "Ġspend": 2780,
      "Ġswe": 2781,
      "hÃ´": 2782,
      "Ġ;": 2783,
      "atre": 2784,
      "Ã¨mes": 2785,
      "ĠDieu": 2786,
      "ately": 2787,
      "Ġsembl": 2788,
      "Ġidi": 2789,
      "Ġordin": 2790,
      "onque": 2791,
      "Ġfig": 2792,
      "Ġserious": 2793,
      "ĠChrist": 2794,
      "enir": 2795,
      "Ġsold": 2796,
      "ĠThese": 2797,
      "Ġactu": 2798,
      "Ġradio": 2799,
      "Ġtree": 2800,
      "omet": 2801,
      "icul": 2802,
      "ĠDonne": 2803,
      "ĠprÃ©p": 2804,
      "Ġfront": 2805,
      "ĠcoÃ»": 2806,
      "ĠsÃ»re": 2807,
      "iter": 2808,
      "Ġwar": 2809,
      "Ġgame": 2810,
      "Ġrece": 2811,
      "Ġcontent": 2812,
      "cked": 2813,
      "Ġeating": 2814,
      "Ġdie": 2815,
      "Ġmill": 2816,
      "ĠvÃ©l": 2817,
      "ĠJust": 2818,
      "Ġsurv": 2819,
      "fect": 2820,
      "Ġminute": 2821,
      "ĠRegard": 2822,
      "ĠrÃ©ponse": 2823,
      "rÃ©s": 2824,
      "Ġtrait": 2825,
      "stant": 2826,
      "Ġclose": 2827,
      "Ġglass": 2828,
      "ande": 2829,
      "Ġsole": 2830,
      "Ġmovie": 2831,
      "ĠessayÃ©": 2832,
      "Ġz": 2833,
      "ĠÃ©tais": 2834,
      "Ġrich": 2835,
      "ission": 2836,
      "ises": 2837,
      "vel": 2838,
      "Ġexact": 2839,
      "ĠÃ©ch": 2840,
      "...": 2841,
      "ouill": 2842,
      "ĠTV": 2843,
      "Ġquick": 2844,
      "Ġsurprised": 2845,
      "intÃ©": 2846,
      "ĠKe": 2847,
      "Ġstrong": 2848,
      "hors": 2849,
      "ned": 2850,
      "aille": 2851,
      "Ġlaw": 2852,
      "alitÃ©": 2853,
      "oyez": 2854,
      "Ġclasse": 2855,
      "Ġarriver": 2856,
      "Ġviol": 2857,
      "Ġlunch": 2858,
      "ĠrÃ©union": 2859,
      "cess": 2860,
      "ieurs": 2861,
      "ĠÅĵ": 2862,
      "ĠsantÃ©": 2863,
      "rible": 2864,
      "ĠVou": 2865,
      "Ã©cess": 2866,
      "Ġagree": 2867,
      "Ġmistake": 2868,
      "Ġpicture": 2869,
      "so": 2870,
      "ĠTr": 2871,
      "Ġext": 2872,
      "ably": 2873,
      "ĠparlÃ©": 2874,
      "work": 2875,
      "ĠSe": 2876,
      "Ġran": 2877,
      "ĠDans": 2878,
      "Ġform": 2879,
      "ither": 2880,
      "urope": 2881,
      "ĠSo": 2882,
      "importe": 2883,
      "ĠQuelqu": 2884,
      "Ġborn": 2885,
      "Ġbehind": 2886,
      "ĠvÃ©lo": 2887,
      "Ġsoi": 2888,
      "ĠTon": 2889,
      "Ġplait": 2890,
      "ured": 2891,
      "irer": 2892,
      "Ġproduit": 2893,
      "Ġsoleil": 2894,
      "Ġder": 2895,
      "Ġarrived": 2896,
      "Ġpouvait": 2897,
      "ked": 2898,
      "Ġchans": 2899,
      "ĠVeux": 2900,
      "Ġappro": 2901,
      "Ġserai": 2902,
      "Ġregret": 2903,
      "ĠVoulez": 2904,
      "pl": 2905,
      "side": 2906,
      "where": 2907,
      "Ġtent": 2908,
      "Ġni": 2909,
      "Ġsurprise": 2910,
      "Ġchaud": 2911,
      "dd": 2912,
      "ĠLaisse": 2913,
      "Ġconduire": 2914,
      "Ġfaim": 2915,
      "Ġfonction": 2916,
      "cep": 2917,
      "alent": 2918,
      "Ġinteresting": 2919,
      "Ġtype": 2920,
      "gle": 2921,
      "rÃ©e": 2922,
      "ser": 2923,
      "ases": 2924,
      "ĠDes": 2925,
      "ĠÃ©tiez": 2926,
      "Ġgoes": 2927,
      "unes": 2928,
      "assÃ©": 2929,
      "Ġhabit": 2930,
      "Ġbase": 2931,
      "ĠCanad": 2932,
      "Ġferais": 2933,
      "ĠlaissÃ©": 2934,
      "Ġtrouble": 2935,
      "iver": 2936,
      "Ġouv": 2937,
      "Ġtea": 2938,
      "Ġstre": 2939,
      "Ġshort": 2940,
      "ĠrÃ©f": 2941,
      "thers": 2942,
      "Ġstudent": 2943,
      "Ġfix": 2944,
      "Ġjournal": 2945,
      "ĠfenÃªtre": 2946,
      "Ġplut": 2947,
      "Ġpourrais": 2948,
      "ÃªtÃ©": 2949,
      "Ġguerre": 2950,
      "Ġturned": 2951,
      "ĠdÃ®ner": 2952,
      "Ġdest": 2953,
      "ann": 2954,
      "Ġfish": 2955,
      "Ġbout": 2956,
      "Ġvin": 2957,
      "Ġcloth": 2958,
      "ĠÃ©v": 2959,
      "ĠNew": 2960,
      "cul": 2961,
      "Ġcaught": 2962,
      "ĠnÃ©cess": 2963,
      "aster": 2964,
      "Ġhos": 2965,
      "ained": 2966,
      "Ġcoll": 2967,
      "Ġpatient": 2968,
      "ĠcrÃ©": 2969,
      "Ġothers": 2970,
      "ĠLors": 2971,
      "Ġparfait": 2972,
      "Ġcomes": 2973,
      "Ġworry": 2974,
      "asser": 2975,
      "Ġpeine": 2976,
      "ientÃ´t": 2977,
      "Ġmontre": 2978,
      "ized": 2979,
      "Ġclean": 2980,
      "mÃ©di": 2981,
      "Ġpun": 2982,
      "enf": 2983,
      "ĠrÃ¨": 2984,
      "atement": 2985,
      "Ġbirth": 2986,
      "bres": 2987,
      "Ġtest": 2988,
      "Ġmed": 2989,
      "Ġmur": 2990,
      "Ġnu": 2991,
      "ĠLook": 2992,
      "rente": 2993,
      "ĠGod": 2994,
      "Ġage": 2995,
      "Ġboul": 2996,
      "Ġgenre": 2997,
      "Ġvont": 2998,
      "Ġleav": 2999,
      "ĠCet": 3000,
      "ĠEx": 3001,
      "Ġkiss": 3002,
      "Ġamou": 3003,
      "Ġdehors": 3004,
      "Ġguit": 3005,
      "Ġopp": 3006,
      "Ġnear": 3007,
      "Ġexac": 3008,
      "Ġverre": 3009,
      "Ġdecided": 3010,
      "ĠÃ¢ge": 3011,
      "Ġcra": 3012,
      "Ġmoy": 3013,
      "Ġdevrions": 3014,
      "Ġnouvelles": 3015,
      "Ġyours": 3016,
      "Ġallow": 3017,
      "ists": 3018,
      "ignor": 3019,
      "Ġterre": 3020,
      "Ġlum": 3021,
      "Ġdisapp": 3022,
      "Ġrent": 3023,
      "Ġbegin": 3024,
      "Ġbill": 3025,
      "ĠMes": 3026,
      "Ġcomputer": 3027,
      "Ġprochaine": 3028,
      "Ġhospital": 3029,
      "ered": 3030,
      "iÃ¨res": 3031,
      "ple": 3032,
      "Ġ5": 3033,
      "ĠLond": 3034,
      "enses": 3035,
      "oyÃ©": 3036,
      "gne": 3037,
      "onde": 3038,
      "ĠnÃ©": 3039,
      "Ġgare": 3040,
      "Ġcompany": 3041,
      "Ã§ons": 3042,
      "Ġchev": 3043,
      "Ġwhole": 3044,
      "Ġpenser": 3045,
      "Ġpropre": 3046,
      "ĠrencontrÃ©": 3047,
      "Ġcontinu": 3048,
      "Ġmachine": 3049,
      "Ġcut": 3050,
      "ash": 3051,
      "Ġrespect": 3052,
      "Ġsaying": 3053,
      "Ġpuisse": 3054,
      "Ġdevenir": 3055,
      "ĠcommencÃ©": 3056,
      "ĠplutÃ´t": 3057,
      "Ġlater": 3058,
      "Ġalso": 3059,
      "Ġthinking": 3060,
      "Ġneeds": 3061,
      "Ġbusiness": 3062,
      "Ġafterno": 3063,
      "Ġchauss": 3064,
      "Ġceux": 3065,
      "Ġfact": 3066,
      "ĠbientÃ´t": 3067,
      "Ã¨ne": 3068,
      "ensive": 3069,
      "Ġmaking": 3070,
      "Ġsummer": 3071,
      "fort": 3072,
      "Ġfilles": 3073,
      "aint": 3074,
      "amour": 3075,
      "Ġprud": 3076,
      "Ġbuild": 3077,
      "ĠproblÃ¨mes": 3078,
      "Ġrencontrer": 3079,
      "Ġadvice": 3080,
      "midi": 3081,
      "uck": 3082,
      "Ġrom": 3083,
      "ĠVotre": 3084,
      "Ġflow": 3085,
      "Ġhistoire": 3086,
      "Ã«": 3087,
      "Ġlie": 3088,
      "ĠWhich": 3089,
      "ĠimmÃ©di": 3090,
      "ĠderriÃ¨re": 3091,
      "Ġafternoon": 3092,
      "form": 3093,
      "Ġdim": 3094,
      "ush": 3095,
      "Ġchoc": 3096,
      "Ġserais": 3097,
      "Ġworks": 3098,
      "Ġendroit": 3099,
      "Ġkilled": 3100,
      "Ġset": 3101,
      "ĠrÃ©c": 3102,
      "amed": 3103,
      "eler": 3104,
      "Ġblack": 3105,
      "attend": 3106,
      "Ġtrip": 3107,
      "Ġclothes": 3108,
      "ual": 3109,
      "usÃ©": 3110,
      "Ġlait": 3111,
      "anto": 3112,
      "Ġdiscuss": 3113,
      "Ġbox": 3114,
      "Ġcul": 3115,
      "Ġtaking": 3116,
      "ĠrÃ©veill": 3117,
      "Ġattendre": 3118,
      "Ġsport": 3119,
      "Ġmains": 3120,
      "ras": 3121,
      "Ġtick": 3122,
      "Ġble": 3123,
      "Ġrue": 3124,
      "Ġless": 3125,
      "Ġusually": 3126,
      "ĠÃ©crire": 3127,
      "Ġspeaks": 3128,
      "Ġsupposed": 3129,
      "Ġeffort": 3130,
      "tte": 3131,
      "Ġrentre": 3132,
      "land": 3133,
      "Ġchanger": 3134,
      "Ġdonc": 3135,
      "Ġrouge": 3136,
      "cs": 3137,
      "ses": 3138,
      "Ġdesc": 3139,
      "oser": 3140,
      "Ġdites": 3141,
      "Ġpleas": 3142,
      "Ġdormir": 3143,
      "Ġeux": 3144,
      "Ġquatre": 3145,
      "Ġthir": 3146,
      "ĠAtt": 3147,
      "Ġhungry": 3148,
      "Ã©v": 3149,
      "ettre": 3150,
      "Ã´le": 3151,
      "Ġloves": 3152,
      "tenir": 3153,
      "Ġtaxi": 3154,
      "Ġexactement": 3155,
      "Ġpress": 3156,
      "Ġbaby": 3157,
      "Ġjoin": 3158,
      "tel": 3159,
      "uel": 3160,
      "Ġarm": 3161,
      "ĠFor": 3162,
      "Ġexper": 3163,
      "Ġnombreux": 3164,
      "Ġcomplete": 3165,
      "ĠPeut": 3166,
      "aff": 3167,
      "Ġfont": 3168,
      "Ġwine": 3169,
      "ots": 3170,
      "Ã©tud": 3171,
      "ĠVo": 3172,
      "peau": 3173,
      "aÃ®tre": 3174,
      "Ġlangues": 3175,
      "Ġinterested": 3176,
      "bas": 3177,
      "Ġcoin": 3178,
      "Ġwhe": 3179,
      "urg": 3180,
      "Ġriche": 3181,
      "Ġtouch": 3182,
      "Ġorder": 3183,
      "Ġpouvais": 3184,
      "Ġpoor": 3185,
      "Ġmilk": 3186,
      "Ġpark": 3187,
      "ards": 3188,
      "ĠimmÃ©diatement": 3189,
      "by": 3190,
      "dic": 3191,
      "gan": 3192,
      "Ġchois": 3193,
      "Ã©tr": 3194,
      "ĠapprÃ©c": 3195,
      "Ġpayer": 3196,
      "Ġcatch": 3197,
      "ĠKeep": 3198,
      "Ġpauv": 3199,
      "ĠcÃ©l": 3200,
      "Ġroute": 3201,
      "Ã¢t": 3202,
      "ĠprÃ©v": 3203,
      "Ġmessage": 3204,
      "cu": 3205,
      "fast": 3206,
      "Ġlose": 3207,
      "annÃ©e": 3208,
      "Ġfond": 3209,
      "Ġem": 3210,
      "Ãªcher": 3211,
      "Ġprodu": 3212,
      "Ġanybody": 3213,
      "Ġcommence": 3214,
      "ĠdÃ©cidÃ©": 3215,
      "Ġabsol": 3216,
      "Ġfavorite": 3217,
      "Ġplaisir": 3218,
      "Ġjaponais": 3219,
      "ray": 3220,
      "Ġleg": 3221,
      "ĠSp": 3222,
      "Ġrare": 3223,
      "ĠOh": 3224,
      "ĠÃ©cout": 3225,
      "Ġpenses": 3226,
      "Ġaccomp": 3227,
      "lly": 3228,
      "Ġneige": 3229,
      "rie": 3230,
      "llemand": 3231,
      "Ġmarcher": 3232,
      "Ġcake": 3233,
      "stru": 3234,
      "ling": 3235,
      "ub": 3236,
      "Ġcade": 3237,
      "uritÃ©": 3238,
      "Ġallons": 3239,
      "Ġprogr": 3240,
      "Ġperfect": 3241,
      "Ġfemmes": 3242,
      "Ġviend": 3243,
      "Ġsignif": 3244,
      "Ġvend": 3245,
      "unk": 3246,
      "Ġclim": 3247,
      "Ġhotel": 3248,
      "cÃ©": 3249,
      "Ġpous": 3250,
      "Ġwall": 3251,
      "Ġdel": 3252,
      "Ġjard": 3253,
      "Ã¨tement": 3254,
      "Ġbruit": 3255,
      "Ġgarden": 3256,
      "ĠgÃ©nÃ©r": 3257,
      "Ġrapidement": 3258,
      "ĠsÃ©c": 3259,
      "tern": 3260,
      "Ġtomber": 3261,
      "Ġolder": 3262,
      "Ġconcert": 3263,
      "Ġargent": 3264,
      "Ġboulot": 3265,
      "fs": 3266,
      "Ġcir": 3267,
      "Ġfleurs": 3268,
      "alf": 3269,
      "oise": 3270,
      "Ġprefer": 3271,
      "Ġsouff": 3272,
      "ĠboÃ®": 3273,
      "ĠtÃ©lÃ©vision": 3274,
      "ĠfaÃ§on": 3275,
      "Ġexactly": 3276,
      "Ġpick": 3277,
      "Ġve": 3278,
      "Ġhat": 3279,
      "ames": 3280,
      "blig": 3281,
      "Ġdevant": 3282,
      "lace": 3283,
      "appelle": 3284,
      "Ãªtements": 3285,
      "Ġmauvaise": 3286,
      "Ġprobablement": 3287,
      "Ġvacances": 3288,
      "ss": 3289,
      "Ġpaid": 3290,
      "Ġnorm": 3291,
      "Ġneigh": 3292,
      "ĠreÃ§u": 3293,
      "tures": 3294,
      "Ġsty": 3295,
      "Ġoutside": 3296,
      "Ġcapable": 3297,
      "Ġdroit": 3298,
      "Ġneighb": 3299,
      "Ã§a": 3300,
      "Ġtas": 3301,
      "sel": 3302,
      "Ġwhite": 3303,
      "ĠappelÃ©": 3304,
      "Ã«l": 3305,
      "Ġdeb": 3306,
      "Ġhit": 3307,
      "ĠEurope": 3308,
      "Ġlived": 3309,
      "Ġparc": 3310,
      "Ġatte": 3311,
      "Ġplusieurs": 3312,
      "lfriend": 3313,
      "Ġkept": 3314,
      "Ġmourir": 3315,
      "gar": 3316,
      "Ġlaug": 3317,
      "Ġearth": 3318,
      "Ġteam": 3319,
      "quel": 3320,
      "ĠrÃ©pond": 3321,
      "Ġgirlfriend": 3322,
      "Ġmagas": 3323,
      "Ġquickly": 3324,
      "aque": 3325,
      "dit": 3326,
      "tez": 3327,
      "iconque": 3328,
      "Ġfrapp": 3329,
      "Ġpresent": 3330,
      "Ġfumer": 3331,
      "ape": 3332,
      "naire": 3333,
      "essay": 3334,
      "Ġperdre": 3335,
      "Ġprochain": 3336,
      "paravant": 3337,
      "Ġenseign": 3338,
      "lent": 3339,
      "ming": 3340,
      "Ġpie": 3341,
      "ĠlÃ©g": 3342,
      "Ġelles": 3343,
      "idd": 3344,
      "ĠMany": 3345,
      "Ġproud": 3346,
      "Ġsafe": 3347,
      "ives": 3348,
      "ĠprÃ©fÃ¨re": 3349,
      "ĠcomplÃ¨tement": 3350,
      "Ġchanter": 3351,
      "Ġstreet": 3352,
      "Ġ-": 3353,
      "Ġjet": 3354,
      "room": 3355,
      "Ġjeunes": 3356,
      "Ġriver": 3357,
      "Ġmanque": 3358,
      "Ġentendre": 3359,
      "Ġwrote": 3360,
      "Ġshoes": 3361,
      "Ġprobably": 3362,
      "quipe": 3363,
      "ĠgÃ¢teau": 3364,
      "Ġjardin": 3365,
      "bed": 3366,
      "ĠvÃªtements": 3367,
      "Ġhour": 3368,
      "ĠSes": 3369,
      "Ġlibre": 3370,
      "Ġriv": 3371,
      "Ġhomework": 3372,
      "ĠAnd": 3373,
      "ĠÃ©tudiants": 3374,
      "Ġlis": 3375,
      "Ġnoir": 3376,
      "Ġsuit": 3377,
      "ĠSun": 3378,
      "agÃ©": 3379,
      "nement": 3380,
      "Ġauparavant": 3381,
      "oles": 3382,
      "cial": 3383,
      "ressed": 3384,
      "Ã»t": 3385,
      "airs": 3386,
      "Ġchercher": 3387,
      "Ġbegan": 3388,
      "Ġate": 3389,
      "Ġscient": 3390,
      "Ġdeal": 3391,
      "Ġrequ": 3392,
      "Ġheav": 3393,
      "Ġpluie": 3394,
      "Ġknown": 3395,
      "gles": 3396,
      "Ġlanguages": 3397,
      "Ġaurait": 3398,
      "Ġgagner": 3399,
      "Ġintelligent": 3400,
      "apprÃ©cie": 3401,
      "Ġcur": 3402,
      "ceed": 3403,
      "ides": 3404,
      "pping": 3405,
      "quelle": 3406,
      "Ġappre": 3407,
      "Ġexpensive": 3408,
      "Ġposs": 3409,
      "Ġpromis": 3410,
      "Ġpou": 3411,
      "Ġcu": 3412,
      "Ġbot": 3413,
      "Ġenn": 3414,
      "Ġchocol": 3415,
      "ĠLaissez": 3416,
      "ĠSomet": 3417,
      "Ġeng": 3418,
      "Ġrather": 3419,
      "ules": 3420,
      "Ġguess": 3421,
      "ĠÃ©tudier": 3422,
      "ront": 3423,
      "rons": 3424,
      "Ġpur": 3425,
      "Ġcase": 3426,
      "oto": 3427,
      "Ġjol": 3428,
      "ĠannÃ©e": 3429,
      "Ġcelle": 3430,
      "Ġress": 3431,
      "Ġpleurer": 3432,
      "Ġvisite": 3433,
      "Ġfeeling": 3434,
      "Ġ10": 3435,
      "ĠannÃ©es": 3436,
      "Ġwatching": 3437,
      "iversaire": 3438,
      "Ġbreakfast": 3439,
      "ĠÃ©trang": 3440,
      "hip": 3441,
      "lin": 3442,
      "Ġball": 3443,
      "arri": 3444,
      "eth": 3445,
      "Ġnecess": 3446,
      "ĠFait": 3447,
      "Ġsavait": 3448,
      "Ġmeilleure": 3449,
      "ĠbÃ©bÃ©": 3450,
      "ĠboÃ®te": 3451,
      "Ġpaper": 3452,
      "Ġtot": 3453,
      "aim": 3454,
      "Ġpast": 3455,
      "ĠHere": 3456,
      "Ġappe": 3457,
      "Ġbecame": 3458,
      "Ġkey": 3459,
      "Ġcuisine": 3460,
      "Ġidiot": 3461,
      "Ġappreci": 3462,
      "ira": 3463,
      "outh": 3464,
      "ived": 3465,
      "ĠrÃ©uss": 3466,
      "Ġspent": 3467,
      "Ã©rique": 3468,
      "Ġsmoking": 3469,
      "Ġfuture": 3470,
      "Ġchanson": 3471,
      "ock": 3472,
      "Ġcit": 3473,
      "Ġoblig": 3474,
      "ĠAprÃ¨s": 3475,
      "amen": 3476,
      "osÃ©": 3477,
      "Ġtomb": 3478,
      "Ġguy": 3479,
      "ĠlumiÃ¨re": 3480,
      "Ġflowers": 3481,
      "selves": 3482,
      "mment": 3483,
      "Ġremp": 3484,
      "Ġretur": 3485,
      "Ġhaut": 3486,
      "stit": 3487,
      "Ġdonne": 3488,
      "Ġbring": 3489,
      "Ġfinish": 3490,
      "Ġinvited": 3491,
      "ails": 3492,
      "Ġessayer": 3493,
      "Ġdevoirs": 3494,
      "rup": 3495,
      "Ġsorte": 3496,
      "arning": 3497,
      "Ġjeu": 3498,
      "Ġchoix": 3499,
      "illage": 3500,
      "Ġcourt": 3501,
      "accident": 3502,
      "Ġwearing": 3503,
      "Ġcrazy": 3504,
      "band": 3505,
      "Ġpen": 3506,
      "Ġmad": 3507,
      "ility": 3508,
      "ĠCert": 3509,
      "ĠÃ©tions": 3510,
      "prit": 3511,
      "Ġimpression": 3512,
      "Ġremar": 3513,
      "Ġstrange": 3514,
      "ĠnÃ©cessaire": 3515,
      "ĠsÃ©curitÃ©": 3516,
      "noc": 3517,
      "Ġtall": 3518,
      "enez": 3519,
      "isc": 3520,
      "idence": 3521,
      "ĠmarchÃ©": 3522,
      "Ġconsid": 3523,
      "Ġfaisait": 3524,
      "Ġutiliser": 3525,
      "Ġsuggest": 3526,
      "Ġbirthday": 3527,
      "hon": 3528,
      "Ġdate": 3529,
      "Ġlaisse": 3530,
      "itiÃ©": 3531,
      "ĠEss": 3532,
      "ĠnumÃ©ro": 3533,
      "Ġinformation": 3534,
      "Ġcorrect": 3535,
      "Ġsoup": 3536,
      "Ġcach": 3537,
      "Ġcrit": 3538,
      "user": 3539,
      "irt": 3540,
      "Ġtromp": 3541,
      "Ġcarte": 3542,
      "Ġstudying": 3543,
      "Ġevening": 3544,
      "ĠarrÃªtÃ©": 3545,
      "Ġsymp": 3546,
      "Ġsuccess": 3547,
      "Ġcup": 3548,
      "ilitÃ©": 3549,
      "ĠPe": 3550,
      "istoire": 3551,
      "ĠconnaÃ®t": 3552,
      "ĠKen": 3553,
      "Ġchapeau": 3554,
      "ĠrÃ©pondre": 3555,
      "Ġslow": 3556,
      "aw": 3557,
      "Ġnation": 3558,
      "ĠbiÃ¨re": 3559,
      "Ġhalf": 3560,
      "ĠNon": 3561,
      "ended": 3562,
      "Ġaband": 3563,
      "raient": 3564,
      "Ġthank": 3565,
      "ĠKy": 3566,
      "Ġgirls": 3567,
      "Ġhuman": 3568,
      "habitude": 3569,
      "Ġsuffis": 3570,
      "Ġprends": 3571,
      "Ġciel": 3572,
      "Ġvir": 3573,
      "arre": 3574,
      "Ġmem": 3575,
      "Ġsex": 3576,
      "ĠItal": 3577,
      "ĠOK": 3578,
      "ĠrÃ©g": 3579,
      "ĠRien": 3580,
      "Ġrobe": 3581,
      "Ġmath": 3582,
      "Ġspeaking": 3583,
      "Ġeaten": 3584,
      "ĠEverybody": 3585,
      "Ġwritten": 3586,
      "ement": 3587,
      "phone": 3588,
      "Ġallez": 3589,
      "Ġfier": 3590,
      "Ġweren": 3591,
      "Ġsavez": 3592,
      "Ġparticul": 3593,
      "Ġroad": 3594,
      "Ġpensez": 3595,
      "Ġmalad": 3596,
      "Ġflo": 3597,
      "Ġcamp": 3598,
      "ĠAfter": 3599,
      "gu": 3600,
      "ior": 3601,
      "zz": 3602,
      "Ġmang": 3603,
      "Ġstore": 3604,
      "ĠBien": 3605,
      "Ġtakes": 3606,
      "Ġmatch": 3607,
      "Ġloved": 3608,
      "Ġnombreuses": 3609,
      "ĠAustralia": 3610,
      "Ġdark": 3611,
      "Ġvaut": 3612,
      "Ġhors": 3613,
      "enty": 3614,
      "usband": 3615,
      "agit": 3616,
      "oose": 3617,
      "Ġpleuv": 3618,
      "Ġproblems": 3619,
      "Ġlorsqu": 3620,
      "Ġconvain": 3621,
      "Ġait": 3622,
      "ĠsÃ©": 3623,
      "Ġsang": 3624,
      "ĠmÃ©t": 3625,
      "omb": 3626,
      "Ã¨que": 3627,
      "Ġplein": 3628,
      "Ġdispose": 3629,
      "Ġwomen": 3630,
      "Ġcrime": 3631,
      "lÃ©ch": 3632,
      "Unis": 3633,
      "ton": 3634,
      "Ġsend": 3635,
      "Ġsense": 3636,
      "Ġbeer": 3637,
      "Ġsell": 3638,
      "Ġasleep": 3639,
      "Ġlearned": 3640,
      "ĠÃītats": 3641,
      "Ġchanged": 3642,
      "ĠLorsque": 3643,
      "Ġchaussures": 3644,
      "ĠFaites": 3645,
      "atique": 3646,
      "Ġhusband": 3647,
      "ales": 3648,
      "ĠMais": 3649,
      "Ġstayed": 3650,
      "vised": 3651,
      "Ġphrases": 3652,
      "Ġmagasin": 3653,
      "hor": 3654,
      "istes": 3655,
      "ĠdÃ©l": 3656,
      "autres": 3657,
      "Ġworked": 3658,
      "Ġreport": 3659,
      "ĠaimÃ©": 3660,
      "Ġexplain": 3661,
      "ĠrÃªve": 3662,
      "Ġpot": 3663,
      "rieur": 3664,
      "ĠMe": 3665,
      "Ġgets": 3666,
      "Ġrob": 3667,
      "ĠNoÃ«l": 3668,
      "Ġrevoir": 3669,
      "ĠterminÃ©": 3670,
      "asion": 3671,
      "roy": 3672,
      "Ġautour": 3673,
      "liquer": 3674,
      "ĠAlger": 3675,
      "Ġhorse": 3676,
      "Ġtim": 3677,
      "Ġdange": 3678,
      "Ġpan": 3679,
      "Ġleast": 3680,
      "Ġprot": 3681,
      "Ġcheck": 3682,
      "Ġbras": 3683,
      "Ġcrying": 3684,
      "Ġsatisf": 3685,
      "Ġstopped": 3686,
      "mi": 3687,
      "men": 3688,
      "Ġpren": 3689,
      "Ġfight": 3690,
      "road": 3691,
      "Ġdirect": 3692,
      "Ġvieille": 3693,
      "Ġcourse": 3694,
      "Ġcertaine": 3695,
      "Ġordinateur": 3696,
      "Ġcadeau": 3697,
      "Ġinnoc": 3698,
      "ĠNow": 3699,
      "Ġexist": 3700,
      "Ġsomme": 3701,
      "dez": 3702,
      "Ġcompris": 3703,
      "raw": 3704,
      "Ġterrible": 3705,
      "Ġveulent": 3706,
      "Ġduring": 3707,
      "run": 3708,
      "erve": 3709,
      "Ġmens": 3710,
      "Ã©qu": 3711,
      "Ġfool": 3712,
      "Ġboss": 3713,
      "Ġlau": 3714,
      "Ġlaquelle": 3715,
      "ĠLind": 3716,
      "ague": 3717,
      "Ġrire": 3718,
      "ettez": 3719,
      "Ġbrought": 3720,
      "Ġfunny": 3721,
      "Ġcheval": 3722,
      "Ġtreat": 3723,
      "ĠbÃ¢t": 3724,
      "ator": 3725,
      "Ġgouver": 3726,
      "Ġplup": 3727,
      "ĠPr": 3728,
      "Ġclosed": 3729,
      "Ġorgan": 3730,
      "Ġpossi": 3731,
      "ĠoccupÃ©e": 3732,
      "ĠAuc": 3733,
      "Ġplupart": 3734,
      "mas": 3735,
      "reed": 3736,
      "Ġmeans": 3737,
      "Ġev": 3738,
      "ĠSm": 3739,
      "chez": 3740,
      "ĠPourriez": 3741,
      "Ġblanc": 3742,
      "Ġeverybody": 3743,
      "Ġmove": 3744,
      "ograp": 3745,
      "Ġassis": 3746,
      "Ġhold": 3747,
      "Ġpoisson": 3748,
      "Ġappreciate": 3749,
      "ĠLinda": 3750,
      "Ġtrente": 3751,
      "oudre": 3752,
      "Ġsuite": 3753,
      "aged": 3754,
      "Ġalong": 3755,
      "bli": 3756,
      "aleur": 3757,
      "Ġregarde": 3758,
      "intention": 3759,
      "Ġphotos": 3760,
      "ĠdÃ©solÃ©e": 3761,
      "af": 3762,
      "Ġtort": 3763,
      "Ġvent": 3764,
      "arÃ©": 3765,
      "ili": 3766,
      "ĠSais": 3767,
      "Ġadvised": 3768,
      "Ġresult": 3769,
      "Ġferm": 3770,
      "Ġpromise": 3771,
      "ĠrÃ©sult": 3772,
      "Ġbroken": 3773,
      "Ġstupide": 3774,
      "ĠAmerica": 3775,
      "ĠChinese": 3776,
      "ĠCanada": 3777,
      "\".": 3778,
      "isme": 3779,
      "itation": 3780,
      "Ġworth": 3781,
      "vern": 3782,
      "iennent": 3783,
      "Ġattr": 3784,
      "Ġsouviens": 3785,
      "ĠriviÃ¨re": 3786,
      "ĠKyoto": 3787,
      "histoire": 3788,
      "Ġoise": 3789,
      "amm": 3790,
      "Ġtaken": 3791,
      "ĠclÃ©": 3792,
      "ĠdÃ©cision": 3793,
      "Ġenvir": 3794,
      "Ġcommencer": 3795,
      "Ġemploi": 3796,
      "Ġdictionnaire": 3797,
      "Ġcompletely": 3798,
      "dess": 3799,
      "way": 3800,
      "Ġchin": 3801,
      "Ġchar": 3802,
      "indre": 3803,
      "Ġdangerous": 3804,
      "ĠblessÃ©": 3805,
      "Ġsucceed": 3806,
      "Ġdictionary": 3807,
      "ĠNothing": 3808,
      "Ġprinci": 3809,
      "ror": 3810,
      "Ġmount": 3811,
      "Ġvict": 3812,
      "Ġvoix": 3813,
      "univers": 3814,
      "ĠrÃ©al": 3815,
      "Ġappar": 3816,
      "Ġdrunk": 3817,
      "Ġdrinking": 3818,
      "Ġsolution": 3819,
      "Ġmistakes": 3820,
      "ĠChristmas": 3821,
      "fu": 3822,
      "Ġtalent": 3823,
      "onner": 3824,
      "Ġland": 3825,
      "lla": 3826,
      "lled": 3827,
      "Ġhonn": 3828,
      "let": 3829,
      "Ġchoice": 3830,
      "ĠPenses": 3831,
      "prise": 3832,
      "Ġvoulons": 3833,
      "ĠÃīc": 3834,
      "enne": 3835,
      "inÃ©": 3836,
      "Ġfine": 3837,
      "ices": 3838,
      "Ġavais": 3839,
      "ensÃ©": 3840,
      "Ġmaj": 3841,
      "Ġposte": 3842,
      "ĠrÃ©soudre": 3843,
      "Ġrapport": 3844,
      "ĠMaybe": 3845,
      "Ġanimaux": 3846,
      "Ġwriting": 3847,
      "Ġapolog": 3848,
      "Ġsand": 3849,
      "Ġbal": 3850,
      "ently": 3851,
      "Ġinj": 3852,
      "irm": 3853,
      "Ġchem": 3854,
      "ĠPourrais": 3855,
      "arrÃªter": 3856,
      "Ġhonest": 3857,
      "oupe": 3858,
      "Ġside": 3859,
      "Ġbody": 3860,
      "Ġlearning": 3861,
      "Ġdispos": 3862,
      "Ġdisappoint": 3863,
      "Ġwhether": 3864,
      "emb": 3865,
      "ule": 3866,
      "ĠsÃ©rie": 3867,
      "icle": 3868,
      "Ġamb": 3869,
      "Ġmesure": 3870,
      "Ġplane": 3871,
      "Ġhurry": 3872,
      "Ã©tranger": 3873,
      "Ġpauvre": 3874,
      "Ġlim": 3875,
      "Ġgun": 3876,
      "Ġenem": 3877,
      "amp": 3878,
      "ĠPense": 3879,
      "Ġthinks": 3880,
      "rown": 3881,
      "Ġdemanda": 3882,
      "Ã©rience": 3883,
      "Ã¢mes": 3884,
      "ĠEverything": 3885,
      "Ġforeign": 3886,
      "Ġbuilding": 3887,
      "ĠPeople": 3888,
      "iÃ¨me": 3889,
      "old": 3890,
      "erc": 3891,
      "Ġcand": 3892,
      "Ġbate": 3893,
      "Ġbath": 3894,
      "ĠgÃ©": 3895,
      "Ġrecher": 3896,
      "Ġear": 3897,
      "auche": 3898,
      "ĠYork": 3899,
      "Ġkids": 3900,
      "Ġneeded": 3901,
      "Ġoffer": 3902,
      "Ġautor": 3903,
      "Ġpriv": 3904,
      "Ġanimals": 3905,
      "Ġdivor": 3906,
      "Ġrentrer": 3907,
      "Ġnecessary": 3908,
      "gment": 3909,
      "oie": 3910,
      "Ġmit": 3911,
      "rol": 3912,
      "Ġtelling": 3913,
      "Ġsmile": 3914,
      "ffect": 3915,
      "Ġmariage": 3916,
      "hÃ´pital": 3917,
      "ges": 3918,
      "Ġsad": 3919,
      "rif": 3920,
      "Ã¨de": 3921,
      "utile": 3922,
      "Ġsel": 3923,
      "Ġkil": 3924,
      "Ġrendu": 3925,
      "Ã©rif": 3926,
      "Ġaccep": 3927,
      "ross": 3928,
      "Ġaddress": 3929,
      "ĠintÃ©ressant": 3930,
      "Ġsatisfait": 3931,
      "Ġum": 3932,
      "itch": 3933,
      "Ġbank": 3934,
      "ĠchangÃ©": 3935,
      "Ġlibr": 3936,
      "Ġliked": 3937,
      "Ġparap": 3938,
      "Ġtelle": 3939,
      "Ġstar": 3940,
      "Ġquiet": 3941,
      "ffic": 3942,
      "ĠtombÃ©": 3943,
      "Ġferai": 3944,
      "Ġdecision": 3945,
      "Ġrelig": 3946,
      "ĠÃ©trange": 3947,
      "erv": 3948,
      "ĠTa": 3949,
      "Ġopt": 3950,
      "aces": 3951,
      "Ġtalked": 3952,
      "Ġdiscuter": 3953,
      "Ġaimer": 3954,
      "Ġconseill": 3955,
      "ged": 3956,
      "hy": 3957,
      "Ġsme": 3958,
      "Ġnett": 3959,
      "omas": 3960,
      "Ġtop": 3961,
      "ĠSoyez": 3962,
      "ĠDites": 3963,
      "Ġpron": 3964,
      "Ġrid": 3965,
      "ĠBut": 3966,
      "ĠrÃ©ussi": 3967,
      "ĠGr": 3968,
      "Ġimpat": 3969,
      "Ġscared": 3970,
      "lock": 3971,
      "acheter": 3972,
      "Ġsky": 3973,
      "Ġbaseball": 3974,
      "ĠrÃ©flÃ©ch": 3975,
      "Ġumbre": 3976,
      "rew": 3977,
      "ĠhÃ´": 3978,
      "ari": 3979,
      "ĠSavez": 3980,
      "ĠDÃ©s": 3981,
      "Ġparv": 3982,
      "ĠThomas": 3983,
      "Ġhasn": 3984,
      "Ġloc": 3985,
      "Ġimpro": 3986,
      "ormais": 3987,
      "ĠÃ©cole": 3988,
      "ĠMonday": 3989,
      "Ġsmoke": 3990,
      "Ġlundi": 3991,
      "Ġ20": 3992,
      "Ġbibli": 3993,
      "Ġservice": 3994,
      "ĠsuccÃ¨s": 3995,
      "ĠRegarde": 3996,
      "gy": 3997,
      "ik": 3998,
      "set": 3999,
      "Ġfasse": 4000,
      "Ġvillage": 4001,
      "ingt": 4002,
      "edi": 4003,
      "Ġele": 4004,
      "igner": 4005,
      "ĠVoud": 4006,
      "Ġprojet": 4007,
      "ĠOui": 4008,
      "areil": 4009,
      "Ġperd": 4010,
      "Ġfinally": 4011,
      "Ġweekend": 4012,
      "Ġcouleur": 4013,
      "Ġgrosse": 4014,
      "Ġeye": 4015,
      "Ġdevenu": 4016,
      "Ġmissed": 4017,
      "Ġswimming": 4018,
      "Ġtradu": 4019,
      "Ġpossib": 4020,
      "mon": 4021,
      "ta": 4022,
      "Ġtor": 4023,
      "ism": 4024,
      "Ġmir": 4025,
      "ĠWas": 4026,
      "Ġchiens": 4027,
      "ĠPut": 4028,
      "Ġsoin": 4029,
      "dered": 4030,
      "Ġintro": 4031,
      "Ġmontrer": 4032,
      "Ġcorps": 4033,
      "ĠAujourd": 4034,
      "Ġhundre": 4035,
      "ĠdÃ©but": 4036,
      "Ġracont": 4037,
      "Ġticket": 4038,
      "Ġbiblioth": 4039,
      "come": 4040,
      "ket": 4041,
      "rat": 4042,
      "erne": 4043,
      "Ġbiz": 4044,
      "Ġvide": 4045,
      "Ġgri": 4046,
      "irai": 4047,
      "Ġbeach": 4048,
      "Ġchats": 4049,
      "ĠAllez": 4050,
      "Ġmarche": 4051,
      "Ġcross": 4052,
      "Ġsentences": 4053,
      "000": 4054,
      "Ġfaul": 4055,
      "Ġmedic": 4056,
      "Ġdimanche": 4057,
      "friend": 4058,
      "Ġdent": 4059,
      "Ġneu": 4060,
      "Ġbread": 4061,
      "ĠPlus": 4062,
      "Ġdise": 4063,
      "Ã©ric": 4064,
      "Ġvisage": 4065,
      "Ġfamous": 4066,
      "Ġdogs": 4067,
      "Ġfurent": 4068,
      "Ġwalked": 4069,
      "Ġgarder": 4070,
      "Ġrappelle": 4071,
      "Ġgentil": 4072,
      "Ġsucre": 4073,
      "ament": 4074,
      "sh": 4075,
      "Ġwarm": 4076,
      "arch": 4077,
      "Ġlac": 4078,
      "ĠPas": 4079,
      "Ġprote": 4080,
      "Ġprov": 4081,
      "Ġgovern": 4082,
      "iÃ¨rement": 4083,
      "ĠvolÃ©": 4084,
      "Ġaffaires": 4085,
      "Ġemploy": 4086,
      "ĠPensez": 4087,
      "reuse": 4088,
      "Ġhid": 4089,
      "ĠMont": 4090,
      "iche": 4091,
      "Ġkn": 4092,
      "Ġprep": 4093,
      "Ġvoulu": 4094,
      "Ġanimal": 4095,
      "ĠgagnÃ©": 4096,
      "ĠrÃ¨gles": 4097,
      "Ġbateau": 4098,
      "cience": 4099,
      "Ġporter": 4100,
      "Ġpower": 4101,
      "Ġfus": 4102,
      "Ġdet": 4103,
      "Ġhy": 4104,
      "Ġforward": 4105,
      "ĠPrends": 4106,
      "Ġsalle": 4107,
      "Ġride": 4108,
      "ĠBeau": 4109,
      "Ġseeing": 4110,
      "Ġposer": 4111,
      "Ġdoub": 4112,
      "ception": 4113,
      "Ġclear": 4114,
      "Ġtravel": 4115,
      "Ġamoureux": 4116,
      "lu": 4117,
      "Ġignor": 4118,
      "Ġgif": 4119,
      "rog": 4120,
      "venu": 4121,
      "ouvert": 4122,
      "liquÃ©": 4123,
      "Ġobject": 4124,
      "Ġopened": 4125,
      "Ġconseil": 4126,
      "Ġlucky": 4127,
      "Ġthirty": 4128,
      "fully": 4129,
      "luie": 4130,
      "Ġfail": 4131,
      "Ġdeep": 4132,
      "Ġrules": 4133,
      "Ġpard": 4134,
      "acle": 4135,
      "ĠprÃªte": 4136,
      "Ġworried": 4137,
      "Ġcoat": 4138,
      "Ġcommen": 4139,
      "ĠprÃ©fÃ©r": 4140,
      "occup": 4141,
      "Ġprincip": 4142,
      "Ġparapluie": 4143,
      "Ġumbrella": 4144,
      "ĠBeaucoup": 4145,
      "ike": 4146,
      "Ġtasse": 4147,
      "Ġpommes": 4148,
      "Ġdef": 4149,
      "Ġvingt": 4150,
      "aig": 4151,
      "irÃ©": 4152,
      "alous": 4153,
      "Ġparfois": 4154,
      "Ġnote": 4155,
      "ĠÃ©le": 4156,
      "asses": 4157,
      "Ġspoke": 4158,
      "ĠSomeone": 4159,
      "Ġimmedi": 4160,
      "dden": 4161,
      "Ġnoise": 4162,
      "Ġborrow": 4163,
      "Ġplain": 4164,
      "Ġplage": 4165,
      "Ġabroad": 4166,
      "Ġconsider": 4167,
      "espÃ©r": 4168,
      "Ġdispar": 4169,
      "Ġabsent": 4170,
      "ĠToday": 4171,
      "Ġadmit": 4172,
      "ĠÃ©galement": 4173,
      "Ġlibrary": 4174,
      "gÃ©": 4175,
      "Ġdance": 4176,
      "Ġsn": 4177,
      "Ġfri": 4178,
      "usse": 4179,
      "Ġrum": 4180,
      "Ġweight": 4181,
      "acun": 4182,
      "olÃ©": 4183,
      "Ã©cu": 4184,
      "Ġapple": 4185,
      "Ġhelped": 4186,
      "ĠAny": 4187,
      "Ġfloor": 4188,
      "Ġsmell": 4189,
      "ĠbibliothÃ¨que": 4190,
      "ech": 4191,
      "Ġdoute": 4192,
      "ĠTry": 4193,
      "ara": 4194,
      "Ġunivers": 4195,
      "Ġlead": 4196,
      "Ġremer": 4197,
      "Ġfinir": 4198,
      "ĠdÃ©sormais": 4199,
      "examen": 4200,
      "Ġconcern": 4201,
      "ĠArrÃªtez": 4202,
      "Ġprogram": 4203,
      "Ġgouvernement": 4204,
      "Ġ4": 4205,
      "Ġdents": 4206,
      "Ġcous": 4207,
      "Ġmod": 4208,
      "Ġchante": 4209,
      "Ġrav": 4210,
      "Ġdesk": 4211,
      "ĠtuÃ©": 4212,
      "aked": 4213,
      "Ġressemble": 4214,
      "Ġcourage": 4215,
      "ĠmÃ©dic": 4216,
      "Ġcouple": 4217,
      "Ġpainting": 4218,
      "Ġboyfriend": 4219,
      "ĠarrÃªter": 4220,
      "Ġdistance": 4221,
      "Ġfaute": 4222,
      "dessus": 4223,
      "uer": 4224,
      "uite": 4225,
      "isation": 4226,
      "ĠJack": 4227,
      "ety": 4228,
      "ĠConn": 4229,
      "iments": 4230,
      "Ġegg": 4231,
      "Ã¨v": 4232,
      "Ġcomb": 4233,
      "Ġcontrib": 4234,
      "onnÃ©": 4235,
      "Ġvouloir": 4236,
      "ogn": 4237,
      "Ġpoids": 4238,
      "Ġsleeping": 4239,
      "Ġmagaz": 4240,
      "Ġquitter": 4241,
      "Ġgener": 4242,
      "Ġembr": 4243,
      "ĠThanks": 4244,
      "irent": 4245,
      "rop": 4246,
      "Ġship": 4247,
      "Ġherself": 4248,
      "Ġhappens": 4249,
      "Ġvenue": 4250,
      "Ġeasily": 4251,
      "Ġfootball": 4252,
      "ĠVoici": 4253,
      "ouÃ©": 4254,
      "oned": 4255,
      "Ġfly": 4256,
      "entendre": 4257,
      "cell": 4258,
      "Ġelect": 4259,
      "ĠHier": 4260,
      "Ġcondu": 4261,
      "Ġrecogn": 4262,
      "Ġrepas": 4263,
      "Ġmoindre": 4264,
      "ĠtÃ©lÃ©phon": 4265,
      "ĠAmerican": 4266,
      "Ġ30": 4267,
      "Ġsuspect": 4268,
      "Ġgiven": 4269,
      "Ġnormal": 4270,
      "Ġsuffisamment": 4271,
      "book": 4272,
      "cte": 4273,
      "clock": 4274,
      "Ġer": 4275,
      "Ġed": 4276,
      "oux": 4277,
      "Ġbons": 4278,
      "outer": 4279,
      "Ġsever": 4280,
      "Ġplans": 4281,
      "ĠPrenez": 4282,
      "ctions": 4283,
      "ĠBr": 4284,
      "ĠBill": 4285,
      "Ġcomprend": 4286,
      "Ġentrer": 4287,
      "Ġouvert": 4288,
      "ĠinvitÃ©": 4289,
      "Ġpromen": 4290,
      "Ġsolve": 4291,
      "Ġcomplain": 4292,
      "Ġfacilement": 4293,
      "Ġdangereux": 4294,
      "Ġlaugh": 4295,
      "Ġice": 4296,
      "itive": 4297,
      "ĠvÃ©rif": 4298,
      "ifs": 4299,
      "ifique": 4300,
      "Ġshut": 4301,
      "aka": 4302,
      "action": 4303,
      "Ġsouc": 4304,
      "Ġrunning": 4305,
      "Ġbizarre": 4306,
      "Ġseveral": 4307,
      "uve": 4308,
      "vant": 4309,
      "Ġach": 4310,
      "Ġcard": 4311,
      "llo": 4312,
      "Ġuncle": 4313,
      "Ġchair": 4314,
      "Ġsea": 4315,
      "Ġwaste": 4316,
      "ĠFin": 4317,
      "Ġcontact": 4318,
      "fection": 4319,
      "Ġfera": 4320,
      "Ġaffaire": 4321,
      "Ġlunettes": 4322,
      "Ġdifference": 4323,
      "Ġdriving": 4324,
      "Ġallowed": 4325,
      "Ġmedicine": 4326,
      "rÃ¨s": 4327,
      "Ġcig": 4328,
      "head": 4329,
      "rier": 4330,
      "ĠEven": 4331,
      "Ġkid": 4332,
      "ĠallÃ©e": 4333,
      "onge": 4334,
      "ĠÃ©quipe": 4335,
      "Ġcourant": 4336,
      "Ġpieds": 4337,
      "dÃ©": 4338,
      "ieur": 4339,
      "inte": 4340,
      "ĠCont": 4341,
      "ird": 4342,
      "ĠBon": 4343,
      "Ġblue": 4344,
      "ĠspÃ©c": 4345,
      "Ġsometimes": 4346,
      "ĠdÃ©cl": 4347,
      "ĠKaby": 4348,
      "ĠdiffÃ©rence": 4349,
      "Ġnewsp": 4350,
      "Ġrisk": 4351,
      "Ġleaving": 4352,
      "bs": 4353,
      "hum": 4354,
      "Ġmign": 4355,
      "ĠJane": 4356,
      "endez": 4357,
      "ĠWere": 4358,
      "Ġfear": 4359,
      "ĠsiÃ¨": 4360,
      "Ġblood": 4361,
      "Ġouver": 4362,
      "ĠÃ©che": 4363,
      "ĠChaque": 4364,
      "ĠpayÃ©": 4365,
      "Ġdurant": 4366,
      "ĠsociÃ©tÃ©": 4367,
      "Ġactually": 4368,
      "ĠSunday": 4369,
      "Ġdom": 4370,
      "ateurs": 4371,
      "ĠJim": 4372,
      "Ġsudden": 4373,
      "Ġtech": 4374,
      "ĠdÃ©g": 4375,
      "Ġmanteau": 4376,
      "Ġpleut": 4377,
      "ĠÃ©cl": 4378,
      "Ġemprun": 4379,
      "Ġpuiss": 4380,
      "Ġmillion": 4381,
      "rupt": 4382,
      "Ġimmediately": 4383,
      "dy": 4384,
      "of": 4385,
      "Ġpage": 4386,
      "itions": 4387,
      "ilt": 4388,
      "Ġoncle": 4389,
      "ĠAve": 4390,
      "Ġseat": 4391,
      "Ġparlez": 4392,
      "els": 4393,
      "cks": 4394,
      "Ġpizz": 4395,
      "ordin": 4396,
      "Ġprice": 4397,
      "Ġmoder": 4398,
      "ĠUnited": 4399,
      "Ġplayed": 4400,
      "ĠStates": 4401,
      "Ġexcuses": 4402,
      "Ġpopular": 4403,
      "Ġgovernment": 4404,
      "ened": 4405,
      "Ã©ch": 4406,
      "armes": 4407,
      "ĠLife": 4408,
      "Ġant": 4409,
      "Ġtran": 4410,
      "Ġforce": 4411,
      "Ġcancer": 4412,
      "Ġcapit": 4413,
      "Ġvacation": 4414,
      "Ġjolie": 4415,
      "con": 4416,
      "dge": 4417,
      "ĠZ": 4418,
      "Ġpai": 4419,
      "enn": 4420,
      "Ġquiconque": 4421,
      "ĠallÃ©s": 4422,
      "Ġcomporte": 4423,
      "Ġpartici": 4424,
      "apprendre": 4425,
      "ĠbrÃ»": 4426,
      "Ġpassed": 4427,
      "ĠrestÃ©": 4428,
      "ĠconnaÃ®tre": 4429,
      "Ġsouci": 4430,
      "ĠrÃ©parer": 4431,
      "Ġhandle": 4432,
      "Ġtraffic": 4433,
      "Ġanniversaire": 4434,
      "Ġraining": 4435,
      "Ġshopping": 4436,
      "Ġhistory": 4437,
      "Ġguitar": 4438,
      "Ġheavy": 4439,
      "Ġchinois": 4440,
      "ĠAvec": 4441,
      "Ġsqu": 4442,
      "heur": 4443,
      "Ġvot": 4444,
      "Ġtruc": 4445,
      "Ġconvers": 4446,
      "Ġtuer": 4447,
      "ustom": 4448,
      "Ġalive": 4449,
      "Ġspeech": 4450,
      "Ġfinalement": 4451,
      "Ġcroy": 4452,
      "Ġcherche": 4453,
      "Ġski": 4454,
      "Ġtelephone": 4455,
      "Ġpapier": 4456,
      "Ġfonctionne": 4457,
      "Ġprudent": 4458,
      "Ġimpatient": 4459,
      "Ġhundred": 4460,
      "ĠcassÃ©": 4461,
      "ĠmÃ©r": 4462,
      "Ġquant": 4463,
      "Ġgay": 4464,
      "rice": 4465,
      "ĠWith": 4466,
      "Ġsept": 4467,
      "ortÃ©": 4468,
      "Ġlog": 4469,
      "attends": 4470,
      "Ġdressed": 4471,
      "Ġerreurs": 4472,
      "30": 4473,
      "oque": 4474,
      "Ġtend": 4475,
      "ene": 4476,
      "isse": 4477,
      "Ġbreat": 4478,
      "ĠTerre": 4479,
      "cha": 4480,
      "ĠMÃªme": 4481,
      "ortun": 4482,
      "Ġshot": 4483,
      "aps": 4484,
      "Ã©rieux": 4485,
      "Ġsoul": 4486,
      "exc": 4487,
      "Ġacross": 4488,
      "Ġdouleur": 4489,
      "Ġcoucher": 4490,
      "Ġpolitique": 4491,
      "ĠExc": 4492,
      "ĠâĢ": 4493,
      "Ġlying": 4494,
      "Ġmention": 4495,
      "Ġbord": 4496,
      "Ġjoke": 4497,
      "Ġsuic": 4498,
      "avion": 4499,
      "ored": 4500,
      "Ġconscience": 4501,
      "ĠregardÃ©": 4502,
      "Ġchamp": 4503,
      "Ġembarr": 4504,
      "Ġfruits": 4505,
      "Ġexperience": 4506,
      "uk": 4507,
      "Ġurg": 4508,
      "Ġpire": 4509,
      "Ġspr": 4510,
      "env": 4511,
      "Ġlend": 4512,
      "Ġliste": 4513,
      "Ġmille": 4514,
      "Ġnav": 4515,
      "Ġvoice": 4516,
      "teen": 4517,
      "ayez": 4518,
      "Ġdos": 4519,
      "amb": 4520,
      "ached": 4521,
      "Ġamies": 4522,
      "Ġarbre": 4523,
      "lame": 4524,
      "ĠÃ©m": 4525,
      "Ġmarry": 4526,
      "raÃ®": 4527,
      "Ġafin": 4528,
      "Ġsupport": 4529,
      "Ġaiment": 4530,
      "Ġviande": 4531,
      "Ġcolor": 4532,
      "Ġcamera": 4533,
      "Ġdessus": 4534,
      "Ġtelevision": 4535,
      "Ġsommeil": 4536,
      "Ġtechn": 4537,
      "cent": 4538,
      "iro": 4539,
      "esprit": 4540,
      "Ġcre": 4541,
      "Ġbur": 4542,
      "Ġtriste": 4543,
      "Ã©crire": 4544,
      "Ġsave": 4545,
      "Ġrendez": 4546,
      "appeler": 4547,
      "Ġmarier": 4548,
      "Ġbelong": 4549,
      "Ġacqu": 4550,
      "ĠenvoyÃ©": 4551,
      "Ġconcent": 4552,
      "Ġshowed": 4553,
      "Ġproposition": 4554,
      "Ġlistening": 4555,
      "Ġsouhaite": 4556,
      "Ġreconnaiss": 4557,
      "ix": 4558,
      "yc": 4559,
      "Ġignore": 4560,
      "Ġsout": 4561,
      "Ġmien": 4562,
      "Ġgauche": 4563,
      "ster": 4564,
      "olf": 4565,
      "Ġgrat": 4566,
      "aking": 4567,
      "Ġspecial": 4568,
      "ĠgarÃ§ons": 4569,
      "Ġcrimin": 4570,
      "Ġapart": 4571,
      "Ġtrem": 4572,
      "ĠAustralie": 4573,
      "ah": 4574,
      "hes": 4575,
      "Ġtaille": 4576,
      "Ġline": 4577,
      "isÃ©e": 4578,
      "Ġcats": 4579,
      "Ġmorte": 4580,
      "ities": 4581,
      "Ġec": 4582,
      "ural": 4583,
      "aprÃ¨s": 4584,
      "ĠmaÃ®": 4585,
      "ierre": 4586,
      "ĠThose": 4587,
      "ouvrir": 4588,
      "Ġclub": 4589,
      "Ġupset": 4590,
      "Ġentend": 4591,
      "Ġgrands": 4592,
      "Ã¢che": 4593,
      "Ġcourir": 4594,
      "Ġtenir": 4595,
      "ĠÃ©tudiant": 4596,
      "Ġnervous": 4597,
      "Ġmoyen": 4598,
      "ĠLondon": 4599,
      "Ġinnocent": 4600,
      "ĠsÃ©rieux": 4601,
      "ishing": 4602,
      "orme": 4603,
      "Ġeither": 4604,
      "Ġtel": 4605,
      "Ġprit": 4606,
      "Ġshop": 4607,
      "Ġseras": 4608,
      "ĠComp": 4609,
      "Ġsomebody": 4610,
      "Ġfermer": 4611,
      "Ġdormi": 4612,
      "Ġfigure": 4613,
      "Ġpleuvoir": 4614,
      "gress": 4615,
      "lam": 4616,
      "ĠdÃ¨s": 4617,
      "Ġcute": 4618,
      "Ġbain": 4619,
      "Ġforme": 4620,
      "Ġstri": 4621,
      "uellement": 4622,
      "Ġnovel": 4623,
      "Ġpersu": 4624,
      "Ġgrandes": 4625,
      "Ġcommand": 4626,
      "Ġaccord": 4627,
      "Ġaccount": 4628,
      "Ġscience": 4629,
      "Ġinvent": 4630,
      "Ġendorm": 4631,
      "Ġprofond": 4632,
      "Ġcapital": 4633,
      "Ġpatron": 4634,
      "Ġsinging": 4635,
      "Ġexpected": 4636,
      "Ġtranslate": 4637,
      "ĠcoÃ»te": 4638,
      "ĠcÃ©lÃ¨": 4639,
      "Ġdisappointed": 4640,
      "ctement": 4641,
      "sy": 4642,
      "Ġsle": 4643,
      "Ġhom": 4644,
      "Ġgas": 4645,
      "ushed": 4646,
      "tem": 4647,
      "ĠMain": 4648,
      "Ġself": 4649,
      "Ġpract": 4650,
      "Ġproche": 4651,
      "Ġexemp": 4652,
      "Ġsale": 4653,
      "Ġgroup": 4654,
      "ĠNever": 4655,
      "venir": 4656,
      "Ġattack": 4657,
      "Ġsupporter": 4658,
      "ĠprÃ©sident": 4659,
      "Ġsingle": 4660,
      "Ġaurais": 4661,
      "Ġbird": 4662,
      "Ġdirait": 4663,
      "Ġwinter": 4664,
      "iendra": 4665,
      "Ġbanque": 4666,
      "ĠLondres": 4667,
      "Ġenviron": 4668,
      "Ġremerc": 4669,
      "Am": 4670,
      "ufs": 4671,
      "Ġdanc": 4672,
      "Ġsight": 4673,
      "Ġlarg": 4674,
      "Ã©ment": 4675,
      "itable": 4676,
      "Ġfre": 4677,
      "ĠTe": 4678,
      "Ġhang": 4679,
      "ousand": 4680,
      "Ġinqui": 4681,
      "ĠCl": 4682,
      "Ġcharg": 4683,
      "Ġrh": 4684,
      "Ġrat": 4685,
      "Ġweird": 4686,
      "Ġking": 4687,
      "Ġaugment": 4688,
      "Ġlongue": 4689,
      "Ġguys": 4690,
      "ĠToutes": 4691,
      "ĠEsper": 4692,
      "Ġvivent": 4693,
      "Ġvoyager": 4694,
      "Ġfortune": 4695,
      "Ġmonths": 4696,
      "Ġglasses": 4697,
      "gie": 4698,
      "mis": 4699,
      "pose": 4700,
      "erais": 4701,
      "ilÃł": 4702,
      "Ġmeat": 4703,
      "Ġbeat": 4704,
      "Ġanc": 4705,
      "Ġcho": 4706,
      "Ġjealous": 4707,
      "ific": 4708,
      "Ġexcell": 4709,
      "ĠBob": 4710,
      "Ġdisent": 4711,
      "Ġsomewhere": 4712,
      "Ġferme": 4713,
      "Ġasking": 4714,
      "Ġtwice": 4715,
      "Ġflu": 4716,
      "ĠarrÃªt": 4717,
      "Ġpopulation": 4718,
      "oublie": 4719,
      "Ġsignifie": 4720,
      "Ġcigare": 4721,
      "ded": 4722,
      "jou": 4723,
      "met": 4724,
      "oÃ¹": 4725,
      "umes": 4726,
      "esse": 4727,
      "Ġcreat": 4728,
      "Ġwake": 4729,
      "Ġburn": 4730,
      "quÃ©e": 4731,
      "Ġlever": 4732,
      "imag": 4733,
      "Ġsugar": 4734,
      "ĠSorry": 4735,
      "Ġteeth": 4736,
      "acter": 4737,
      "olid": 4738,
      "Ġappl": 4739,
      "Ġgroupe": 4740,
      "ĠGood": 4741,
      "ĠRussi": 4742,
      "Ġcroit": 4743,
      "ĠAllons": 4744,
      "Ġfailed": 4745,
      "Ġmagn": 4746,
      "Ġappeler": 4747,
      "Ã©ma": 4748,
      "Ġculture": 4749,
      "stitut": 4750,
      "pÃ¨re": 4751,
      "Ġlarmes": 4752,
      "Ã©ger": 4753,
      "ĠTw": 4754,
      "rois": 4755,
      "Ġeight": 4756,
      "ieuse": 4757,
      "ury": 4758,
      "nel": 4759,
      "cteur": 4760,
      "ĠGard": 4761,
      "Ġpleur": 4762,
      "ĠChine": 4763,
      "Ġpropres": 4764,
      "Ġimportante": 4765,
      "Ġintern": 4766,
      "Ġefforts": 4767,
      "Ġlaughed": 4768,
      "Ġmountain": 4769,
      "ĠhonnÃªte": 4770,
      "Ġpizza": 4771,
      "ĠMaintenant": 4772,
      "iquer": 4773,
      "Ġpomme": 4774,
      "Ġfif": 4775,
      "Ġfair": 4776,
      "rique": 4777,
      "iling": 4778,
      "Ġequ": 4779,
      "Ġdoig": 4780,
      "ĠrÃ©e": 4781,
      "olved": 4782,
      "Ġsorti": 4783,
      "ĠStay": 4784,
      "Ġinside": 4785,
      "ĠDonnez": 4786,
      "Ġlawy": 4787,
      "Ġpiece": 4788,
      "Ġconversation": 4789,
      "ĠEsperanto": 4790,
      "aÃ¯": 4791,
      "bes": 4792,
      "lier": 4793,
      "rouill": 4794,
      "vious": 4795,
      "Ġden": 4796,
      "ined": 4797,
      "Ġcess": 4798,
      "Ġmouth": 4799,
      "Ġfing": 4800,
      "Ġwood": 4801,
      "velo": 4802,
      "Ġmemb": 4803,
      "Ġserez": 4804,
      "aman": 4805,
      "onsieur": 4806,
      "Ãªmes": 4807,
      "ĠVa": 4808,
      "Ġcarry": 4809,
      "oken": 4810,
      "Ġconduis": 4811,
      "Ġyounger": 4812,
      "Ġsuivre": 4813,
      "Ġcuri": 4814,
      "Ġprotect": 4815,
      "Ġdoubt": 4816,
      "hood": 4817,
      "Ġ6": 4818,
      "Ġdut": 4819,
      "Ġfle": 4820,
      "Ġblame": 4821,
      "entends": 4822,
      "ĠSois": 4823,
      "ief": 4824,
      "Ġseven": 4825,
      "Ġtears": 4826,
      "ĠYes": 4827,
      "Ġavaient": 4828,
      "Ġexerc": 4829,
      "Ġcompagn": 4830,
      "ĠÃ©lect": 4831,
      "ĠCeci": 4832,
      "Ġmontagne": 4833,
      "Ġhappening": 4834,
      "Ġdocteur": 4835,
      "Ġcollege": 4836,
      "Ġsitting": 4837,
      "ĠChina": 4838,
      "Ġleaves": 4839,
      "arriver": 4840,
      "Ġintrodu": 4841,
      "lcome": 4842,
      "ones": 4843,
      "Ġloi": 4844,
      "inter": 4845,
      "inqui": 4846,
      "Ġwarn": 4847,
      "riv": 4848,
      "Ġring": 4849,
      "urch": 4850,
      "Ġgrave": 4851,
      "ĠmariÃ©": 4852,
      "issent": 4853,
      "Ġassist": 4854,
      "ĠcinÃ©ma": 4855,
      "Ġarticle": 4856,
      "Ġsyst": 4857,
      "ĠprÃ©senter": 4858,
      "ternet": 4859,
      "Ġenemy": 4860,
      "dÃ©jeuner": 4861,
      "Ġtranqu": 4862,
      "ding": 4863,
      "Ġlente": 4864,
      "erie": 4865,
      "atiques": 4866,
      "Ġqual": 4867,
      "aill": 4868,
      "Ġthough": 4869,
      "Ġlake": 4870,
      "idÃ©e": 4871,
      "ĠMal": 4872,
      "ĠViens": 4873,
      "Ġdanser": 4874,
      "Ġavoc": 4875,
      "aken": 4876,
      "Ġroi": 4877,
      "Ġwaited": 4878,
      "Ġrefuse": 4879,
      "ĠprÃ©fÃ©": 4880,
      "ĠprÃ©fÃ©rÃ©": 4881,
      "Ġmenti": 4882,
      "Ġhonte": 4883,
      "Ġactuelle": 4884,
      "Ġreceived": 4885,
      "Ġzoo": 4886,
      "enfant": 4887,
      "ĠrÃ©ussir": 4888,
      "ma": 4889,
      "sc": 4890,
      "ĠsÃ©p": 4891,
      "issez": 4892,
      "ased": 4893,
      "Ġholid": 4894,
      "arbre": 4895,
      "orn": 4896,
      "Ġworse": 4897,
      "Ġcompter": 4898,
      "Ġcontrol": 4899,
      "Ġenter": 4900,
      "Ġmode": 4901,
      "Ġsmart": 4902,
      "ĠQuelque": 4903,
      "Ġpermission": 4904,
      "Ġtrees": 4905,
      "Ġguitare": 4906,
      "Ġennuy": 4907,
      "alle": 4908,
      "iant": 4909,
      "ji": 4910,
      "ttes": 4911,
      "Ġ9": 4912,
      "Ġcoute": 4913,
      "Ġnage": 4914,
      "Ġfill": 4915,
      "Ġboute": 4916,
      "veille": 4917,
      "Ġrepr": 4918,
      "ĠSuis": 4919,
      "Ġenne": 4920,
      "Ġchaise": 4921,
      "ield": 4922,
      "Ġproject": 4923,
      "Ġconst": 4924,
      "Ġconstr": 4925,
      "Ġshirt": 4926,
      "ĠBoth": 4927,
      "ĠFer": 4928,
      "Ġwhatever": 4929,
      "ivent": 4930,
      "Ġadore": 4931,
      "Ġhabitu": 4932,
      "Ġsauf": 4933,
      "Ġsounds": 4934,
      "Ġsweet": 4935,
      "Ġhuit": 4936,
      "Ġharm": 4937,
      "orge": 4938,
      "ories": 4939,
      "Ġtoile": 4940,
      "ĠDep": 4941,
      "irez": 4942,
      "Ġriches": 4943,
      "Ġappareil": 4944,
      "Ġkeys": 4945,
      "Ġseconde": 4946,
      "Ġcountries": 4947,
      "ĠtravaillÃ©": 4948,
      "Ġgarde": 4949,
      "Ġcontinue": 4950,
      "hÃ´tel": 4951,
      "Ġconvainc": 4952,
      "ĠbÃ¢timent": 4953,
      "Ġsim": 4954,
      "Ġlou": 4955,
      "inture": 4956,
      "ĠvÃ©cu": 4957,
      "ĠSince": 4958,
      "Ġchoose": 4959,
      "Ġavion": 4960,
      "ĠrÃ©jou": 4961,
      "Ġcommon": 4962,
      "ĠmoitiÃ©": 4963,
      "Ġcalme": 4964,
      "Ġbeginning": 4965,
      "Ġroman": 4966,
      "Ġreturn": 4967,
      "ĠAucun": 4968,
      "Ġapologize": 4969,
      "Ġfault": 4970,
      "ode": 4971,
      "Ġcab": 4972,
      "Ġnor": 4973,
      "Ġthousand": 4974,
      "Ġlequel": 4975,
      "Ġheld": 4976,
      "ĠPer": 4977,
      "resp": 4978,
      "Ġusing": 4979,
      "Ġpartout": 4980,
      "Ġpeace": 4981,
      "Ġsouvenir": 4982,
      "Ġideas": 4983,
      "Ġcondition": 4984,
      "Ġvolont": 4985,
      "Ġeffray": 4986,
      "Ġtraduire": 4987,
      "Ġpermis": 4988,
      "Ġdirty": 4989,
      "Ġsilence": 4990,
      "Ġamusant": 4991,
      "ĠdÃ©range": 4992,
      "Ġabsolute": 4993,
      "Ġneighbor": 4994,
      "Ġmaladie": 4995,
      "ĠSmith": 4996,
      "Ġchemise": 4997,
      "Ġslept": 4998,
      "father": 4999,
      "vies": 5000,
      "Ġlic": 5001,
      "Ġbonnes": 5002,
      "ows": 5003,
      "iller": 5004,
      "Ġstorm": 5005,
      "ctive": 5006,
      "Ġavions": 5007,
      "Ġarrest": 5008,
      "oph": 5009,
      "Ġmarch": 5010,
      "Ġsemaines": 5011,
      "Ġvoitures": 5012,
      "Ġincon": 5013,
      "Ġsubject": 5014,
      "Ġjump": 5015,
      "universitÃ©": 5016,
      "Ġmagazine": 5017,
      ",\"": 5018,
      "co": 5019,
      "cture": 5020,
      "ear": 5021,
      "ude": 5022,
      "Ġdraw": 5023,
      "Ġsys": 5024,
      "eum": 5025,
      "rig": 5026,
      "igin": 5027,
      "Ġdonna": 5028,
      "ĠprÃªter": 5029,
      "Ġshall": 5030,
      "Ġparles": 5031,
      "Ġattrap": 5032,
      "Ġview": 5033,
      "Ġvieil": 5034,
      "Ġferiez": 5035,
      "Ġmoon": 5036,
      "Ġdiscours": 5037,
      "Ġtableau": 5038,
      "Ġboys": 5039,
      "Ġconseils": 5040,
      "Ġsourire": 5041,
      "Ã©roport": 5042,
      "Ġsusp": 5043,
      "Ġsurviv": 5044,
      "Ġveget": 5045,
      "Ġpromised": 5046,
      "AmÃ©rique": 5047,
      "cation": 5048,
      "ha": 5049,
      "rite": 5050,
      "voir": 5051,
      "Ġutile": 5052,
      "Ġallemand": 5053,
      "Ġfur": 5054,
      "Ġowe": 5055,
      "Ġjud": 5056,
      "ĠCar": 5057,
      "Ġplays": 5058,
      "Ġforte": 5059,
      "airement": 5060,
      "impression": 5061,
      "icious": 5062,
      "venue": 5063,
      "Ġmovies": 5064,
      "Ġsentiment": 5065,
      "Ġflat": 5066,
      "ĠfatiguÃ©e": 5067,
      "Ġpictures": 5068,
      "Ġwonderful": 5069,
      "Ġairport": 5070,
      "Ġcollection": 5071,
      "Ġrarement": 5072,
      "Ġmajor": 5073,
      "Ġprepared": 5074,
      "Ġrhume": 5075,
      "ĠDepuis": 5076,
      "cool": 5077,
      "main": 5078,
      "Ġaj": 5079,
      "Ġfant": 5080,
      "Ġinstant": 5081,
      "ĠCall": 5082,
      "ĠgoÃ»t": 5083,
      "Ġfeet": 5084,
      "tenu": 5085,
      "ĠQuoi": 5086,
      "Ġbuilt": 5087,
      "Ġmoved": 5088,
      "Ġhardly": 5089,
      "ĠsoirÃ©e": 5090,
      "Ġpatience": 5091,
      "Ġafford": 5092,
      "ĠCertains": 5093,
      "ĠDÃ©solÃ©": 5094,
      "Ġgift": 5095,
      "Ġlawyer": 5096,
      "!\"": 5097,
      "ump": 5098,
      "ommand": 5099,
      "Ã¨tres": 5100,
      "ama": 5101,
      "urs": 5102,
      "urance": 5103,
      "terre": 5104,
      "raight": 5105,
      "Ġwilling": 5106,
      "Ġadop": 5107,
      "glise": 5108,
      "Ġvisited": 5109,
      "Ġstudied": 5110,
      "attendre": 5111,
      "Ġpresident": 5112,
      "Ġcentre": 5113,
      "ĠShow": 5114,
      "Ġseemed": 5115,
      "Ġfigured": 5116,
      "ĠSpan": 5117,
      "Ġeggs": 5118,
      "ĠcÃ©lÃ¨bre": 5119,
      "uÃ©": 5120,
      "Ġtur": 5121,
      "Ġlat": 5122,
      "instant": 5123,
      "Ġbother": 5124,
      "quet": 5125,
      "Ġvain": 5126,
      "eds": 5127,
      "Ġchurch": 5128,
      "ĠAcc": 5129,
      "Ġwash": 5130,
      "olution": 5131,
      "Ġallait": 5132,
      "cket": 5133,
      "Ġdirection": 5134,
      "Ġattendu": 5135,
      "Ġblind": 5136,
      "Ġsavent": 5137,
      "Ġtwenty": 5138,
      "Ġpull": 5139,
      "Ġshower": 5140,
      "Ġcooking": 5141,
      "Ġsuperm": 5142,
      "Ġsemblait": 5143,
      "Ġkissed": 5144,
      "ĠSomething": 5145,
      "ĠtombÃ©e": 5146,
      "Ġsatisfied": 5147,
      "Ġsandw": 5148,
      "Ġparviens": 5149,
      "Ġembarrass": 5150,
      "Â»": 5151,
      "eng": 5152,
      "Ġcool": 5153,
      "Ġwed": 5154,
      "Ġhop": 5155,
      "orie": 5156,
      "Ġjal": 5157,
      "Ġchess": 5158,
      "Ġrang": 5159,
      "Ġcell": 5160,
      "Ġdonn": 5161,
      "Ġstars": 5162,
      "iennes": 5163,
      "Ġshare": 5164,
      "Ġvert": 5165,
      "ivement": 5166,
      "abilitÃ©": 5167,
      "Ġadresse": 5168,
      "Ġattent": 5169,
      "Ġspect": 5170,
      "Ġblague": 5171,
      "ortez": 5172,
      "Ġpassion": 5173,
      "Ġdipl": 5174,
      "Ġthemselves": 5175,
      "Ġfaisons": 5176,
      "ĠÂ».": 5177,
      "Ġobser": 5178,
      "Ġhabite": 5179,
      "Ġdifficul": 5180,
      "ĠShould": 5181,
      "Ġrisque": 5182,
      "Ġconnaissance": 5183,
      "Ġopportun": 5184,
      "Ġdiscussion": 5185,
      "Ġviendra": 5186,
      "essayer": 5187,
      "ĠSpanish": 5188,
      "bo": 5189,
      "jets": 5190,
      "line": 5191,
      "pir": 5192,
      "Ġmou": 5193,
      "Ġthrow": 5194,
      "ĠWait": 5195,
      "ĠMake": 5196,
      "Ġdoivent": 5197,
      "Ġplant": 5198,
      "ĠYesterday": 5199,
      "ney": 5200,
      "Ġsurf": 5201,
      "istic": 5202,
      "Ġagreed": 5203,
      "Ġsavons": 5204,
      "Ġdrank": 5205,
      "ĠdrÃ´le": 5206,
      "Åĵil": 5207,
      "Ġsentir": 5208,
      "Ġ100": 5209,
      "Ġinvest": 5210,
      "Ġmorce": 5211,
      "ĠdÃ©pend": 5212,
      "Ġcherch": 5213,
      "sembl": 5214,
      "Ġrappeler": 5215,
      "Ġcopine": 5216,
      "Ġrevenu": 5217,
      "Ġstylo": 5218,
      "Ġenseignant": 5219,
      "ĠhÃ´tel": 5220,
      "Ġpaix": 5221,
      "ĠsystÃ¨me": 5222,
      "ĠFerme": 5223,
      "eff": 5224,
      "rÃªt": 5225,
      "enci": 5226,
      "imum": 5227,
      "Ġstraight": 5228,
      "cts": 5229,
      "uler": 5230,
      "sique": 5231,
      "Ġentire": 5232,
      "ildren": 5233,
      "Ġconnu": 5234,
      "Ġfeelings": 5235,
      "Ġinvolved": 5236,
      "Ġaimes": 5237,
      "Ġaura": 5238,
      "Ġtemper": 5239,
      "Ġbehav": 5240,
      "Ġprintemps": 5241,
      "ĠarrivÃ©e": 5242,
      "Ġextr": 5243,
      "ĠSometimes": 5244,
      "Ġressent": 5245,
      "Ġmemory": 5246,
      "Ġnewspaper": 5247,
      "Ġlentement": 5248,
      "Ġsandwich": 5249,
      "oid": 5250,
      "over": 5251,
      "Ġfaster": 5252,
      "Ġunique": 5253,
      "Ġinstru": 5254,
      "Ã¨ves": 5255,
      "ĠSal": 5256,
      "ĠAren": 5257,
      "Ġliber": 5258,
      "Ġparole": 5259,
      "ĠprÃ©t": 5260,
      "Ġconstru": 5261,
      "ongue": 5262,
      "ĠBy": 5263,
      "cious": 5264,
      "ĠÃ©n": 5265,
      "Ġspoken": 5266,
      "Ġcommit": 5267,
      "ĠInternet": 5268,
      "Ġempty": 5269,
      "Ġincroy": 5270,
      "ĠÃ©tudiÃ©": 5271,
      "Ġboat": 5272,
      "Ġwalking": 5273,
      "ĠquittÃ©": 5274,
      "Ġutilis": 5275,
      "ĠcommenÃ§a": 5276,
      "ĠspÃ©cial": 5277,
      "aÃ©roport": 5278,
      "ĠaidÃ©": 5279,
      "Ġahead": 5280,
      "inform": 5281,
      "Ġcrow": 5282,
      "Ġlaver": 5283,
      "Ġlev": 5284,
      "ĠSans": 5285,
      "iced": 5286,
      "key": 5287,
      "orer": 5288,
      "Ġsurp": 5289,
      "ĠÃ©conom": 5290,
      "Ġscream": 5291,
      "vÃ©n": 5292,
      "ĠmusÃ©e": 5293,
      "ĠdÃ©test": 5294,
      "ancy": 5295,
      "Ġrefused": 5296,
      "arrÃªt": 5297,
      "Ġsalaire": 5298,
      "Ġnatural": 5299,
      "ĠAlors": 5300,
      "Ġprofession": 5301,
      "Ġforgive": 5302,
      "Ġmeaning": 5303,
      "Ġgreen": 5304,
      "Ġpouss": 5305,
      "Ġearlier": 5306,
      "Ġeconom": 5307,
      "velopp": 5308,
      "sons": 5309,
      "uge": 5310,
      "Ġpont": 5311,
      "Ġciv": 5312,
      "ĠTes": 5313,
      "Ġvendre": 5314,
      "Ġgolf": 5315,
      "llem": 5316,
      "Ġens": 5317,
      "utÃ©": 5318,
      "Ġchick": 5319,
      "Ġlib": 5320,
      "Ġligne": 5321,
      "Ġkitch": 5322,
      "Ġstol": 5323,
      "Ġallum": 5324,
      "Ġextre": 5325,
      "ĠOs": 5326,
      "ĠrÃ©d": 5327,
      "Ġparlent": 5328,
      "Ġgrandfather": 5329,
      "onna": 5330,
      "Ġsoupe": 5331,
      "ĠidÃ©es": 5332,
      "Ġweeks": 5333,
      "Ġtrah": 5334,
      "Ġportait": 5335,
      "ĠdiffÃ©ren": 5336,
      "ĠrÃªves": 5337,
      "Ġouvrir": 5338,
      "ĠrÃ©pondu": 5339,
      "Ġchocolat": 5340,
      "Ġwedding": 5341,
      "Ġstolen": 5342,
      "mat": 5343,
      "Ġpil": 5344,
      "Ġlour": 5345,
      "Ġfaux": 5346,
      "Ġglace": 5347,
      "ott": 5348,
      "Ġnez": 5349,
      "Ġ?\"": 5350,
      "tead": 5351,
      "ĠHas": 5352,
      "Ġstole": 5353,
      "Ġconne": 5354,
      "lax": 5355,
      "Ġrose": 5356,
      "Ġlettres": 5357,
      "ĠfermÃ©": 5358,
      "Ġbonheur": 5359,
      "Ġmuseum": 5360,
      "Ġkeeps": 5361,
      "ĠtempÃªte": 5362,
      "intÃ©rieur": 5363,
      "Ġsystem": 5364,
      "oiles": 5365,
      "ubl": 5366,
      "Ġsache": 5367,
      "Ġlow": 5368,
      "arp": 5369,
      "Ġore": 5370,
      "Ġinst": 5371,
      "ĠCol": 5372,
      "Ġcharge": 5373,
      "ĠAi": 5374,
      "Ġlied": 5375,
      "Ġtext": 5376,
      "adm": 5377,
      "acy": 5378,
      "ĠrÃ©alitÃ©": 5379,
      "abord": 5380,
      "Ã©ration": 5381,
      "Ġcars": 5382,
      "Ġbattre": 5383,
      "ograph": 5384,
      "Ġkitchen": 5385,
      "mÃ¨re": 5386,
      "Ġ8": 5387,
      "Ġdort": 5388,
      "ĠTurn": 5389,
      "Ġvaleur": 5390,
      "Ġmeant": 5391,
      "Ġamong": 5392,
      "ĠclÃ©s": 5393,
      "uits": 5394,
      "obile": 5395,
      "Ġharder": 5396,
      "Ġbrill": 5397,
      "ĠGermany": 5398,
      "Ġlaughing": 5399,
      "ĠAlgeria": 5400,
      "ĠrÃ©sultat": 5401,
      "Ġrecherche": 5402,
      "Ġouverte": 5403,
      "Ġcouteau": 5404,
      "llemagne": 5405,
      "\",": 5406,
      "ran": 5407,
      "ĠMan": 5408,
      "ĠVos": 5409,
      "Ġproc": 5410,
      "ension": 5411,
      "ĠÃ©te": 5412,
      "Ġenfin": 5413,
      "Ġrecommand": 5414,
      "Ġpetits": 5415,
      "Ġvisiter": 5416,
      "expÃ©rience": 5417,
      "Ġenjoyed": 5418,
      "ĠÅĵil": 5419,
      "Ġslowly": 5420,
      "Ġpronon": 5421,
      "Ġneuf": 5422,
      "Ġknife": 5423,
      "vÃ©nient": 5424,
      "gÃ©rie": 5425,
      "lac": 5426,
      "pa": 5427,
      "tain": 5428,
      "Ġtie": 5429,
      "Ġtaller": 5430,
      "Ġtongue": 5431,
      "Ã©ner": 5432,
      "Ġfile": 5433,
      "Ġfired": 5434,
      "Ġrelax": 5435,
      "Ġnotice": 5436,
      "Ġprogress": 5437,
      "Ġgold": 5438,
      "Ġlikely": 5439,
      "ĠBet": 5440,
      "oney": 5441,
      "Ġapples": 5442,
      "ĠRest": 5443,
      "moire": 5444,
      "ĠdÃ©couvert": 5445,
      "ency": 5446,
      "Ġdroite": 5447,
      "Ġletters": 5448,
      "Ġresponsable": 5449,
      "Ġgrew": 5450,
      "agnol": 5451,
      "ĠRegardez": 5452,
      "gleterre": 5453,
      "Ġparfaitement": 5454,
      "Ġabsolument": 5455,
      "Ġsuitc": 5456,
      "Ġbottle": 5457,
      "Ġtranquille": 5458,
      "com": 5459,
      "Ġtire": 5460,
      "Ġpsy": 5461,
      "Ġfab": 5462,
      "Ġwoke": 5463,
      "qua": 5464,
      "ĠSur": 5465,
      "ĠMost": 5466,
      "ĠEarth": 5467,
      "resh": 5468,
      "Ġweak": 5469,
      "ified": 5470,
      "ĠWell": 5471,
      "Ġdiss": 5472,
      "ĠReste": 5473,
      "redi": 5474,
      "Ġretr": 5475,
      "Ġretrait": 5476,
      "Ġplayer": 5477,
      "Ġoccasion": 5478,
      "Ġseuls": 5479,
      "ĠFrom": 5480,
      "Ġimagination": 5481,
      "Ġdestin": 5482,
      "Ġmoyens": 5483,
      "Ġmensonge": 5484,
      "Ġinjured": 5485,
      "Ġcompagnie": 5486,
      "Ġavocat": 5487,
      "Ġsimil": 5488,
      "hier": 5489,
      "Ġpon": 5490,
      "Ġcer": 5491,
      "Ġmeur": 5492,
      "Ġmail": 5493,
      "Ġmienne": 5494,
      "Ġhide": 5495,
      "ĠSat": 5496,
      "Ġlies": 5497,
      "aul": 5498,
      "Ãªche": 5499,
      "Ġstood": 5500,
      "aveur": 5501,
      "Ġhasard": 5502,
      "Ġparties": 5503,
      "ĠrÃ©v": 5504,
      "Ġorigin": 5505,
      "Ġcrains": 5506,
      "Ġincre": 5507,
      "Ġexcuse": 5508,
      "empÃªcher": 5509,
      "Ġcalm": 5510,
      "Ġdreams": 5511,
      "Ġdriver": 5512,
      "Ġrevenir": 5513,
      "Ġchoisir": 5514,
      "iddle": 5515,
      "ĠsÃ©jour": 5516,
      "Ġeduc": 5517,
      "Ġabsolutely": 5518,
      "lie": 5519,
      "Ġ7": 5520,
      "Ġdam": 5521,
      "Ġdue": 5522,
      "Ġcast": 5523,
      "Ġcustom": 5524,
      "Ġmise": 5525,
      "Ġtoward": 5526,
      "ĠJus": 5527,
      "usion": 5528,
      "Ġwashing": 5529,
      "ational": 5530,
      "ĠamÃ©ric": 5531,
      "ouvre": 5532,
      "Ġclair": 5533,
      "astic": 5534,
      "appy": 5535,
      "Ã®mes": 5536,
      "Ġimpressed": 5537,
      "ĠpassÃ©e": 5538,
      "Ġintention": 5539,
      "ducation": 5540,
      "Ġsenti": 5541,
      "ĠdÃ©cider": 5542,
      "Ġbecom": 5543,
      "Ġsoud": 5544,
      "Ġrepro": 5545,
      "Ġdouche": 5546,
      "Ġdecide": 5547,
      "Ġfilms": 5548,
      "ĠmariÃ©e": 5549,
      "ĠdÃ©barr": 5550,
      "Ġservi": 5551,
      "Ġsoient": 5552,
      "Ġchocolate": 5553,
      "Ġcertainement": 5554,
      "Ġexcellent": 5555,
      "Ġfaveur": 5556,
      "Ġbour": 5557,
      "ata": 5558,
      "Ġyen": 5559,
      "ilos": 5560,
      "Ġbear": 5561,
      "alcool": 5562,
      "uts": 5563,
      "Ġchou": 5564,
      "Ã©ter": 5565,
      "ĠAime": 5566,
      "avis": 5567,
      "ĠfrÃ¨res": 5568,
      "Ġsaved": 5569,
      "ĠBer": 5570,
      "import": 5571,
      "Ġferait": 5572,
      "Ġguil": 5573,
      "Ġmets": 5574,
      "Ġcarefully": 5575,
      "Ġportes": 5576,
      "Ġexamen": 5577,
      "Ġexample": 5578,
      "Ġbike": 5579,
      "Ġrule": 5580,
      "Ġbouteille": 5581,
      "ĠrÃ©jouis": 5582,
      "An": 5583,
      "ouille": 5584,
      "Ġaction": 5585,
      "ĠpÃ©n": 5586,
      "Ġloud": 5587,
      "Ġlaissez": 5588,
      "inf": 5589,
      "Ġrej": 5590,
      "Ġreach": 5591,
      "Ġmeal": 5592,
      "Ã¨le": 5593,
      "ĠMets": 5594,
      "ĠAim": 5595,
      "aded": 5596,
      "Ġstick": 5597,
      "ĠVenez": 5598,
      "Ġfrais": 5599,
      "ĠmanquÃ©": 5600,
      "artient": 5601,
      "Ġspace": 5602,
      "Ġtombe": 5603,
      "Ġeut": 5604,
      "Ġcray": 5605,
      "like": 5606,
      "Ġpoints": 5607,
      "ĠrefusÃ©": 5608,
      "Ġconduit": 5609,
      "Ġretourner": 5610,
      "fortable": 5611,
      "Ġdebout": 5612,
      "Ġnettoyer": 5613,
      "ĠVoudriez": 5614,
      "Ġspring": 5615,
      "Ġtechnolog": 5616,
      "Ġexemple": 5617,
      "Ġguilty": 5618,
      "ging": 5619,
      "iÃ©e": 5620,
      "ĠpÃ¢": 5621,
      "Ġpenc": 5622,
      "ering": 5623,
      "Ã©rer": 5624,
      "Ġfield": 5625,
      "Ġballe": 5626,
      "arante": 5627,
      "aimes": 5628,
      "unt": 5629,
      "under": 5630,
      "Ġenvers": 5631,
      "Ġwelcome": 5632,
      "Ġstone": 5633,
      "Ġexcept": 5634,
      "Ġamour": 5635,
      "ician": 5636,
      "Ġorange": 5637,
      "Ġeats": 5638,
      "ĠChildren": 5639,
      "Ġrecomm": 5640,
      "others": 5641,
      "Ġunderstood": 5642,
      "Ġbouche": 5643,
      "Ġskin": 5644,
      "Ġrelations": 5645,
      "ĠdiffÃ©rent": 5646,
      "ĠthÃ©orie": 5647,
      "uvre": 5648,
      "ĠdÃ©mÃ©n": 5649,
      "Ġseriously": 5650,
      "ĠprÃ©parer": 5651,
      "Ġcontinuer": 5652,
      "attendais": 5653,
      "ĠprÃ©vu": 5654,
      "ĠpossÃ¨de": 5655,
      "Ġpurpose": 5656,
      "Ġattract": 5657,
      "Ġoiseaux": 5658,
      "Ġrecognize": 5659,
      "Ġduty": 5660,
      "ĠlibertÃ©": 5661,
      "Ġextreme": 5662,
      "Ġpsych": 5663,
      "elez": 5664,
      "uf": 5665,
      "yons": 5666,
      "Ġtient": 5667,
      "Ġmap": 5668,
      "Ġbare": 5669,
      "aign": 5670,
      "Ġeffect": 5671,
      "Ġliar": 5672,
      "andis": 5673,
      "osing": 5674,
      "Ġaviez": 5675,
      "Ġshit": 5676,
      "Ġriz": 5677,
      "Ġappa": 5678,
      "Ġappoint": 5679,
      "ĠRet": 5680,
      "Ġought": 5681,
      "Ġexpert": 5682,
      "Ġaccused": 5683,
      "Ġ14": 5684,
      "Ġpoll": 5685,
      "Ġveuille": 5686,
      "Ġboit": 5687,
      "Ġpainted": 5688,
      "Ġconvinc": 5689,
      "ĠprÃªts": 5690,
      "ĠÅĵufs": 5691,
      "Ġamoureuse": 5692,
      "Ġcircul": 5693,
      "Ġappear": 5694,
      "ĠvÃ©rifier": 5695,
      "Ġapartment": 5696,
      "Ġtaught": 5697,
      "ĠnÃ©g": 5698,
      "Ġgagne": 5699,
      "ĠJean": 5700,
      "otion": 5701,
      "Ġiss": 5702,
      "ida": 5703,
      "Ġcommer": 5704,
      "Ġash": 5705,
      "Ġcompren": 5706,
      "Ġdevait": 5707,
      "Ġdevraient": 5708,
      "Ġgrad": 5709,
      "Ġclient": 5710,
      "Ġseront": 5711,
      "ĠUS": 5712,
      "Ġpleine": 5713,
      "Ġstuff": 5714,
      "Ġpersonal": 5715,
      "itesse": 5716,
      "anni": 5717,
      "Ã©tudier": 5718,
      "Ġoiseau": 5719,
      "ĠBring": 5720,
      "allemand": 5721,
      "gÃ©ri": 5722,
      "ires": 5723,
      "oon": 5724,
      "Ġast": 5725,
      "Ġdure": 5726,
      "Ġpack": 5727,
      "Ġloup": 5728,
      "Ġwise": 5729,
      "Ġwound": 5730,
      "ĠvidÃ©": 5731,
      "Ġquart": 5732,
      "Ġtheory": 5733,
      "Ġneither": 5734,
      "Ġlazy": 5735,
      "Ġlady": 5736,
      "ĠDÃ©p": 5737,
      "stairs": 5738,
      "ĠHey": 5739,
      "Ġarbres": 5740,
      "ĠFe": 5741,
      "Ġautom": 5742,
      "Ġdrug": 5743,
      "ĠmontrÃ©": 5744,
      "Ġstaying": 5745,
      "ĠDev": 5746,
      "Ġdrinks": 5747,
      "ĠRead": 5748,
      "Ġvoler": 5749,
      "ĠArab": 5750,
      "Ġchaude": 5751,
      "Ġhorrible": 5752,
      "expliquer": 5753,
      "ĠSee": 5754,
      "ĠprÃ©fÃ©rÃ©e": 5755,
      "Ġuniversity": 5756,
      "ares": 5757,
      "light": 5758,
      "oche": 5759,
      "rÃ©t": 5760,
      "romp": 5761,
      "ĠpÃ©ri": 5762,
      "Ġsauv": 5763,
      "ĠlÃ¨ve": 5764,
      "istre": 5765,
      "Ġfleur": 5766,
      "Ġband": 5767,
      "quent": 5768,
      "arter": 5769,
      "entend": 5770,
      "vered": 5771,
      "Ġinde": 5772,
      "icier": 5773,
      "ĠYanni": 5774,
      "Ġfaits": 5775,
      "idered": 5776,
      "Ġserve": 5777,
      "Ġnobody": 5778,
      "tÃ©rieur": 5779,
      "Ġvraie": 5780,
      "Ġjustice": 5781,
      "Ġressembl": 5782,
      "Ġauthor": 5783,
      "Ġposition": 5784,
      "Ġcrav": 5785,
      "ĠmÃ©moire": 5786,
      "Ġsalt": 5787,
      "ĠÃ©pous": 5788,
      "Ġmentir": 5789,
      "ĠintÃ©ressÃ©": 5790,
      "Ġtraverser": 5791,
      "Ġfollowing": 5792,
      "Ġgives": 5793,
      "Ġparticip": 5794,
      "iroir": 5795,
      "ĠOsaka": 5796,
      "cy": 5797,
      "ians": 5798,
      "time": 5799,
      "Ġident": 5800,
      "Ġquot": 5801,
      "Ġinse": 5802,
      "Ġears": 5803,
      "chÃ©e": 5804,
      "Ġchacun": 5805,
      "ĠAimes": 5806,
      "Ġsocc": 5807,
      "Ġpratique": 5808,
      "essaie": 5809,
      "Ã©che": 5810,
      "ĠBra": 5811,
      "Ġcompos": 5812,
      "Ġmanager": 5813,
      "Ġchef": 5814,
      "Ġlock": 5815,
      "Ġrock": 5816,
      "Ġroses": 5817,
      "Ġador": 5818,
      "Ġwatched": 5819,
      "ĠQuels": 5820,
      "ĠdÃ©tr": 5821,
      "Ġobvious": 5822,
      "Ġrefus": 5823,
      "Ġindust": 5824,
      "Ġcourses": 5825,
      "Ġcuisiner": 5826,
      "Ġplaisant": 5827,
      "Ġsocial": 5828,
      "Ġescape": 5829,
      "Ġgrowing": 5830,
      "affaire": 5831,
      "ĠgÃ©nÃ©ral": 5832,
      "Ġselon": 5833,
      "Ġreligion": 5834,
      "ĠrÃ©flÃ©chir": 5835,
      "Ġsuddenly": 5836,
      "Ġcapitale": 5837,
      "Ġurgent": 5838,
      "ĠRussian": 5839,
      "Ġarrested": 5840,
      "ĠRestez": 5841,
      "Ġsoccer": 5842,
      "cut": 5843,
      "coh": 5844,
      "grÃ©": 5845,
      "ram": 5846,
      "Ġaies": 5847,
      "Ġlent": 5848,
      "Ġnose": 5849,
      "Ġfresh": 5850,
      "Ġneg": 5851,
      "rimer": 5852,
      "chant": 5853,
      "ĠEh": 5854,
      "iger": 5855,
      "uelle": 5856,
      "mpl": 5857,
      "Ġupon": 5858,
      "Ã´tre": 5859,
      "Ġbrave": 5860,
      "ĠjouÃ©": 5861,
      "ĠEngland": 5862,
      "Ġpromesse": 5863,
      "ledge": 5864,
      "Ġfaible": 5865,
      "Ġportable": 5866,
      "Ġsooner": 5867,
      "Ġmerci": 5868,
      "Ġadvant": 5869,
      "Ġstep": 5870,
      "Ġpleasure": 5871,
      "Ġaccompl": 5872,
      "ĠmathÃ©m": 5873,
      "Ġhyp": 5874,
      "Ã¨vre": 5875,
      "Ġemprunter": 5876,
      "Ġremercier": 5877,
      "cohol": 5878,
      "cause": 5879,
      "off": 5880,
      "rain": 5881,
      "Ġtap": 5882,
      "Ġpierre": 5883,
      "Ġsite": 5884,
      "Ġlune": 5885,
      "Ġmiddle": 5886,
      "Ġfishing": 5887,
      "atic": 5888,
      "Ġhates": 5889,
      "rim": 5890,
      "Ġlap": 5891,
      "Ġlecture": 5892,
      "Ġchaleur": 5893,
      "ĠPro": 5894,
      "esses": 5895,
      "Ġamaz": 5896,
      "Ġworst": 5897,
      "Ġmanquer": 5898,
      "Ġfeed": 5899,
      "lable": 5900,
      "ĠentiÃ¨rement": 5901,
      "Ġimporte": 5902,
      "Ġrespe": 5903,
      "Ġvouliez": 5904,
      "rÃ©able": 5905,
      "Ġminimum": 5906,
      "Ġcruel": 5907,
      "Ġhumain": 5908,
      "Ġcalcul": 5909,
      "Ġviolence": 5910,
      "Ġpleased": 5911,
      "Ġwallet": 5912,
      "Ġappartement": 5913,
      "ĠTwo": 5914,
      "Ġashamed": 5915,
      "ks": 5916,
      "neu": 5917,
      "ration": 5918,
      "Ġing": 5919,
      "oul": 5920,
      "Ġayez": 5921,
      "Ġcried": 5922,
      "ana": 5923,
      "Ġvote": 5924,
      "ortu": 5925,
      "ourv": 5926,
      "riage": 5927,
      "Ã¨tes": 5928,
      "ĠSw": 5929,
      "Ġcharm": 5930,
      "ĠforÃªt": 5931,
      "Ġitself": 5932,
      "accep": 5933,
      "ĠamÃ©l": 5934,
      "Ġdevient": 5935,
      "Ġpeuple": 5936,
      "ĠÃ©qu": 5937,
      "Ġrends": 5938,
      "Ġcovered": 5939,
      "ĠQuiconque": 5940,
      "Ġphilos": 5941,
      "Ġallerg": 5942,
      "Ġconsidered": 5943,
      "Ġremind": 5944,
      "Ġobtenu": 5945,
      "ĠdÃ©pourv": 5946,
      "Ġmorts": 5947,
      "Ġsinger": 5948,
      "ĠespÃ©r": 5949,
      "Ġjaponaise": 5950,
      "ĠÃ©chouÃ©": 5951,
      "Ġattraper": 5952,
      "embr": 5953,
      "ĠextrÃªme": 5954,
      "ĠAimez": 5955,
      "go": 5956,
      "gue": 5957,
      "mother": 5958,
      "vÃ©e": 5959,
      "Ġdomm": 5960,
      "inv": 5961,
      "Ġnive": 5962,
      "quis": 5963,
      "Ġisland": 5964,
      "ĠMike": 5965,
      "Ġones": 5966,
      "Ġplat": 5967,
      "Ġforced": 5968,
      "ĠÃ©tat": 5969,
      "avenir": 5970,
      "Ġstate": 5971,
      "cted": 5972,
      "ulaire": 5973,
      "Ġabove": 5974,
      "ĠQuelles": 5975,
      "Ġfromage": 5976,
      "ĠGu": 5977,
      "Ġcheese": 5978,
      "Ġbutter": 5979,
      "Ġordered": 5980,
      "assÃ©e": 5981,
      "Ã©ra": 5982,
      "Ġphys": 5983,
      "Ġnouveaux": 5984,
      "accomp": 5985,
      "Ġproposal": 5986,
      "empl": 5987,
      "Ġboring": 5988,
      "Ġbridge": 5989,
      "Ġdisting": 5990,
      "Ġmilieu": 5991,
      "Ġopinions": 5992,
      "Ġstanding": 5993,
      "ĠdÃ©mission": 5994,
      "ĠÃ©lÃ¨ves": 5995,
      "overed": 5996,
      "ĠrÃ©veillÃ©": 5997,
      "Ġstyle": 5998,
      "Ġcampagne": 5999,
      "Ġretraite": 6000,
      "Ġextremely": 6001,
      "Ġconvinced": 6002,
      "ĠBraz": 6003,
      "hiver": 6004,
      "pri": 6005,
      "Ġtandis": 6006,
      "reur": 6007,
      "Ġdig": 6008,
      "Ġpant": 6009,
      "Ġprenez": 6010,
      "Ġsche": 6011,
      "Ġcache": 6012,
      "Ġmass": 6013,
      "Ġmaster": 6014,
      "Ġfas": 6015,
      "lling": 6016,
      "atch": 6017,
      "Ġvase": 6018,
      "ests": 6019,
      "Ġuniver": 6020,
      "ĠWor": 6021,
      "Ġener": 6022,
      "ĠHur": 6023,
      "Ġwithin": 6024,
      "Ġrice": 6025,
      "ĠBel": 6026,
      "Ġanywhere": 6027,
      "aches": 6028,
      "Ġbrothers": 6029,
      "Ġpensait": 6030,
      "Ġmalheure": 6031,
      "Ġflight": 6032,
      "Ġcalling": 6033,
      "Ġsortie": 6034,
      "Ġcoupable": 6035,
      "Ġexplan": 6036,
      "Ġbirds": 6037,
      "Ġespoir": 6038,
      "Ġfollowed": 6039,
      "Ġextra": 6040,
      "ĠrÃ©sultats": 6041,
      "espÃ©ranto": 6042,
      "Ġdisparu": 6043,
      "Ġcravate": 6044,
      "uff": 6045,
      "Ġours": 6046,
      "ery": 6047,
      "Ġcoo": 6048,
      "Ġmeu": 6049,
      "ita": 6050,
      "Ġfal": 6051,
      "Ġuns": 6052,
      "Ġreached": 6053,
      "icated": 6054,
      "Ġrab": 6055,
      "Ġplenty": 6056,
      "ĠHello": 6057,
      "ĠPol": 6058,
      "anges": 6059,
      "ĠdÃ©v": 6060,
      "Ġdishes": 6061,
      "Ġground": 6062,
      "astique": 6063,
      "Ġcontente": 6064,
      "Ġexpress": 6065,
      "Ã¢te": 6066,
      "Ġnouvel": 6067,
      "Ġsentiments": 6068,
      "Ġflower": 6069,
      "Ġmett": 6070,
      "Ġcorresp": 6071,
      "Ġuseful": 6072,
      "Ġannoy": 6073,
      "Ġnative": 6074,
      "Ġactions": 6075,
      "Ġexplos": 6076,
      "Ġexamination": 6077,
      "Ġmissing": 6078,
      "Ġforever": 6079,
      "Ġpoison": 6080,
      "Ġsilent": 6081,
      "ĠrentrÃ©": 6082,
      "fortun": 6083,
      "ĠVoilÃł": 6084,
      "Ġennuis": 6085,
      "Ġhiding": 6086,
      "Ġendormi": 6087,
      "Al": 6088,
      "cles": 6089,
      "oci": 6090,
      "rÃ©es": 6091,
      "erly": 6092,
      "Ġmas": 6093,
      "ombre": 6094,
      "Ġdeter": 6095,
      "Ġoct": 6096,
      "rivez": 6097,
      "irre": 6098,
      "Ġbelles": 6099,
      "ĠMonsieur": 6100,
      "ĠVas": 6101,
      "Ġconfection": 6102,
      "Ġarms": 6103,
      "Ġhadn": 6104,
      "Ġseriez": 6105,
      "Ġmarket": 6106,
      "ĠRome": 6107,
      "acket": 6108,
      "Ġperte": 6109,
      "dule": 6110,
      "extÃ©rieur": 6111,
      "Ġderniers": 6112,
      "ĠinvitÃ©s": 6113,
      "Ġrepos": 6114,
      "ĠParfois": 6115,
      "Ġdouble": 6116,
      "Ġgarage": 6117,
      "Ġfuck": 6118,
      "Ġpaint": 6119,
      "Ġactiv": 6120,
      "Ġmistaken": 6121,
      "Ġcertainly": 6122,
      "ĠÃ¢g": 6123,
      "Ġtyp": 6124,
      "Ġgentle": 6125,
      "Ġrude": 6126,
      "Ġimagine": 6127,
      "Ġgiving": 6128,
      "Ġvalise": 6129,
      "ignorais": 6130,
      "ĠlÃ©gumes": 6131,
      "Ġjeter": 6132,
      "ĠCertaines": 6133,
      "Ġaccepter": 6134,
      "Ġtraduction": 6135,
      "occuper": 6136,
      "ĠÃ©levÃ©": 6137,
      "ĠmÃ©dicament": 6138,
      "Ġpromenade": 6139,
      "ĠÃ©checs": 6140,
      "ĠBrazil": 6141,
      "No": 6142,
      "hod": 6143,
      "lit": 6144,
      "oll": 6145,
      "ermin": 6146,
      "iture": 6147,
      "Ġfan": 6148,
      "rige": 6149,
      "ĠCor": 6150,
      "Ã©tique": 6151,
      "Ġrusse": 6152,
      "ĠAh": 6153,
      "Ġlift": 6154,
      "aurai": 6155,
      "illÃ©": 6156,
      "Ġkno": 6157,
      "ify": 6158,
      "usted": 6159,
      "oya": 6160,
      "Ġgramm": 6161,
      "Ġhappiness": 6162,
      "Ġperform": 6163,
      "ĠOnly": 6164,
      "Ã¢ge": 6165,
      "ĠvisitÃ©": 6166,
      "Ġinvitation": 6167,
      "Ġbelieves": 6168,
      "asseoir": 6169,
      "ffectu": 6170,
      "ĠCelui": 6171,
      "Ġdropped": 6172,
      "Ġclever": 6173,
      "Ġ200": 6174,
      "ĠsÅĵurs": 6175,
      "Ġvoisins": 6176,
      "Ġfourn": 6177,
      "entreprise": 6178,
      "Ġchanges": 6179,
      "ĠprÃ©parÃ©": 6180,
      "Ġhabituellement": 6181,
      "Ġreturned": 6182,
      "ĠremarquÃ©": 6183,
      "ĠEssaie": 6184,
      "ĠprotÃ©ger": 6185,
      "ĠsÃ©rieusement": 6186,
      "Ġcousin": 6187,
      "ycÃ©e": 6188,
      "ĠprÃ©fÃ©re": 6189,
      "Ġactuellement": 6190,
      "ĠattrapÃ©": 6191,
      "days": 6192,
      "xte": 6193,
      "Ġdot": 6194,
      "Ġpool": 6195,
      "esc": 6196,
      "ĠcensÃ©": 6197,
      "Ã©glise": 6198,
      "omach": 6199,
      "Ġthreat": 6200,
      "ĠLis": 6201,
      "Ġearn": 6202,
      "Ġplac": 6203,
      "ureu": 6204,
      "ĠBl": 6205,
      "ĠBrown": 6206,
      "ĠWhatever": 6207,
      "ĠFri": 6208,
      "oyons": 6209,
      "Ġclock": 6210,
      "Ġpeint": 6211,
      "Ġpregn": 6212,
      "Ġoui": 6213,
      "Ġoffre": 6214,
      "Ġexpliquer": 6215,
      "Ġpolite": 6216,
      "Ġfeels": 6217,
      "ĠsupposÃ©": 6218,
      "Ġrecord": 6219,
      "Ġaware": 6220,
      "ĠÂ»,": 6221,
      "outez": 6222,
      "ĠDemain": 6223,
      "Ġcouper": 6224,
      "Ġcertains": 6225,
      "Ġanswered": 6226,
      "Ġvoisin": 6227,
      "ĠtempÃ©r": 6228,
      "Ġsauver": 6229,
      "Ġfallait": 6230,
      "Ġdirai": 6231,
      "Ġterminer": 6232,
      "Ġnerve": 6233,
      "iendrai": 6234,
      "oublier": 6235,
      "Ġattemp": 6236,
      "Ġearthqu": 6237,
      "aimait": 6238,
      "ĠItaly": 6239,
      "Ġconvaincu": 6240,
      "Ġpanne": 6241,
      "Ġcandid": 6242,
      "ĠgÃ©rer": 6243,
      "Ġdivorce": 6244,
      "ĠConnais": 6245,
      "Ġcombat": 6246,
      "Ã©chapp": 6247,
      "Ġtremble": 6248,
      "ĠrÃ©ellement": 6249,
      "Ġholiday": 6250,
      "ĠSatur": 6251,
      "ĠextrÃªmement": 6252,
      "ĠHurry": 6253,
      "cument": 6254,
      "honn": 6255,
      "xim": 6256,
      "Ġtit": 6257,
      "reg": 6258,
      "Ġpath": 6259,
      "ĠpÃªcher": 6260,
      "Ġlone": 6261,
      "ĠlycÃ©e": 6262,
      "eriez": 6263,
      "Ġcow": 6264,
      "Ġcred": 6265,
      "Ġgaz": 6266,
      "Ġjoy": 6267,
      "ript": 6268,
      "ĠSpe": 6269,
      "Ġanx": 6270,
      "Ġanal": 6271,
      "ĠMoi": 6272,
      "Ġdocument": 6273,
      "Ġhell": 6274,
      "verse": 6275,
      "ĠDeux": 6276,
      "ĠPl": 6277,
      "ĠPres": 6278,
      "Ġstomach": 6279,
      "Ġavoid": 6280,
      "Ġwhose": 6281,
      "ĠOp": 6282,
      "ĠLeave": 6283,
      "ivid": 6284,
      "abe": 6285,
      "Ġentier": 6286,
      "ĠÃ©criv": 6287,
      "Ġpensent": 6288,
      "Ã©rir": 6289,
      "Ġencour": 6290,
      "Ġregarda": 6291,
      "Ãªtres": 6292,
      "Ġended": 6293,
      "Ġincap": 6294,
      "Ġbigger": 6295,
      "Ġsalary": 6296,
      "ĠBecause": 6297,
      "Ġabsence": 6298,
      "Ġpopulaire": 6299,
      "ĠdÃ©faut": 6300,
      "Ġcorrectement": 6301,
      "Ġhealthy": 6302,
      "Ġnational": 6303,
      "Ġresults": 6304,
      "Ġfright": 6305,
      "Ġsoucie": 6306,
      "Ġmorceau": 6307,
      "Ġchicken": 6308,
      "Ġadvantage": 6309,
      "Ġniveau": 6310,
      "Ġfascin": 6311,
      "Ġexplanation": 6312,
      "do": 6313,
      "phab": 6314,
      "Ġtill": 6315,
      "Ġpal": 6316,
      "Ġsigne": 6317,
      "Ġcens": 6318,
      "itÃ©e": 6319,
      "Ġnur": 6320,
      "Ġbatt": 6321,
      "Ġvitesse": 6322,
      "Ġthirst": 6323,
      "eue": 6324,
      "ĠCon": 6325,
      "aud": 6326,
      "Ġstat": 6327,
      "Ġwhom": 6328,
      "aped": 6329,
      "ĠOf": 6330,
      "ĠalgÃ©ri": 6331,
      "ĠÃ©ner": 6332,
      "Ġbutton": 6333,
      "Ġgotten": 6334,
      "Ġbetray": 6335,
      "Ġpolicier": 6336,
      "Ġlots": 6337,
      "Ġvaisse": 6338,
      "Ġbelieved": 6339,
      "Ġinstead": 6340,
      "Ġessaya": 6341,
      "Ġdrop": 6342,
      "Ġpoliceman": 6343,
      "habite": 6344,
      "ĠcontrÃ´le": 6345,
      "Ġsource": 6346,
      "isÃ©ment": 6347,
      "Ġtradition": 6348,
      "Ġrealize": 6349,
      "Ġira": 6350,
      "Ġnerveux": 6351,
      "Ġbleu": 6352,
      "bye": 6353,
      "ĠconseillÃ©": 6354,
      "Ġreconnaissant": 6355,
      "ĠinconvÃ©nient": 6356,
      "Ġfurther": 6357,
      "conque": 6358,
      "cidence": 6359,
      "ibles": 6360,
      "Ġpoi": 6361,
      "Ġsin": 6362,
      "inze": 6363,
      "Ġfiche": 6364,
      "Ġwet": 6365,
      "ĠTur": 6366,
      "Ġhar": 6367,
      "riel": 6368,
      "Ġlack": 6369,
      "ĠCD": 6370,
      "ĠSc": 6371,
      "ĠSel": 6372,
      "Ġsepar": 6373,
      "ĠNos": 6374,
      "ifiques": 6375,
      "Ġshy": 6376,
      "ĠBrÃ©s": 6377,
      "Ġquelconque": 6378,
      "Ġgrandmother": 6379,
      "Ġtalks": 6380,
      "Ġbull": 6381,
      "Ġbuying": 6382,
      "Ġpropri": 6383,
      "ellerai": 6384,
      "ercice": 6385,
      "ĠAmÃ©rique": 6386,
      "ĠTony": 6387,
      "ĠrÃ¨gle": 6388,
      "iliar": 6389,
      "iko": 6390,
      "ernelle": 6391,
      "ĠmÃ©rite": 6392,
      "ĠExcuse": 6393,
      "Ġensuite": 6394,
      "ĠdiffÃ©rentes": 6395,
      "Ġsuitcase": 6396,
      "ĠmathÃ©matiques": 6397,
      "Ġuniverse": 6398,
      "Ġenergy": 6399,
      "ĠBrÃ©sil": 6400,
      "iale": 6401,
      "lant": 6402,
      "ners": 6403,
      "Ġ(": 6404,
      "ĠX": 6405,
      "Ġpoup": 6406,
      "inite": 6407,
      "Ġmood": 6408,
      "Ġmult": 6409,
      "Ã©quipe": 6410,
      "ompe": 6411,
      "quÃ©s": 6412,
      "ĠToute": 6413,
      "Ġvienne": 6414,
      "ailable": 6415,
      "Ġgal": 6416,
      "usez": 6417,
      "cemment": 6418,
      "ĠLast": 6419,
      "Ġrains": 6420,
      "Ġromp": 6421,
      "Ġsoft": 6422,
      "Ġaud": 6423,
      "ueill": 6424,
      "Ġdesp": 6425,
      "Ġprise": 6426,
      "Ã¨rement": 6427,
      "Ġconte": 6428,
      "Ġarrog": 6429,
      "ĠapportÃ©": 6430,
      "ĠexpÃ©rience": 6431,
      "Ã¢ce": 6432,
      "ĠIsn": 6433,
      "Ġawake": 6434,
      "Ġobtenir": 6435,
      "anceux": 6436,
      "Ġlistened": 6437,
      "Ġcuisin": 6438,
      "Ã©dÃ©": 6439,
      "Ġsteal": 6440,
      "ĠÃ©trangers": 6441,
      "Ġsympa": 6442,
      "ĠacceptÃ©": 6443,
      "ĠBonjour": 6444,
      "Ġwarned": 6445,
      "dom": 6446,
      "Ġtight": 6447,
      "Ġdame": 6448,
      "Ġdying": 6449,
      "Ġsamed": 6450,
      "Ġcents": 6451,
      "Ġbisc": 6452,
      "Ġhuge": 6453,
      "aies": 6454,
      "riger": 6455,
      "ĠSu": 6456,
      "ĠHar": 6457,
      "Ġrace": 6458,
      "Ġcelles": 6459,
      "ĠforcÃ©": 6460,
      "ades": 6461,
      "Ġcance": 6462,
      "Ġarea": 6463,
      "Ġavailable": 6464,
      "ular": 6465,
      "Ġarme": 6466,
      "Ġalcohol": 6467,
      "Ġgrass": 6468,
      "appro": 6469,
      "Ġdemi": 6470,
      "ĠRom": 6471,
      "Ġentered": 6472,
      "Ġatta": 6473,
      "issant": 6474,
      "issait": 6475,
      "Ã¢tre": 6476,
      "attr": 6477,
      "ĠbeautÃ©": 6478,
      "lÃ©ment": 6479,
      "Ġsecrets": 6480,
      "ĠmÃ©dec": 6481,
      "Ġcostume": 6482,
      "Ġbasket": 6483,
      "ĠÃ©chapp": 6484,
      "anniversaire": 6485,
      "Ġemail": 6486,
      "ĠÃ©couter": 6487,
      "ĠobligÃ©": 6488,
      "ĠVoudrais": 6489,
      "Ġmiracle": 6490,
      "Ġraconter": 6491,
      "Ġequal": 6492,
      "Ġcivil": 6493,
      "Ġcrayon": 6494,
      "ĠFriday": 6495,
      "cter": 6496,
      "haps": 6497,
      "Ãī": 6498,
      "Ġur": 6499,
      "Ġpisc": 6500,
      "Ġlion": 6501,
      "Ġfed": 6502,
      "atives": 6503,
      "Ġtoit": 6504,
      "ĠchÃ¨re": 6505,
      "aujourd": 6506,
      "stances": 6507,
      "Ġpourriez": 6508,
      "Ġnoticed": 6509,
      "allais": 6510,
      "Ġsharp": 6511,
      "ession": 6512,
      "ĠBrit": 6513,
      "ouvons": 6514,
      "Ġsize": 6515,
      "Ġcartes": 6516,
      "ĠOnce": 6517,
      "Ġmatins": 6518,
      "Ġfriendly": 6519,
      "Ġrecently": 6520,
      "ization": 6521,
      "Ġportef": 6522,
      "ĠDemand": 6523,
      "Ġrencontre": 6524,
      "Ġhumains": 6525,
      "ĠvÃ©ritable": 6526,
      "ĠÃ©puis": 6527,
      "Ġsisters": 6528,
      "Ġpermettre": 6529,
      "Ġresponsible": 6530,
      "ĠdÃ©ranger": 6531,
      "Ġbouton": 6532,
      "Ġsports": 6533,
      "Ġchoisi": 6534,
      "Ġlegs": 6535,
      "ĠgÃ©nÃ©ralement": 6536,
      "Ġparticulier": 6537,
      "Ġcharacter": 6538,
      "ĠMontre": 6539,
      "Ġplaindre": 6540,
      "Ġcomportement": 6541,
      "Ġbreath": 6542,
      "dedans": 6543,
      "Ġdoigt": 6544,
      "Ġappointment": 6545,
      "Ġcirculation": 6546,
      "Ġcorrespond": 6547,
      "ĠOpen": 6548,
      "Ġpiscine": 6549,
      "abl": 6550,
      "bum": 6551,
      "des": 6552,
      "iquÃ©": 6553,
      "ker": 6554,
      "ym": 6555,
      "Ġpair": 6556,
      "Ġcouver": 6557,
      "Ġmic": 6558,
      "ĠnÃ©e": 6559,
      "Ġfass": 6560,
      "Ġfich": 6561,
      "quante": 6562,
      "Ġhill": 6563,
      "Ġhob": 6564,
      "ĠhÃ¢te": 6565,
      "Ġlave": 6566,
      "ĠreÃ§": 6567,
      "Ġheat": 6568,
      "Ġplaces": 6569,
      "ĠparaÃ®t": 6570,
      "amis": 6571,
      "ĠHelp": 6572,
      "Ġpours": 6573,
      "Ġweb": 6574,
      "Ġwealth": 6575,
      "Ġwhis": 6576,
      "Ġexha": 6577,
      "Ġsert": 6578,
      "Ġmarriage": 6579,
      "Ġpeinture": 6580,
      "Ġpleure": 6581,
      "Ġblo": 6582,
      "Ġpassport": 6583,
      "Ġguide": 6584,
      "Ġterrif": 6585,
      "Ġ15": 6586,
      "ĠdÃ©part": 6587,
      "Ġcapac": 6588,
      "Ġinflu": 6589,
      "Ġsleepy": 6590,
      "Ġacting": 6591,
      "Ġresponsib": 6592,
      "Ġsilenci": 6593,
      "Ġescal": 6594,
      "Ġsoif": 6595,
      "Ġjoindre": 6596,
      "ĠapprÃ©ciÃ©": 6597,
      "ĠAucune": 6598,
      "Ġexercise": 6599,
      "ĠreprÃ©s": 6600,
      "ĠtempÃ©rature": 6601,
      "Ġlonely": 6602,
      "Ġportefeuille": 6603,
      "Ġsilencieux": 6604,
      "It": 6605,
      "bri": 6606,
      "mÃªmes": 6607,
      "Ġdad": 6608,
      "Ġdare": 6609,
      "Ġnames": 6610,
      "tered": 6611,
      "ĠlevÃ©": 6612,
      "ĠChe": 6613,
      "Ã¨se": 6614,
      "ĠEm": 6615,
      "outes": 6616,
      "ĠAb": 6617,
      "ĠNone": 6618,
      "ĠNancy": 6619,
      "aurait": 6620,
      "ura": 6621,
      "ĠBible": 6622,
      "Ġapprend": 6623,
      "umb": 6624,
      "ĠÃ©veill": 6625,
      "ĠGe": 6626,
      "ĠagrÃ©able": 6627,
      "jection": 6628,
      "Ġphy": 6629,
      "Ġfinal": 6630,
      "ĠdeuxiÃ¨me": 6631,
      "Ġheureuses": 6632,
      "Ġourselves": 6633,
      "Ġcalls": 6634,
      "Ġpoet": 6635,
      "okes": 6636,
      "ĠÃ©tudie": 6637,
      "Ġteaching": 6638,
      "ĠrencontrÃ©s": 6639,
      "Ġstarting": 6640,
      "Ġconditions": 6641,
      "ĠrÃ©sol": 6642,
      "Ġchangement": 6643,
      "Ġeasier": 6644,
      "Ġsemblez": 6645,
      "Ġentreprise": 6646,
      "Ġchauff": 6647,
      "Ġforest": 6648,
      "Ġdessert": 6649,
      "Ġbarbe": 6650,
      "occasion": 6651,
      "ĠcoÃ»t": 6652,
      "velop": 6653,
      "Ġchansons": 6654,
      "enfants": 6655,
      "Ġnulle": 6656,
      "ĠconsidÃ©r": 6657,
      "Ġfoolish": 6658,
      "Ġprivate": 6659,
      "Ġ201": 6660,
      "Ġachie": 6661,
      "ĠGarde": 6662,
      "Ġconstruit": 6663,
      "information": 6664,
      "Ã©nergie": 6665,
      "Ġchouette": 6666,
      "Ġpencil": 6667,
      "ĠprÃ©fÃ©rerais": 6668,
      "mit": 6669,
      "sp": 6670,
      "Ġtirer": 6671,
      "Ġpare": 6672,
      "Ġmidi": 6673,
      "Ã©te": 6674,
      "itaire": 6675,
      "ĠfÃ¢": 6676,
      "Ġfarm": 6677,
      "Ġbored": 6678,
      "Ġvar": 6679,
      "Ġtow": 6680,
      "Ġgam": 6681,
      "Ġjeux": 6682,
      "Ġlab": 6683,
      "ĠLove": 6684,
      "ĠSont": 6685,
      "ĠEach": 6686,
      "Ġplu": 6687,
      "Ġcele": 6688,
      "agner": 6689,
      "ader": 6690,
      "ĠPard": 6691,
      "Ġdeserve": 6692,
      "ĠdÃ©n": 6693,
      "ĠdÃ©Ã§u": 6694,
      "ĠdÃ©velopp": 6695,
      "Ġknowledge": 6696,
      "apÃ©": 6697,
      "ĠrÃ©cemment": 6698,
      "Ġdisait": 6699,
      "ivre": 6700,
      "Ġcheap": 6701,
      "Ġstuck": 6702,
      "Ġhelping": 6703,
      "Ġoffic": 6704,
      "Ġfamiliar": 6705,
      "Ġ12": 6706,
      "Ġimage": 6707,
      "ĠEsp": 6708,
      "Ġexcited": 6709,
      "Ġbedroom": 6710,
      "Ġshoot": 6711,
      "ĠblessÃ©e": 6712,
      "Ġbright": 6713,
      "Ġmauvaises": 6714,
      "Ġcookies": 6715,
      "ĠAmericans": 6716,
      "Ġtranslation": 6717,
      "Ġdestroy": 6718,
      "Ġbillet": 6719,
      "Ġ50": 6720,
      "Ġvendredi": 6721,
      "ĠfrappÃ©": 6722,
      "Ġcacher": 6723,
      "Ġsuicide": 6724,
      "ĠhabituÃ©": 6725,
      "Ġvegetables": 6726,
      "Ġoreilles": 6727,
      "ĠdÃ©barrasser": 6728,
      "Ġearthquake": 6729,
      "ĠSelon": 6730,
      "What": 6731,
      "uji": 6732,
      "Ġdry": 6733,
      "Ã©h": 6734,
      "hemat": 6735,
      "Ġfout": 6736,
      "ĠfiÃ¨re": 6737,
      "Ġbais": 6738,
      "atif": 6739,
      "Ġgames": 6740,
      "Ġthief": 6741,
      "Ġow": 6742,
      "Ġinstitut": 6743,
      "ĠSay": 6744,
      "Ġtruck": 6745,
      "icate": 6746,
      "ĠTheir": 6747,
      "Ġplantes": 6748,
      "tue": 6749,
      "aves": 6750,
      "ĠdÃ©Ã§": 6751,
      "ulÃ©": 6752,
      "ĠWhose": 6753,
      "Ġcompet": 6754,
      "Ġserons": 6755,
      "Ġjambe": 6756,
      "Ġroof": 6757,
      "ober": 6758,
      "Ġvoleur": 6759,
      "ĠChacun": 6760,
      "ĠAsk": 6761,
      "Ġconsac": 6762,
      "Ġfamil": 6763,
      "Ġ16": 6764,
      "Ġ18": 6765,
      "Ġprisonn": 6766,
      "Ġplanning": 6767,
      "ĠParlez": 6768,
      "Ġinsist": 6769,
      "arrÃªte": 6770,
      "Ġmeilleurs": 6771,
      "Ġrelation": 6772,
      "Ġcamion": 6773,
      "Ġindivid": 6774,
      "Ġpasseport": 6775,
      "Ġproduire": 6776,
      "Ġargument": 6777,
      "onomie": 6778,
      "ĠarrivÃ©s": 6779,
      "ĠFaisons": 6780,
      "ĠprÃ©par": 6781,
      "intÃ©resse": 6782,
      "Ġregrette": 6783,
      "Ġclimb": 6784,
      "Ġtaste": 6785,
      "Ġtreated": 6786,
      "Ġtrucs": 6787,
      "ĠratÃ©": 6788,
      "inquiÃ¨te": 6789,
      "Ġjaloux": 6790,
      "Ġsurface": 6791,
      "Ġtemperature": 6792,
      "Ġpregnant": 6793,
      "my": 6794,
      "mine": 6795,
      "Ġdan": 6796,
      "esome": 6797,
      "Ġcream": 6798,
      "Ã©ros": 6799,
      "Ġnone": 6800,
      "Ġfous": 6801,
      "Ġfol": 6802,
      "ordre": 6803,
      "Ġqueue": 6804,
      "entrÃ©e": 6805,
      "Ġmel": 6806,
      "Ġeau": 6807,
      "ĠWatch": 6808,
      "ĠMin": 6809,
      "ĠMother": 6810,
      "ĠAd": 6811,
      "ĠAvant": 6812,
      "ĠDr": 6813,
      "Ġparoles": 6814,
      "Ġwashed": 6815,
      "ĠPet": 6816,
      "ifier": 6817,
      "Ġmondi": 6818,
      "enser": 6819,
      "Ã©coute": 6820,
      "ĠOct": 6821,
      "Ġamount": 6822,
      "ĠFace": 6823,
      "icieux": 6824,
      "Ġclou": 6825,
      "apped": 6826,
      "avaient": 6827,
      "Ġprevent": 6828,
      "Ġvoie": 6829,
      "Ġprize": 6830,
      "Ġcorde": 6831,
      "Ġremain": 6832,
      "ancer": 6833,
      "Ġvivant": 6834,
      "Ġfume": 6835,
      "ĠRem": 6836,
      "Ġaimez": 6837,
      "ĠpiÃ¨ces": 6838,
      "Ġfallu": 6839,
      "entretenir": 6840,
      "Ġsuffit": 6841,
      "Ġsongs": 6842,
      "ĠrÃ©veiller": 6843,
      "Ġdelicious": 6844,
      "Ġpicked": 6845,
      "Ġsympath": 6846,
      "ĠProm": 6847,
      "Ġpardonner": 6848,
      "Ġravi": 6849,
      "Ġcomplaining": 6850,
      "Ġsquirre": 6851,
      "Ġjudge": 6852,
      "ĠAccord": 6853,
      "Ġopportunity": 6854,
      "Ġeducation": 6855,
      "Ġdommage": 6856,
      "Ġcredit": 6857,
      "Ġnurse": 6858,
      "bit": 6859,
      "ores": 6860,
      "uly": 6861,
      "upe": 6862,
      "Ġaffect": 6863,
      "Ġsli": 6864,
      "omac": 6865,
      "ĠbÃªte": 6866,
      "Ġtooth": 6867,
      "ĠJud": 6868,
      "lex": 6869,
      "Ġunless": 6870,
      "Ġnearly": 6871,
      "Ġja": 6872,
      "Ġrepe": 6873,
      "ĠCro": 6874,
      "Ġevent": 6875,
      "Ã¨ge": 6876,
      "ĠWar": 6877,
      "ĠAv": 6878,
      "ĠDois": 6879,
      "agers": 6880,
      "Ġauriez": 6881,
      "eless": 6882,
      "ĠcompÃ©t": 6883,
      "ĠFuji": 6884,
      "uise": 6885,
      "apprends": 6886,
      "hered": 6887,
      "Ġresist": 6888,
      "udd": 6889,
      "Ġtells": 6890,
      "Ġvenus": 6891,
      "Ġjoueur": 6892,
      "ĠDidn": 6893,
      "assem": 6894,
      "Ġpetites": 6895,
      "ĠdÃ©termin": 6896,
      "Ġdispon": 6897,
      "Ġconclus": 6898,
      "Ġbeauty": 6899,
      "ĠFran": 6900,
      "ĠÃ©pau": 6901,
      "ĠdiffÃ©rente": 6902,
      "ĠdifficultÃ©s": 6903,
      "Ġdistrib": 6904,
      "Ġgentilles": 6905,
      "Ġcopain": 6906,
      "expl": 6907,
      "Ġconnaissait": 6908,
      "Ġaccepted": 6909,
      "Ġprendra": 6910,
      "ĠAfric": 6911,
      "oubliez": 6912,
      "intÃ©ress": 6913,
      "Ġdestination": 6914,
      "Ġtastes": 6915,
      "Ġfighting": 6916,
      "Ġvideo": 6917,
      "Ġfailure": 6918,
      "Ã¨vres": 6919,
      "ĠSalut": 6920,
      "Ġincroyable": 6921,
      "ĠAccording": 6922,
      "ax": 6923,
      "gal": 6924,
      "ium": 6925,
      "ky": 6926,
      "rage": 6927,
      "Ġsage": 6928,
      "Ġlaid": 6929,
      "Ġmout": 6930,
      "ataire": 6931,
      "Ġvus": 6932,
      "Ġvendu": 6933,
      "Ġviennent": 6934,
      "ourne": 6935,
      "ĠTomorrow": 6936,
      "ically": 6937,
      "Ġliqu": 6938,
      "Ġparmi": 6939,
      "Ġforces": 6940,
      "endie": 6941,
      "Ġavis": 6942,
      "ĠfrÃ©qu": 6943,
      "ĠMars": 6944,
      "umer": 6945,
      "Ġclos": 6946,
      "merg": 6947,
      "erty": 6948,
      "Ġoper": 6949,
      "Ġawesome": 6950,
      "lied": 6951,
      "Ġremettre": 6952,
      "Ġteachers": 6953,
      "icted": 6954,
      "Ġexplication": 6955,
      "Ġdevenue": 6956,
      "ĠcontrÃ´": 6957,
      "azz": 6958,
      "Ġforgotten": 6959,
      "ĠprÃ©cip": 6960,
      "ĠprÃ©cisÃ©ment": 6961,
      "Ġproduits": 6962,
      "Ġtickets": 6963,
      "Ġperfectly": 6964,
      "Ġengine": 6965,
      "Ġtotally": 6966,
      "Ġconseilla": 6967,
      "Ġimprove": 6968,
      "Ġprogramme": 6969,
      "ĠmaÃ®t": 6970,
      "Ġbehavior": 6971,
      "Ġquotid": 6972,
      "fortunately": 6973,
      "Ġsamedi": 6974,
      "bon": 6975,
      "ban": 6976,
      "for": 6977,
      "obre": 6978,
      "rees": 6979,
      "Ġding": 6980,
      "Ġpill": 6981,
      "Ġpose": 6982,
      "erver": 6983,
      "Ġbeur": 6984,
      "Ġvan": 6985,
      "Ġhous": 6986,
      "Ġthrew": 6987,
      "rime": 6988,
      "ĠWater": 6989,
      "ĠMus": 6990,
      "ĠMex": 6991,
      "Ġram": 6992,
      "Ġpars": 6993,
      "ĠPh": 6994,
      "ĠPaul": 6995,
      "Ġsommet": 6996,
      "Ġalbum": 6997,
      "Ġusual": 6998,
      "Ġdisg": 6999,
      "Ġclairement": 7000,
      "rently": 7001,
      "ĠentrÃ©": 7002,
      "Ġjambes": 7003,
      "Ġparlait": 7004,
      "Ġattitude": 7005,
      "Ġspeed": 7006,
      "Ġspread": 7007,
      "Ġmaternelle": 7008,
      "ĠconsÃ©qu": 7009,
      "Ġsuppos": 7010,
      "Ġpoche": 7011,
      "Ġcru": 7012,
      "Ġincred": 7013,
      "Ġobey": 7014,
      "Ġtrouvait": 7015,
      "ĠoccupÃ©s": 7016,
      "Ġexplained": 7017,
      "veilleux": 7018,
      "Ġdirais": 7019,
      "Ġfeuilles": 7020,
      "Ġbatter": 7021,
      "Ġpoissons": 7022,
      "Ġstock": 7023,
      "Ġscientifique": 7024,
      "Ġmangent": 7025,
      "ĠautorisÃ©": 7026,
      "excuser": 7027,
      "Ġpractice": 7028,
      "Ġconvaincre": 7029,
      "Ġspectacle": 7030,
      "ĠSaturday": 7031,
      "Ġthirsty": 7032,
      "ĠOctober": 7033,
      "Austral": 7034,
      "Is": 7035,
      "ef": 7036,
      "ouer": 7037,
      "Ġaille": 7038,
      "Ġavert": 7039,
      "ener": 7040,
      "inet": 7041,
      "anches": 7042,
      "Ġnine": 7043,
      "Ġbaiss": 7044,
      "eule": 7045,
      "Ġlay": 7046,
      "ĠWrite": 7047,
      "Ġence": 7048,
      "ĠMettez": 7049,
      "Ã©tude": 7050,
      "icles": 7051,
      "Ġwebs": 7052,
      "Ġexception": 7053,
      "ĠMaria": 7054,
      "Ã©couter": 7055,
      "Ġcompt": 7056,
      "Ġlocked": 7057,
      "Ġgrandi": 7058,
      "Ġseules": 7059,
      "icked": 7060,
      "Ġconnaissez": 7061,
      "Ġcouramment": 7062,
      "Ġfaisais": 7063,
      "Ġmethod": 7064,
      "Ġfutur": 7065,
      "Ġoccur": 7066,
      "ĠdÃ©tails": 7067,
      "Ġessent": 7068,
      "ancÃ©": 7069,
      "Ġfolle": 7070,
      "Ġdouce": 7071,
      "Ġaccidents": 7072,
      "Ġtourner": 7073,
      "ĠÃ©pouse": 7074,
      "Ġprobable": 7075,
      "Ġartist": 7076,
      "Ġsymb": 7077,
      "ĠÃ©tranger": 7078,
      "Ġmiles": 7079,
      "Ġheadache": 7080,
      "Ġargu": 7081,
      "Ġcomplex": 7082,
      "Ġsuivi": 7083,
      "Ġwindows": 7084,
      "Ġcosts": 7085,
      "ĠAppelle": 7086,
      "Ġbicyclette": 7087,
      "ĠcrÃ©dit": 7088,
      "Ġpunished": 7089,
      "Ġprudente": 7090,
      "Ġarmy": 7091,
      "Ġexperien": 7092,
      "Ã©tudie": 7093,
      "Ġpauvres": 7094,
      "ĠprogrÃ¨s": 7095,
      "Ġpousser": 7096,
      "Ġtimide": 7097,
      "ervation": 7098,
      "Ġoptim": 7099,
      "Ġelectric": 7100,
      "Ġmodern": 7101,
      "Ġhobby": 7102,
      "Ġdanse": 7103,
      "host": 7104,
      "lud": 7105,
      "ox": 7106,
      "vi": 7107,
      "zen": 7108,
      "Ġ'": 7109,
      "Ġpaire": 7110,
      "Ġlosing": 7111,
      "ina": 7112,
      "ĠTime": 7113,
      "Ġdeg": 7114,
      "Ġdevelop": 7115,
      "Ġvoi": 7116,
      "Ġvint": 7117,
      "Ġquinze": 7118,
      "ayed": 7119,
      "Ġham": 7120,
      "uters": 7121,
      "ĠDur": 7122,
      "ldom": 7123,
      "ĠÃ©toiles": 7124,
      "ĠdÃ©ch": 7125,
      "ĠcongÃ©": 7126,
      "Ġfaite": 7127,
      "Ġdistur": 7128,
      "ĠEnf": 7129,
      "Ġmonter": 7130,
      "espace": 7131,
      "Ġannon": 7132,
      "ĠsÃ»rs": 7133,
      "Ġshocked": 7134,
      "habit": 7135,
      "ĠdiffÃ©rents": 7136,
      "Ġversion": 7137,
      "Ġinformations": 7138,
      "Ġcollect": 7139,
      "ĠresponsabilitÃ©": 7140,
      "ĠfenÃªtres": 7141,
      "Ġjuge": 7142,
      "Ġboisson": 7143,
      "ĠtentÃ©": 7144,
      "ĠAttends": 7145,
      "ĠAttendez": 7146,
      "ĠcÃ©lib": 7147,
      "Ġneighbors": 7148,
      "Ġbott": 7149,
      "ĠÃ©trangÃ¨re": 7150,
      "ĠtrompÃ©": 7151,
      "ĠAlgerian": 7152,
      "reedom": 7153,
      "Ġdisease": 7154,
      "Ġcriminal": 7155,
      "Ġcigarette": 7156,
      "Ġintroduce": 7157,
      "ĠsÃ©par": 7158,
      "Ġinvestig": 7159,
      "ĠÃ©norme": 7160,
      "Ġoctobre": 7161,
      "attraper": 7162,
      "ĠFacebook": 7163,
      "dis": 7164,
      "hand": 7165,
      "night": 7166,
      "ware": 7167,
      "Ġpig": 7168,
      "Ġsinc": 7169,
      "onte": 7170,
      "enu": 7171,
      "isÃ©s": 7172,
      "Ġmid": 7173,
      "het": 7174,
      "omen": 7175,
      "Ġhiver": 7176,
      "Ġyes": 7177,
      "Ġgren": 7178,
      "ources": 7179,
      "ilitÃ©s": 7180,
      "ĠLeur": 7181,
      "ayons": 7182,
      "ĠHold": 7183,
      "Ġras": 7184,
      "stand": 7185,
      "Ġpourrions": 7186,
      "Ġstress": 7187,
      "angers": 7188,
      "ĠauprÃ¨s": 7189,
      "ĠprÃªtes": 7190,
      "Ġath": 7191,
      "ĠcanapÃ©": 7192,
      "Ġshame": 7193,
      "Ġmanage": 7194,
      "ĠrÃ©gl": 7195,
      "Ġmarrant": 7196,
      "Ġspot": 7197,
      "Ġaccro": 7198,
      "Ġdirige": 7199,
      "Ġdrag": 7200,
      "Ġcouru": 7201,
      "Ġscand": 7202,
      "ĠdÃ©sir": 7203,
      "ĠdÃ©sire": 7204,
      "oko": 7205,
      "Ġreposer": 7206,
      "Ġhearing": 7207,
      "Ġcomplicated": 7208,
      "Ġruns": 7209,
      "ĠSomebody": 7210,
      "Ġfavour": 7211,
      "ĠintÃ©ressante": 7212,
      "Ġfaud": 7213,
      "Ġenseigne": 7214,
      "Ġsoldats": 7215,
      "Ġarrivera": 7216,
      "ĠLorsqu": 7217,
      "Ġsucceeded": 7218,
      "Ġgrimp": 7219,
      "ĠConnaissez": 7220,
      "Ġfinger": 7221,
      "Ġmembres": 7222,
      "ĠvidÃ©o": 7223,
      "accepter": 7224,
      "Ġincapable": 7225,
      "Ġbiscuits": 7226,
      "Ġtar": 7227,
      "onie": 7228,
      "Ġcards": 7229,
      "Ġmobile": 7230,
      "iting": 7231,
      "Ġnois": 7232,
      "Ġnaiss": 7233,
      "Ġnaked": 7234,
      "Ġfain": 7235,
      "ashed": 7236,
      "orc": 7237,
      "ĠJam": 7238,
      "und": 7239,
      "lection": 7240,
      "Ġsup": 7241,
      "Ġeffectu": 7242,
      "Ã¨ce": 7243,
      "Ã¨che": 7244,
      "Ġchances": 7245,
      "icien": 7246,
      "ielle": 7247,
      "Ġseldom": 7248,
      "Ġforc": 7249,
      "agues": 7250,
      "osau": 7251,
      "uls": 7252,
      "elve": 7253,
      "ĠFather": 7254,
      "Ġmaisons": 7255,
      "Ġpartis": 7256,
      "Ġlongs": 7257,
      "Ġworkers": 7258,
      "Ġbeaux": 7259,
      "Ã©lic": 7260,
      "ĠÃ©cureu": 7261,
      "Ġsembles": 7262,
      "ĠposÃ©": 7263,
      "Ġdiet": 7264,
      "Ġcaused": 7265,
      "Ġnoms": 7266,
      "Ġpause": 7267,
      "exercice": 7268,
      "ocr": 7269,
      "ocrat": 7270,
      "Ġstranger": 7271,
      "Ġcolour": 7272,
      "Ġclearly": 7273,
      "Ġauras": 7274,
      "Ġcontraire": 7275,
      "Ġmerveilleux": 7276,
      "ĠmariÃ©s": 7277,
      "Ġlights": 7278,
      "Ġcash": 7279,
      "ĠÃ©vident": 7280,
      "Ġmurder": 7281,
      "Ġdelight": 7282,
      "Ġoptions": 7283,
      "ordinateur": 7284,
      "Ġstrict": 7285,
      "ĠcommandÃ©": 7286,
      "ĠClose": 7287,
      "Ġmagnifique": 7288,
      "Ġmembers": 7289,
      "Ġfilled": 7290,
      "Ġschedule": 7291,
      "Australie": 7292,
      "Europe": 7293,
      "kin": 7294,
      "mail": 7295,
      "rants": 7296,
      "Ġpure": 7297,
      "ening": 7298,
      "Ġloss": 7299,
      "Ġfoi": 7300,
      "Ġbite": 7301,
      "Ġghost": 7302,
      "Ġoil": 7303,
      "ĠCrois": 7304,
      "Ġsearch": 7305,
      "Ġcomfortable": 7306,
      "adresse": 7307,
      "renons": 7308,
      "endent": 7309,
      "Ġstren": 7310,
      "Ġconstant": 7311,
      "Ġanyway": 7312,
      "Ġappelle": 7313,
      "Ġappartient": 7314,
      "siÃ¨re": 7315,
      "Ġtouched": 7316,
      "Ġmarre": 7317,
      "Ġoranges": 7318,
      "Ã»mes": 7319,
      "ĠRÃ©": 7320,
      "ĠentraÃ®": 7321,
      "Ġcarried": 7322,
      "Ġpreuve": 7323,
      "Ġtomba": 7324,
      "Ġyellow": 7325,
      "Ġscene": 7326,
      "Ġtenu": 7327,
      "ĠderniÃ¨res": 7328,
      "ĠplanÃ¨te": 7329,
      "Ġconfused": 7330,
      "Ġ25": 7331,
      "Ġgross": 7332,
      "Ġrendit": 7333,
      "Ġconvient": 7334,
      "ĠJaponais": 7335,
      "Ġjournaux": 7336,
      "Ġescaped": 7337,
      "ĠbÃ©nÃ©": 7338,
      "ĠCanadian": 7339,
      "Ġpleasant": 7340,
      "Ġsouffre": 7341,
      "ĠEssayez": 7342,
      "Ġevil": 7343,
      "Ġsmiled": 7344,
      "Ġconduite": 7345,
      "ĠContin": 7346,
      "ĠExcusez": 7347,
      "ĠpleurÃ©": 7348,
      "ĠMalheure": 7349,
      "Ġdifficulty": 7350,
      "Ġsimilar": 7351,
      "ĠpÃ©nÃ©t": 7352,
      "Ġrelationship": 7353,
      "Ġamazing": 7354,
      "AlgÃ©rie": 7355,
      "Ġphysique": 7356,
      "Ġcelebr": 7357,
      "Ġenceinte": 7358,
      "Ġtiens": 7359,
      "ĠaÃ®": 7360,
      "Ġmouill": 7361,
      "Ġveste": 7362,
      "Ġod": 7363,
      "Ġlamp": 7364,
      "Ġrely": 7365,
      "Ġang": 7366,
      "Ġchim": 7367,
      "Ġchanceux": 7368,
      "Ã©taient": 7369,
      "ications": 7370,
      "ĠAut": 7371,
      "tud": 7372,
      "ĠPouvons": 7373,
      "Ġnotes": 7374,
      "Ġkidd": 7375,
      "lymp": 7376,
      "Ġconven": 7377,
      "Ġexch": 7378,
      "ĠOb": 7379,
      "ĠWhile": 7380,
      "Ġcompr": 7381,
      "Ġdevint": 7382,
      "Ġcloche": 7383,
      "Ġserp": 7384,
      "Ġrope": 7385,
      "rape": 7386,
      "Ġaccent": 7387,
      "Ġspeaker": 7388,
      "Ġguests": 7389,
      "Ġterror": 7390,
      "Ġpoem": 7391,
      "Ġcorner": 7392,
      "espoir": 7393,
      "Ġcesse": 7394,
      "ugle": 7395,
      "Ġgreatest": 7396,
      "Ġcontrat": 7397,
      "Ġpretend": 7398,
      "Ġpretended": 7399,
      "Ġsouris": 7400,
      "Ġmatters": 7401,
      "Ġrealized": 7402,
      "ĠthÃ©Ã¢tre": 7403,
      "Ġexpecting": 7404,
      "Ġfoule": 7405,
      "Ġintelligente": 7406,
      "ĠamusÃ©": 7407,
      "Ġsemblant": 7408,
      "Ġreceive": 7409,
      "Ġmillions": 7410,
      "ĠÃ©coutÃ©": 7411,
      "ĠItalian": 7412,
      "Ġmirror": 7413,
      "ĠJackson": 7414,
      "ordinaire": 7415,
      "Ġskiing": 7416,
      "Ġdenied": 7417,
      "Ġennuyeux": 7418,
      "Ġlicense": 7419,
      "Ġbarely": 7420,
      "Ġfalse": 7421,
      "Ġvaisselle": 7422,
      "ĠJamais": 7423,
      "ĠMalheureusement": 7424,
      "Un": 7425,
      "ius": 7426,
      "nom": 7427,
      "Ġtienne": 7428,
      "Ġpages": 7429,
      "Ġpaie": 7430,
      "erait": 7431,
      "Ġcad": 7432,
      "Ġmut": 7433,
      "Ġmaman": 7434,
      "Ġunh": 7435,
      "Ġjail": 7436,
      "Ġmecs": 7437,
      "Ġanger": 7438,
      "Ġhaute": 7439,
      "ĠMaman": 7440,
      "Ġrate": 7441,
      "Ġrassem": 7442,
      "ĠDay": 7443,
      "urÃ©": 7444,
      "aving": 7445,
      "Ġaurez": 7446,
      "Ġsaf": 7447,
      "Ġtouche": 7448,
      "Ã´mes": 7449,
      "aband": 7450,
      "Ġbrush": 7451,
      "Ġattach": 7452,
      "Ġblanche": 7453,
      "ĠarriÃ¨re": 7454,
      "Ġvoulaient": 7455,
      "Ġlangage": 7456,
      "Ġmoving": 7457,
      "ĠAss": 7458,
      "ainement": 7459,
      "Ġconscient": 7460,
      "Ġcourte": 7461,
      "ĠpoÃ¨me": 7462,
      "ĠfranÃ§aise": 7463,
      "Ġcrise": 7464,
      "Ġconfess": 7465,
      "Ġimportance": 7466,
      "Ġlaissa": 7467,
      "Ġtransport": 7468,
      "Ġsales": 7469,
      "ĠAlice": 7470,
      "Ġtourne": 7471,
      "Ġcontract": 7472,
      "Ġoublier": 7473,
      "oixante": 7474,
      "ĠdÃ©mar": 7475,
      "Ġtranslated": 7476,
      "Ġillness": 7477,
      "ctual": 7478,
      "Ġordinateurs": 7479,
      "Ġsoldiers": 7480,
      "Ġnuages": 7481,
      "Ġproduction": 7482,
      "Ġatteint": 7483,
      "idden": 7484,
      "Ġsuggestion": 7485,
      "awa": 7486,
      "ĠrÃ©gime": 7487,
      "ĠfermÃ©e": 7488,
      "irmiÃ¨re": 7489,
      "Ġmignon": 7490,
      "Ġnavire": 7491,
      "Ġbelongs": 7492,
      "ĠmaÃ®tre": 7493,
      "Ġlargest": 7494,
      "ĠBerlin": 7495,
      "importance": 7496,
      "ĠpoupÃ©e": 7497,
      "Ġexhausted": 7498,
      "Ġkidding": 7499,
      "euse": 7500,
      "hÃ©s": 7501,
      "iÃ©s": 7502,
      "opp": 7503,
      "ĠtÃ¢che": 7504,
      "Ġdrow": 7505,
      "ĠpÃ©t": 7506,
      "Ġling": 7507,
      "anou": 7508,
      "Ġnai": 7509,
      "Ġnuts": 7510,
      "Ġfasses": 7511,
      "Ġwore": 7512,
      "atin": 7513,
      "Ġvilles": 7514,
      "ĠqualitÃ©": 7515,
      "vels": 7516,
      "Ġthin": 7517,
      "Ġjacket": 7518,
      "ĠLuc": 7519,
      "Ġenqu": 7520,
      "utation": 7521,
      "ĠNag": 7522,
      "onter": 7523,
      "agÃ¨re": 7524,
      "illy": 7525,
      "Ġkaby": 7526,
      "Ġgoal": 7527,
      "Ġavance": 7528,
      "Ġshape": 7529,
      "Ġability": 7530,
      "Ġfaith": 7531,
      "bling": 7532,
      "ĠGree": 7533,
      "Ġpeau": 7534,
      "Ġpassage": 7535,
      "ounds": 7536,
      "Ġgueule": 7537,
      "Ġstudies": 7538,
      "ĠUnfortunately": 7539,
      "Ġ11": 7540,
      "Ġpocket": 7541,
      "Ġtenait": 7542,
      "Ġdiscovered": 7543,
      "Ġraised": 7544,
      "Ġmayor": 7545,
      "ĠprÃ©sente": 7546,
      "Ġabsor": 7547,
      "Ġmisunder": 7548,
      "Ġclassroom": 7549,
      "Ġmenteur": 7550,
      "Ġservir": 7551,
      "Ġgentille": 7552,
      "Ġchanteur": 7553,
      "Ġairpl": 7554,
      "view": 7555,
      "Ġsweater": 7556,
      "Ġidiote": 7557,
      "ĠChristop": 7558,
      "Ġtraiter": 7559,
      "Ġfixed": 7560,
      "Ġcolline": 7561,
      "Ġpressure": 7562,
      "Ġemmen": 7563,
      "Ġclimat": 7564,
      "Ġtromper": 7565,
      "ĠrÃ©gul": 7566,
      "Ġrumeur": 7567,
      "Ġcontribut": 7568,
      "Ġmignonne": 7569,
      "ĠdonnÃ©es": 7570,
      "Ġinstructions": 7571,
      "Ġponctu": 7572,
      "Angleterre": 7573,
      "Ġexplosion": 7574,
      "Ġgentleman": 7575,
      "Ġtremblement": 7576,
      "ription": 7577,
      "ĠreprÃ©sent": 7578,
      "Ġbeurre": 7579,
      "gs": 7580,
      "iqu": 7581,
      "rance": 7582,
      "ua": 7583,
      "Ġbene": 7584,
      "asure": 7585,
      "Ġvache": 7586,
      "Ġhired": 7587,
      "Ġjume": 7588,
      "Ġrele": 7589,
      "Ġsud": 7590,
      "Ġemerg": 7591,
      "ĠHi": 7592,
      "Ġtrompe": 7593,
      "Ġplants": 7594,
      "ters": 7595,
      "ifiÃ©": 7596,
      "Ġmyster": 7597,
      "ĠdÃ©ce": 7598,
      "Ġprove": 7599,
      "herbe": 7600,
      "Ġverrouill": 7601,
      "law": 7602,
      "onnÃ©e": 7603,
      "Ġfinan": 7604,
      "ĠdÃ©couvrir": 7605,
      "Ġsoule": 7606,
      "Ġchildhood": 7607,
      "Ġcrain": 7608,
      "Ġplanet": 7609,
      "Ġpersonnel": 7610,
      "ĠconfÃ©": 7611,
      "Ġpaying": 7612,
      "ĠParle": 7613,
      "Ġenvoyer": 7614,
      "Ġassise": 7615,
      "armÃ©e": 7616,
      "atoes": 7617,
      "Ġwriter": 7618,
      "Ġslight": 7619,
      "ĠgÃ©nie": 7620,
      "Ġtraveling": 7621,
      "Ġcommunication": 7622,
      "Ġviolent": 7623,
      "Ġromant": 7624,
      "Ġdescend": 7625,
      "ĠapprÃ©cie": 7626,
      "ĠprÃ©vois": 7627,
      "Ġvictim": 7628,
      "Ġdetails": 7629,
      "Ġflying": 7630,
      "ĠsiÃ¨ge": 7631,
      "ĠprofondÃ©ment": 7632,
      "Ġgasp": 7633,
      "board": 7634,
      "ĠJusqu": 7635,
      "Ġpantal": 7636,
      "ĠWorld": 7637,
      "Ġperformance": 7638,
      "phabet": 7639,
      "Ġpoursui": 7640,
      "Allemagne": 7641,
      "Je": 7642,
      "Yes": 7643,
      "eared": 7644,
      "fl": 7645,
      "gth": 7646,
      "Ġ$": 7647,
      "Ġtien": 7648,
      "ĠtirÃ©": 7649,
      "Ġpale": 7650,
      "Ġpush": 7651,
      "Ġsages": 7652,
      "ining": 7653,
      "Ġcerve": 7654,
      "ĠmÃ©l": 7655,
      "ĠnaÃ¯": 7656,
      "Ġfurn": 7657,
      "oms": 7658,
      "asun": 7659,
      "ĠvÃ´tre": 7660,
      "Ġgars": 7661,
      "Ġunable": 7662,
      "otte": 7663,
      "ribe": 7664,
      "ĠList": 7665,
      "Ġbell": 7666,
      "ĠHun": 7667,
      "chons": 7668,
      "Ġhall": 7669,
      "Ġseason": 7670,
      "auc": 7671,
      "Ġtelles": 7672,
      "ĠPendant": 7673,
      "Ġwears": 7674,
      "ĠprÃªtÃ©": 7675,
      "ĠVoyez": 7676,
      "Ġalla": 7677,
      "Ġaveugle": 7678,
      "Ġsable": 7679,
      "ĠLequel": 7680,
      "icial": 7681,
      "Ġcloud": 7682,
      "Ġtoucher": 7683,
      "Ġcheek": 7684,
      "ĠbrisÃ©": 7685,
      "ĠEntre": 7686,
      "Ã©pous": 7687,
      "Ġdiagn": 7688,
      "ĠprivÃ©": 7689,
      "Ġvenez": 7690,
      "ĠdÃ©cida": 7691,
      "ext": 7692,
      "Ġcrack": 7693,
      "Ġsortit": 7694,
      "attention": 7695,
      "Ġpromets": 7696,
      "Ġobs": 7697,
      "Ġdepends": 7698,
      "ĠcoupÃ©": 7699,
      "Ġraise": 7700,
      "Ġdouze": 7701,
      "Ġhurts": 7702,
      "Ġdroits": 7703,
      "Ġbadly": 7704,
      "Ġcinquante": 7705,
      "Ġartiste": 7706,
      "Ġdonnerai": 7707,
      "Ġpolitical": 7708,
      "Ġiron": 7709,
      "Ġbagages": 7710,
      "Ġsouffle": 7711,
      "ĠcachÃ©": 7712,
      "Ġmaths": 7713,
      "ĠrÃ©alisÃ©": 7714,
      "ĠpossibilitÃ©": 7715,
      "Ġcrossed": 7716,
      "Ġdentist": 7717,
      "Ġdentiste": 7718,
      "Ġerr": 7719,
      "uko": 7720,
      "Ġburst": 7721,
      "Ġdancing": 7722,
      "Ġcigarettes": 7723,
      "Ġsupermark": 7724,
      "Ġdiplom": 7725,
      "Ġeconomy": 7726,
      "Ġrejoin": 7727,
      "Ġattractive": 7728,
      "Ġissue": 7729,
      "hematics": 7730,
      "ĠAfrica": 7731,
      "Ġhouses": 7732,
      "You": 7733,
      "huit": 7734,
      "ope": 7735,
      "Ġille": 7736,
      "rely": 7737,
      "Ġpique": 7738,
      "Ġpond": 7739,
      "Ġsain": 7740,
      "isp": 7741,
      "inÃ©e": 7742,
      "Ġcrai": 7743,
      "Ġmiroir": 7744,
      "Ã©b": 7745,
      "Ã©ducation": 7746,
      "itÃ´t": 7747,
      "Ġways": 7748,
      "Ġbow": 7749,
      "asc": 7750,
      "quÃ©es": 7751,
      "arc": 7752,
      "archÃ©": 7753,
      "uste": 7754,
      "eures": 7755,
      "Ġjazz": 7756,
      "Ġreb": 7757,
      "cean": 7758,
      "Ġmec": 7759,
      "Ġeld": 7760,
      "ĠMo": 7761,
      "ĠDÃ¨s": 7762,
      "pper": 7763,
      "ĠPart": 7764,
      "Ġlesson": 7765,
      "nelle": 7766,
      "Ġsombre": 7767,
      "Ġsurveill": 7768,
      "Ġhero": 7769,
      "Ġtab": 7770,
      "onnement": 7771,
      "ĠComm": 7772,
      "ĠRep": 7773,
      "ĠimpliquÃ©": 7774,
      "Ġshoulder": 7775,
      "Ġcaract": 7776,
      "Ġpersonn": 7777,
      "ĠÃ©cras": 7778,
      "Ġvieill": 7779,
      "Ġlovely": 7780,
      "Ġenfance": 7781,
      "Ġtwelve": 7782,
      "ĠsupplÃ©ment": 7783,
      "ĠobÃ©": 7784,
      "ĠmÃ©d": 7785,
      "anced": 7786,
      "Ġlately": 7787,
      "Ġkindness": 7788,
      "Ġinterdit": 7789,
      "Ġinterrupt": 7790,
      "ĠShut": 7791,
      "Ġfroide": 7792,
      "Ġbitter": 7793,
      "Ġconnaissais": 7794,
      "Ġsuivant": 7795,
      "Ġreconnu": 7796,
      "ĠcoÃ»ter": 7797,
      "Ġstronger": 7798,
      "Ġparfaite": 7799,
      "Ġoppos": 7800,
      "ashion": 7801,
      "ĠmÃ©th": 7802,
      "Ġenemies": 7803,
      "Ġridicul": 7804,
      "ĠGrand": 7805,
      "ĠembrassÃ©": 7806,
      "Ġattacked": 7807,
      "ĠdiplÃ´": 7808,
      "Ġconstruction": 7809,
      "ĠBetty": 7810,
      "Ġgradu": 7811,
      "quisition": 7812,
      "Ġbetrayed": 7813,
      "Ġmondiale": 7814,
      "Ġnaissance": 7815,
      "In": 7816,
      "gage": 7817,
      "hib": 7818,
      "ias": 7819,
      "lic": 7820,
      "nant": 7821,
      "Ġug": 7822,
      "Ġpoin": 7823,
      "institut": 7824,
      "Ġcy": 7825,
      "Ġbros": 7826,
      "Ġbrown": 7827,
      "ĠTiens": 7828,
      "ĠhÃ©ros": 7829,
      "arme": 7830,
      "ords": 7831,
      "unte": 7832,
      "estomac": 7833,
      "Ġunif": 7834,
      "Ġunlike": 7835,
      "Ġneck": 7836,
      "Ġenle": 7837,
      "idez": 7838,
      "amps": 7839,
      "ĠÃ©tage": 7840,
      "Ġasse": 7841,
      "ĠVois": 7842,
      "Ġprocess": 7843,
      "essence": 7844,
      "agement": 7845,
      "opin": 7846,
      "Ġupstairs": 7847,
      "Ġnoon": 7848,
      "Ġcode": 7849,
      "Ġesprit": 7850,
      "Ġspends": 7851,
      "Ġpositive": 7852,
      "Ã©ph": 7853,
      "Ġreply": 7854,
      "Ġconfident": 7855,
      "Ġachet": 7856,
      "Ġessaie": 7857,
      "Ġteaches": 7858,
      "Ġprofit": 7859,
      "Ġaimait": 7860,
      "Ġvoyez": 7861,
      "Ġsalade": 7862,
      "ĠmatinÃ©e": 7863,
      "ĠÃ©poque": 7864,
      "ĠintÃ©rÃªt": 7865,
      "Ġcertaines": 7866,
      "ĠdÃ©bat": 7867,
      "ĠÃ¢gÃ©": 7868,
      "ibi": 7869,
      "ĠgÃ©nial": 7870,
      "Ġhighly": 7871,
      "ĠÃ©lÃ¨ve": 7872,
      "ĠdÃ©rou": 7873,
      "ĠTrans": 7874,
      "Ġdisappeared": 7875,
      "ĠSpain": 7876,
      "Ġviendrai": 7877,
      "Ġjeunesse": 7878,
      "Ġtotal": 7879,
      "ĠabandonnÃ©": 7880,
      "ĠmÃ©tro": 7881,
      "Ġkilom": 7882,
      "ĠKabyle": 7883,
      "ĠsiÃ¨cle": 7884,
      "ĠÃ©clat": 7885,
      "ĠquantitÃ©": 7886,
      "Ġcreated": 7887,
      "Ġdoigts": 7888,
      "Ġquartier": 7889,
      "ĠconfectionnÃ©": 7890,
      "Ġresponsibility": 7891,
      "Ġugly": 7892,
      "iants": 7893,
      "iorer": 7894,
      "kay": 7895,
      "lons": 7896,
      "nic": 7897,
      "orent": 7898,
      "rated": 7899,
      "wing": 7900,
      "zi": 7901,
      "oue": 7902,
      "Ġailles": 7903,
      "Ġaper": 7904,
      "Ġpel": 7905,
      "Ġpushed": 7906,
      "ĠlÃ¨vres": 7907,
      "Ġcouvert": 7908,
      "ĠcassÃ©e": 7909,
      "Ġmaig": 7910,
      "ĠmÃªmes": 7911,
      "Ġnap": 7912,
      "Ġwit": 7913,
      "Ġbomb": 7914,
      "Ġbaked": 7915,
      "ators": 7916,
      "eday": 7917,
      "Ġrejet": 7918,
      "ĠLau": 7919,
      "ĠLatin": 7920,
      "ĠSeu": 7921,
      "ĠHum": 7922,
      "Ġdoors": 7923,
      "Ġround": 7924,
      "ĠrÃ´le": 7925,
      "oiff": 7926,
      "ĠPre": 7927,
      "illÃ©e": 7928,
      "avions": 7929,
      "Ġstun": 7930,
      "Ġmyst": 7931,
      "ĠdÃ©jeun": 7932,
      "Ġcong": 7933,
      "ĠBonne": 7934,
      "oins": 7935,
      "ĠcompliquÃ©": 7936,
      "Ġfever": 7937,
      "pris": 7938,
      "prouv": 7939,
      "Ġgoodbye": 7940,
      "Ġadoles": 7941,
      "Ġdirectement": 7942,
      "Ġresign": 7943,
      "aled": 7944,
      "Ġposa": 7945,
      "Ġdiam": 7946,
      "ĠcausÃ©": 7947,
      "Ġconnaisse": 7948,
      "Ġretirer": 7949,
      "Ġsmarter": 7950,
      "Ġoldest": 7951,
      "Ġproperly": 7952,
      "Ġeuros": 7953,
      "ĠpoÃ¨te": 7954,
      "Ġremark": 7955,
      "Ġunderstanding": 7956,
      "Ġdepend": 7957,
      "Ġboard": 7958,
      "Ġhurried": 7959,
      "ĠRemember": 7960,
      "Ġhabitude": 7961,
      "Ġhumeur": 7962,
      "Ġhumaine": 7963,
      "Ġskier": 7964,
      "Ġmerveille": 7965,
      "ology": 7966,
      "Ġcentury": 7967,
      "Ġclasses": 7968,
      "ĠutilisÃ©": 7969,
      "Ġdinosau": 7970,
      "Ġtyph": 7971,
      "ĠÃ©tudiante": 7972,
      "Ã¯s": 7973,
      "Ġsociety": 7974,
      "Ġtrusted": 7975,
      "uyer": 7976,
      "Ġvalu": 7977,
      "occupe": 7978,
      "Ġthird": 7979,
      "Ġtotalement": 7980,
      "ĠimpressionnÃ©": 7981,
      "ĠdÃ©licieux": 7982,
      "Ġrobot": 7983,
      "Ġtimbres": 7984,
      "Ġbathroom": 7985,
      "Ġpronoun": 7986,
      "Ġadmitted": 7987,
      "Ġsmells": 7988,
      "Ġconcerned": 7989,
      "ĠÃ©chec": 7990,
      "ĠWithout": 7991,
      "Ġtendance": 7992,
      "ĠâĢĵ": 7993,
      "Ġburned": 7994,
      "Ġfifteen": 7995,
      "Ġjumped": 7996,
      "ĠsupermarchÃ©": 7997,
      "Ġcrowd": 7998,
      "Ġbecoming": 7999,
      "Ġrecommend": 8000,
      "Ġanxious": 8001,
      "ĠGeorge": 8002,
      "Ġdisponible": 8003,
      "Ġstrength": 8004,
      "Ġsafety": 8005,
      "Ġemergency": 8006,
      "Ġsupermarket": 8007,
      "Do": 8008,
      "hi": 8009,
      "ov": 8010,
      "Ġtante": 8011,
      "Ġsons": 8012,
      "Ġsoixante": 8013,
      "eness": 8014,
      "Ġlut": 8015,
      "erm": 8016,
      "ĠmÃ©c": 8017,
      "Ġbanc": 8018,
      "ĠTan": 8019,
      "Ġhoney": 8020,
      "Ġquarante": 8021,
      "aiment": 8022,
      "Ġunc": 8023,
      "Ġneare": 8024,
      "Ġjoie": 8025,
      "rimÃ©": 8026,
      "Ġrese": 8027,
      "ĠCal": 8028,
      "ĠSors": 8029,
      "ĠSortez": 8030,
      "ĠchÃ¢": 8031,
      "ico": 8032,
      "Ġtexte": 8033,
      "ĠPal": 8034,
      "ĠPortu": 8035,
      "illon": 8036,
      "acquisition": 8037,
      "Ġjeans": 8038,
      "Ġstories": 8039,
      "anged": 8040,
      "allow": 8041,
      "Ġmonn": 8042,
      "nown": 8043,
      "Ã©cris": 8044,
      "ĠFaire": 8045,
      "Ġmanaged": 8046,
      "Ġrenv": 8047,
      "assa": 8048,
      "Ġcontro": 8049,
      "ckets": 8050,
      "Ġsheep": 8051,
      "Ġpred": 8052,
      "Ġattir": 8053,
      "Ġeverywhere": 8054,
      "udes": 8055,
      "Ġcroient": 8056,
      "ĠaccusÃ©": 8057,
      "Ġdiary": 8058,
      "ĠmontÃ©": 8059,
      "Ġterms": 8060,
      "ĠidÃ©": 8061,
      "Ġsimply": 8062,
      "ussitÃ´t": 8063,
      "Ġdiscut": 8064,
      "Ġvivons": 8065,
      "Ġvolunte": 8066,
      "loge": 8067,
      "Ġphotograph": 8068,
      "ĠprÃ©sence": 8069,
      "Ġsalad": 8070,
      "utiliser": 8071,
      "ologie": 8072,
      "ĠdÃ©brouill": 8073,
      "Ġvoudriez": 8074,
      "Ġfalling": 8075,
      "Ġreality": 8076,
      "ĠAmÃ©ric": 8077,
      "apprÃ©cier": 8078,
      "Ġ197": 8079,
      "Ġspending": 8080,
      "Ġsurvive": 8081,
      "Ġcirc": 8082,
      "Ġtask": 8083,
      "ĠrÃ©pondit": 8084,
      "Ġpieces": 8085,
      "Ġscientifiques": 8086,
      "Ġrequest": 8087,
      "Ġmembre": 8088,
      "Ġparticular": 8089,
      "Ġprotest": 8090,
      "ennemi": 8091,
      "Ġemploye": 8092,
      "Ġgeneral": 8093,
      "Ġcroyais": 8094,
      "Ġcurious": 8095,
      "Ġclouds": 8096,
      "ĠFranÃ§ais": 8097,
      "ĠsupÃ©ri": 8098,
      "Ġnaive": 8099,
      "Ġnearest": 8100,
      "aments": 8101,
      "mans": 8102,
      "oit": 8103,
      "oÃ»t": 8104,
      "Ġi": 8105,
      "Ġdra": 8106,
      "Ġcaisse": 8107,
      "Ġnamed": 8108,
      "Ġben": 8109,
      "ller": 8110,
      "Ġvul": 8111,
      "Ġhated": 8112,
      "Ġhug": 8113,
      "aring": 8114,
      "Ġyouth": 8115,
      "Ġjoking": 8116,
      "Ġjokes": 8117,
      "rices": 8118,
      "ĠleÃ§on": 8119,
      "Ġinutile": 8120,
      "oires": 8121,
      "igÃ©": 8122,
      "endroit": 8123,
      "Ġstairs": 8124,
      "uez": 8125,
      "Ġdesper": 8126,
      "ĠallÃ©es": 8127,
      "enseur": 8128,
      "Ã©conomie": 8129,
      "Ġaltern": 8130,
      "Ġdevais": 8131,
      "Ġpartager": 8132,
      "Ġapply": 8133,
      "Ġcheer": 8134,
      "assit": 8135,
      "Ġcontient": 8136,
      "Ġbrain": 8137,
      "Ġblow": 8138,
      "Ġvoc": 8139,
      "Ġintend": 8140,
      "ĠIsra": 8141,
      "Ġprices": 8142,
      "ĠChois": 8143,
      "Ġfautes": 8144,
      "Ġsupporte": 8145,
      "Ġscrew": 8146,
      "ĠsÃ»res": 8147,
      "Ġremained": 8148,
      "ĠdÃ©pensÃ©": 8149,
      "ĠrencontrÃ©e": 8150,
      "Ġraisons": 8151,
      "Ġrefaire": 8152,
      "Ġaffair": 8153,
      "Ġanswers": 8154,
      "ĠfatiguÃ©s": 8155,
      "ĠsauvÃ©": 8156,
      "Ġdreamed": 8157,
      "Ġpolitics": 8158,
      "ĠdÃ©fin": 8159,
      "Ġvalue": 8160,
      "Ġviolon": 8161,
      "Ġappropri": 8162,
      "Ġstreets": 8163,
      "ĠnÃ©gl": 8164,
      "Ġrarely": 8165,
      "Ġpoulet": 8166,
      "Ġcitiz": 8167,
      "Ġrempli": 8168,
      "stitution": 8169,
      "ĠItalie": 8170,
      "Ġtalented": 8171,
      "Ġlocal": 8172,
      "Ġpossibility": 8173,
      "Ġmoderne": 8174,
      "envoyer": 8175,
      "Ġwoods": 8176,
      "Ġmodel": 8177,
      "Ġennemis": 8178,
      "Ġneighborhood": 8179,
      "ĠdifficultÃ©": 8180,
      "Ġfabri": 8181,
      "Ġcastle": 8182,
      "ĠUSA": 8183,
      "Ġdrugs": 8184,
      "Ġphilosop": 8185,
      "ĠrÃ©solu": 8186,
      "ĠCroyez": 8187,
      "Ġgentillesse": 8188,
      "ĠcÃ©libataire": 8189,
      "ĠchÃ¢teau": 8190,
      "The": 8191,
      "allez": 8192,
      "ems": 8193,
      "gent": 8194,
      "gnÃ©": 8195,
      "mar": 8196,
      "nÃ©s": 8197,
      "zed": 8198,
      "Ġaunt": 8199,
      "Ġdor": 8200,
      "Ġpist": 8201,
      "Ġpige": 8202,
      "itter": 8203,
      "Ġfought": 8204,
      "Ġbond": 8205,
      "asons": 8206,
      "ouss": 8207,
      "Ġund": 8208,
      "oted": 8209,
      "Ġjui": 8210,
      "roid": 8211,
      "ĠSit": 8212,
      "ĠSch": 8213,
      "ĠMen": 8214,
      "ĠEat": 8215,
      "Ġplate": 8216,
      "amÃ©l": 8217,
      "oile": 8218,
      "osse": 8219,
      "Ġprince": 8220,
      "Ġprojets": 8221,
      "Ġknowing": 8222,
      "Ġsauter": 8223,
      "Ġarch": 8224,
      "ĠÃªtres": 8225,
      "indiquer": 8226,
      "cially": 8227,
      "Ġpartage": 8228,
      "Ġdish": 8229,
      "ival": 8230,
      "Ġpercent": 8231,
      "Ġvole": 8232,
      "Ġmater": 8233,
      "Ġcaf": 8234,
      "Ġcourrier": 8235,
      "Ġjouait": 8236,
      "Ġvues": 8237,
      "Ġrepair": 8238,
      "Ġincomp": 8239,
      "Ġmoral": 8240,
      "Ġacted": 8241,
      "Ġconvince": 8242,
      "Ġvoudrait": 8243,
      "Ġsyn": 8244,
      "Ġcopy": 8245,
      "Ġespagnol": 8246,
      "Ġhandsome": 8247,
      "Ġsemblent": 8248,
      "ĠtraitÃ©": 8249,
      "Ġouvrit": 8250,
      "ĠAttention": 8251,
      "ĠSundays": 8252,
      "Ġcritique": 8253,
      "ĠdÃ©lic": 8254,
      "Ġmountains": 8255,
      "Ġgunsh": 8256,
      "Ġignorance": 8257,
      "Ġborrowed": 8258,
      "Ġrumor": 8259,
      "ĠmÃ©dicaments": 8260,
      "Ġapplication": 8261,
      "Ġassistance": 8262,
      "Ġmeurtre": 8263,
      "ĠrÃ©vÃ©l": 8264,
      "embrasser": 8265,
      "Ġbaiser": 8266,
      "Ġunhappy": 8267,
      "Ġairplane": 8268,
      "ĠkilomÃ¨tres": 8269,
      "cast": 8270,
      "lim": 8271,
      "pendant": 8272,
      "ru": 8273,
      "wise": 8274,
      "yond": 8275,
      "Ġivre": 8276,
      "Ġtir": 8277,
      "Ġtente": 8278,
      "Ġaffe": 8279,
      "Ġdy": 8280,
      "Ġpity": 8281,
      "Ġpneu": 8282,
      "Ġsaint": 8283,
      "Ġlux": 8284,
      "Ġmaire": 8285,
      "ĠmÃ¨tres": 8286,
      "Ġfreedom": 8287,
      "Ġdece": 8288,
      "Ġvague": 8289,
      "Ġhes": 8290,
      "arrow": 8291,
      "Ġyens": 8292,
      "Ġgonna": 8293,
      "Ġthick": 8294,
      "Ġunf": 8295,
      "oti": 8296,
      "Ġlevel": 8297,
      "Ġbeyond": 8298,
      "ĠHÃ©": 8299,
      "Ġchall": 8300,
      "Ġdocu": 8301,
      "Ġheight": 8302,
      "verage": 8303,
      "ĠDu": 8304,
      "ĠPÃ¨re": 8305,
      "igine": 8306,
      "uels": 8307,
      "ĠdÃ©te": 8308,
      "Ġproxim": 8309,
      "ĠQuit": 8310,
      "Ġdumb": 8311,
      "onges": 8312,
      "Ġcomputers": 8313,
      "bler": 8314,
      "auteur": 8315,
      "Ġcoff": 8316,
      "assurer": 8317,
      "venus": 8318,
      "ĠRob": 8319,
      "ĠRÃ©p": 8320,
      "Ã©rateur": 8321,
      "Ġpeindre": 8322,
      "Ġarrivent": 8323,
      "Ġexpression": 8324,
      "Ġcommis": 8325,
      "Ġrestes": 8326,
      "ĠrestÃ©e": 8327,
      "Ġprior": 8328,
      "rÃ©h": 8329,
      "Ġsmaller": 8330,
      "Ġparess": 8331,
      "Ġminuit": 8332,
      "Ġremis": 8333,
      "Ġfriendship": 8334,
      "Ġassass": 8335,
      "Ġassister": 8336,
      "Ġvivait": 8337,
      "Ġdoux": 8338,
      "Ġfuri": 8339,
      "Ġbegins": 8340,
      "Ġgenius": 8341,
      "Ġconsequ": 8342,
      "Ġindisp": 8343,
      "Ġadvance": 8344,
      "Ġrouges": 8345,
      "Ġfallen": 8346,
      "ĠintÃ©ressÃ©e": 8347,
      "Ġadmire": 8348,
      "ĠÃ©loi": 8349,
      "Ġsacrif": 8350,
      "ĠfumÃ©e": 8351,
      "Ġtraite": 8352,
      "ĠÃ©viter": 8353,
      "Ġproduct": 8354,
      "ĠEuropean": 8355,
      "Ġparcour": 8356,
      "Ġcities": 8357,
      "ĠconsidÃ¨re": 8358,
      "Ġvirus": 8359,
      "Ġdefinite": 8360,
      "human": 8361,
      "Ġlogique": 8362,
      "ĠâĢĶ": 8363,
      "Ġinquiet": 8364,
      "Ġajouter": 8365,
      "ĠFew": 8366,
      "ĠamÃ©lior": 8367,
      "Ġmalheureux": 8368,
      "ĠSpeak": 8369,
      "Ġpareille": 8370,
      "Ġsquirrel": 8371,
      "ĠcontrÃ´ler": 8372,
      "Ġdingue": 8373,
      "Ġdelighted": 8374,
      "ĠconfÃ©rence": 8375,
      "ĠListen": 8376,
      "Ã©pouser": 8377,
      "Ġresearch": 8378,
      "Ġdocuments": 8379,
      "How": 8380,
      "known": 8381,
      "lor": 8382,
      "nique": 8383,
      "rud": 8384,
      "uves": 8385,
      "uary": 8386,
      "ville": 8387,
      "yg": 8388,
      "Ġaid": 8389,
      "reen": 8390,
      "Ġdai": 8391,
      "Ġlois": 8392,
      "erland": 8393,
      "Ġcoun": 8394,
      "ĠcÃ´t": 8395,
      "Ġmos": 8396,
      "Ã©an": 8397,
      "anes": 8398,
      "Ġwild": 8399,
      "Ġbark": 8400,
      "ĠvÃ©g": 8401,
      "Ġhi": 8402,
      "order": 8403,
      "usÃ©e": 8404,
      "otÃ©": 8405,
      "lley": 8406,
      "ĠLui": 8407,
      "Ã¨nes": 8408,
      "ĠSuch": 8409,
      "Ġenreg": 8410,
      "chau": 8411,
      "ĠMil": 8412,
      "ĠrÃ©t": 8413,
      "ĠAllemagne": 8414,
      "ageux": 8415,
      "agnes": 8416,
      "ĠPrÃ©": 8417,
      "ĠPierre": 8418,
      "Ġstamps": 8419,
      "aired": 8420,
      "Ġproof": 8421,
      "oreille": 8422,
      "apt": 8423,
      "Ġsaut": 8424,
      "icient": 8425,
      "Ġdisag": 8426,
      "Ġgrav": 8427,
      "Ġclas": 8428,
      "Ġtough": 8429,
      "appel": 8430,
      "ĠcoÃ¯": 8431,
      "Ġenth": 8432,
      "Ġimpress": 8433,
      "Ġadul": 8434,
      "Ġspir": 8435,
      "issons": 8436,
      "issage": 8437,
      "Ġvieilles": 8438,
      "Ġliter": 8439,
      "Ã©poque": 8440,
      "Ġdiable": 8441,
      "though": 8442,
      "Ġsentit": 8443,
      "Ġsentez": 8444,
      "Ġcares": 8445,
      "Ġretired": 8446,
      "Ġconfront": 8447,
      "Ġcareless": 8448,
      "Ġglac": 8449,
      "ĠÃ©tudes": 8450,
      "Ġdepressed": 8451,
      "athol": 8452,
      "Ġinsurance": 8453,
      "Ġdrove": 8454,
      "Ġkinds": 8455,
      "Ġfaill": 8456,
      "Ġabsur": 8457,
      "Ġgrosses": 8458,
      "ĠMayuko": 8459,
      "Ġcenter": 8460,
      "Ġarticles": 8461,
      "Ġutilise": 8462,
      "Ġblesser": 8463,
      "Ġhistor": 8464,
      "Ġbattle": 8465,
      "Ġimaginer": 8466,
      "Ġpapa": 8467,
      "Ġposter": 8468,
      "Ġrecevoir": 8469,
      "ĠDesc": 8470,
      "Ġcleaned": 8471,
      "Ġchevaux": 8472,
      "Ġfacts": 8473,
      "aimais": 8474,
      "Ġhauteur": 8475,
      "Ġsuggested": 8476,
      "Ġexistence": 8477,
      "ĠrÃ©aliser": 8478,
      "Ġambit": 8479,
      "Ġstaring": 8480,
      "ĠracontÃ©": 8481,
      "ĠMontrez": 8482,
      "Ġdeeply": 8483,
      "Ġ40": 8484,
      "Ġennemi": 8485,
      "Ġembarrassed": 8486,
      "Ġattentivement": 8487,
      "Ġlourd": 8488,
      "Ã©checs": 8489,
      "Ġindustry": 8490,
      "ĠdÃ©pourvu": 8491,
      "Ġdetermin": 8492,
      "Ġfrightened": 8493,
      "Ġdestroyed": 8494,
      "Ġquotidienne": 8495,
      "Ġfaudra": 8496,
      "Ġillegal": 8497,
      "look": 8498,
      "och": 8499,
      "oved": 8500,
      "pre": 8501,
      "rate": 8502,
      "rine": 8503,
      "va": 8504,
      "vre": 8505,
      "Ġtun": 8506,
      "Ġaill": 8507,
      "Ġdict": 8508,
      "Ġdating": 8509,
      "Ġpier": 8510,
      "Ġsne": 8511,
      "Ġsors": 8512,
      "Ġsilly": 8513,
      "Ġled": 8514,
      "isez": 8515,
      "Ġcage": 8516,
      "Ġcult": 8517,
      "Ġmouve": 8518,
      "ĠmÃ©tÃ©": 8519,
      "Ã©lect": 8520,
      "Ġdeli": 8521,
      "Ġtheater": 8522,
      "Ġgout": 8523,
      "Ġgorge": 8524,
      "etÃ©": 8525,
      "rich": 8526,
      "ĠCoupe": 8527,
      "ĠLune": 8528,
      "ĠSus": 8529,
      "ĠWomen": 8530,
      "Ġtruly": 8531,
      "ĠMt": 8532,
      "ĠMad": 8533,
      "Ġchand": 8534,
      "Ġrug": 8535,
      "Ġseats": 8536,
      "Ġlig": 8537,
      "Ġforty": 8538,
      "ĠPasse": 8539,
      "ĠPrÃ©s": 8540,
      "ender": 8541,
      "ĠÃ©tant": 8542,
      "angez": 8543,
      "Ġatom": 8544,
      "Ġcanad": 8545,
      "ctor": 8546,
      "Ġshout": 8547,
      "ulance": 8548,
      "Ġamen": 8549,
      "osex": 8550,
      "Ġcomprenez": 8551,
      "Ġmanif": 8552,
      "icip": 8553,
      "Ġcloser": 8554,
      "Ġcontain": 8555,
      "Ġparlons": 8556,
      "Ġprepar": 8557,
      "Ġspell": 8558,
      "obe": 8559,
      "Ġoffert": 8560,
      "Ġoffended": 8561,
      "ĠmatiÃ¨re": 8562,
      "ference": 8563,
      "aimez": 8564,
      "Ġrights": 8565,
      "Ġsentait": 8566,
      "Ġconsists": 8567,
      "Ġterme": 8568,
      "Ġpoches": 8569,
      "Ġcraint": 8570,
      "Ġinvite": 8571,
      "lia": 8572,
      "Ġincome": 8573,
      "Ġmotiv": 8574,
      "espagnol": 8575,
      "Ġenvoy": 8576,
      "Ġsensible": 8577,
      "Ġcouleurs": 8578,
      "Ġbegun": 8579,
      "Ġinterview": 8580,
      "Ġdifficiles": 8581,
      "Ġskill": 8582,
      "Ġrained": 8583,
      "ĠportÃ©": 8584,
      "Ġcontrari": 8585,
      "ĠfiÃ¨vre": 8586,
      "Ġrisques": 8587,
      "Ġsteak": 8588,
      "ĠsuggÃ¨re": 8589,
      "ĠsÃ»rement": 8590,
      "Ġsettle": 8591,
      "Ġclimbed": 8592,
      "Ġdebt": 8593,
      "Ġatteindre": 8594,
      "ĠenseignÃ©": 8595,
      "ĠÃ©trangÃ¨res": 8596,
      "Ġappeared": 8597,
      "Ġmanges": 8598,
      "Ġkilos": 8599,
      "shirt": 8600,
      "Ġelected": 8601,
      "ĠKabylie": 8602,
      "ruption": 8603,
      "Ġcapitaine": 8604,
      "Ġparticiper": 8605,
      "Ġdanced": 8606,
      "imagine": 8607,
      "Ġfifty": 8608,
      "Ġintroduced": 8609,
      "Ġquality": 8610,
      "ĠeffrayÃ©": 8611,
      "ĠColomb": 8612,
      "Ġmeurt": 8613,
      "Ġclients": 8614,
      "Ġwebsite": 8615,
      "Ġbenef": 8616,
      "Ġpantalon": 8617,
      "Ġfurniture": 8618,
      "ĠmÃ©thode": 8619,
      "Ġmonnaie": 8620,
      "Ġparesseux": 8621,
      "ĠvÃ©gÃ©t": 8622,
      "bers": 8623,
      "fa": 8624,
      "nait": 8625,
      "oe": 8626,
      "word": 8627,
      "Ġign": 8628,
      "Ġtal": 8629,
      "reuses": 8630,
      "Ġpir": 8631,
      "ona": 8632,
      "itate": 8633,
      "Ġnord": 8634,
      "Ġnoire": 8635,
      "Ġbab": 8636,
      "Ġbud": 8637,
      "ĠThing": 8638,
      "Ġdeaf": 8639,
      "Ġvom": 8640,
      "Ġhost": 8641,
      "Ġtool": 8642,
      "entraÃ®": 8643,
      "Ġgarer": 8644,
      "aison": 8645,
      "otions": 8646,
      "Ġmeals": 8647,
      "ima": 8648,
      "alog": 8649,
      "ĠtraÃ®": 8650,
      "Ġracc": 8651,
      "Ġonline": 8652,
      "Ġplaint": 8653,
      "Ġplastique": 8654,
      "Ġparie": 8655,
      "Ġtels": 8656,
      "Ġformer": 8657,
      "ada": 8658,
      "ĠPap": 8659,
      "Ġdeser": 8660,
      "oli": 8661,
      "ctes": 8662,
      "apers": 8663,
      "Ġhistoi": 8664,
      "Ã©cl": 8665,
      "Ġabe": 8666,
      "Ġalarm": 8667,
      "ĠWhite": 8668,
      "Ġverrai": 8669,
      "autor": 8670,
      "Ġgrab": 8671,
      "ĠgrÃ¢ce": 8672,
      "Ġentra": 8673,
      "Ġgoods": 8674,
      "Ġbrouill": 8675,
      "Ġattrib": 8676,
      "Ġblank": 8677,
      "ĠexpliquÃ©": 8678,
      "Ġgotta": 8679,
      "ĠlittÃ©": 8680,
      "Ġpian": 8681,
      "Ġconsul": 8682,
      "ĠconsidÃ©": 8683,
      "Ġcourriel": 8684,
      "ĠcrÃ¨me": 8685,
      "okk": 8686,
      "Ġcorp": 8687,
      "Ġinconn": 8688,
      "ĠdÃ©tendre": 8689,
      "Ġdepart": 8690,
      "Ġjobs": 8691,
      "ĠlaissÃ©e": 8692,
      "Ġlaisserai": 8693,
      "Ġtrouves": 8694,
      "Ġcouch": 8695,
      "Ġcoupe": 8696,
      "Ġcaptu": 8697,
      "Ġcaptain": 8698,
      "Ġconcerne": 8699,
      "Ġtravaillent": 8700,
      "Ġbouger": 8701,
      "ĠBefore": 8702,
      "Ġturns": 8703,
      "Ġcomplained": 8704,
      "Ġresterai": 8705,
      "Ġrelative": 8706,
      "Ġhung": 8707,
      "Ġrespond": 8708,
      "Ġpicnic": 8709,
      "Ġtraduit": 8710,
      "Ġpermett": 8711,
      "Ġstands": 8712,
      "Ġadmis": 8713,
      "Ġcomplet": 8714,
      "Ġsitue": 8715,
      "ĠterminÃ©e": 8716,
      "Ġbattu": 8717,
      "ĠAppelez": 8718,
      "Ġpostp": 8719,
      "Ġtraitement": 8720,
      "Ġpunctual": 8721,
      "ĠcontinuÃ©": 8722,
      "Ġcadeaux": 8723,
      "Ġjoli": 8724,
      "Ġcitoy": 8725,
      "Ġthanks": 8726,
      "Ġprennent": 8727,
      "Ġdirecteur": 8728,
      "ĠsÃ©rieuse": 8729,
      "Ġsquare": 8730,
      "ĠGardez": 8731,
      "Ġconstamment": 8732,
      "ĠPerhaps": 8733,
      "ophie": 8734,
      "Ġhoping": 8735,
      "Ġentirely": 8736,
      "Ġpilot": 8737,
      "Ġbecomes": 8738,
      "ĠAimeriez": 8739,
      "ĠdÃ©mÃ©nagÃ©": 8740,
      "Ġindep": 8741,
      "Ġnegoti": 8742,
      "ĠÃ©crivain": 8743,
      "ĠdÃ©fauts": 8744,
      "ĠalgÃ©riens": 8745,
      "ĠmÃ©decins": 8746,
      "Ġescaliers": 8747,
      "Ġmidnight": 8748,
      "Ġfavourite": 8749,
      "Ġcerveau": 8750,
      "ĠproximitÃ©": 8751,
      "ĠThings": 8752,
      "Ġhistoires": 8753,
      "eus": 8754,
      "hu": 8755,
      "lique": 8756,
      "mos": 8757,
      "vÃ©s": 8758,
      "Ġsir": 8759,
      "Ġsink": 8760,
      "onf": 8761,
      "erk": 8762,
      "Ġcoiff": 8763,
      "Ġmonsieur": 8764,
      "iteur": 8765,
      "Ġnations": 8766,
      "Ġnarrow": 8767,
      "Ġfest": 8768,
      "Ġwide": 8769,
      "Ġbol": 8770,
      "Ġbale": 8771,
      "asing": 8772,
      "ĠTen": 8773,
      "atoire": 8774,
      "Ġdefe": 8775,
      "ĠgÃª": 8776,
      "ottes": 8777,
      "Ġlad": 8778,
      "Ġindi": 8779,
      "imm": 8780,
      "imate": 8781,
      "ĠHand": 8782,
      "ĠHappy": 8783,
      "Ġrough": 8784,
      "Ġrail": 8785,
      "Ġrues": 8786,
      "urity": 8787,
      "Ġauquel": 8788,
      "ĠdÃ©ro": 8789,
      "oler": 8790,
      "ortable": 8791,
      "Ġarmes": 8792,
      "ĠBir": 8793,
      "itement": 8794,
      "Ġmanqu": 8795,
      "Ġmanip": 8796,
      "ĠmaniÃ¨res": 8797,
      "Ġparts": 8798,
      "autom": 8799,
      "onnez": 8800,
      "article": 8801,
      "Ġdemie": 8802,
      "Ġroy": 8803,
      "Ġbruy": 8804,
      "Ġperdit": 8805,
      "Ġshelf": 8806,
      "Ġblonde": 8807,
      "onnable": 8808,
      "Ġintent": 8809,
      "Ã©pend": 8810,
      "Ġdiz": 8811,
      "Ġvisa": 8812,
      "Ġvision": 8813,
      "Ġretire": 8814,
      "Ġjoues": 8815,
      "ĠrÃ©pand": 8816,
      "ĠinvitÃ©e": 8817,
      "Ġconfond": 8818,
      "Ġsortes": 8819,
      "Ġremains": 8820,
      "Ġinclud": 8821,
      "Ġputting": 8822,
      "Ġpromesses": 8823,
      "ĠAnn": 8824,
      "Ġcoups": 8825,
      "Ġtrouvent": 8826,
      "Ġcoul": 8827,
      "ĠoccupÃ©es": 8828,
      "Ġtransm": 8829,
      "Ġannoun": 8830,
      "Ġrelie": 8831,
      "Ġcamar": 8832,
      "Ġmenu": 8833,
      "Ġwrites": 8834,
      "Ġdollar": 8835,
      "Ġroug": 8836,
      "Ġblessure": 8837,
      "incendie": 8838,
      "Ġbague": 8839,
      "Ġrub": 8840,
      "Ġbataille": 8841,
      "Ġdrives": 8842,
      "ĠillÃ©g": 8843,
      "Ġ198": 8844,
      "Ġsweat": 8845,
      "Ġbleue": 8846,
      "ĠapprÃ©cier": 8847,
      "cule": 8848,
      "Ġproducts": 8849,
      "Ġsympt": 8850,
      "Ġvirtu": 8851,
      "ĠrÃ©gion": 8852,
      "Ġmensonges": 8853,
      "Ġevidence": 8854,
      "Ġdisposons": 8855,
      "Ġfaults": 8856,
      "ĠPlusieurs": 8857,
      "ĠemployÃ©s": 8858,
      "Ġprincipal": 8859,
      "Ġrecognized": 8860,
      "Ġlogic": 8861,
      "Ġhomosex": 8862,
      "Ġfluently": 8863,
      "Ġinternational": 8864,
      "Ġfingers": 8865,
      "Ġlatin": 8866,
      "ĠFermez": 8867,
      "ĠprÃ©tend": 8868,
      "Ġleva": 8869,
      "Ġcercle": 8870,
      "Ġapparence": 8871,
      "ĠpÃ©riode": 8872,
      "Ġaudience": 8873,
      "Ġmicro": 8874,
      "ĠcapacitÃ©": 8875,
      "ĠcoÃ¯n": 8876,
      "bor": 8877,
      "iest": 8878,
      "Ġtaux": 8879,
      "Ġtip": 8880,
      "Ġpression": 8881,
      "ĠlÃ©ger": 8882,
      "isions": 8883,
      "Ġmous": 8884,
      "Ġmettez": 8885,
      "Ġfog": 8886,
      "Ġbound": 8887,
      "Ġvari": 8888,
      "Ġhire": 8889,
      "ĠhÃ©r": 8890,
      "Ġhole": 8891,
      "ormer": 8892,
      "Ġremb": 8893,
      "Ġreli": 8894,
      "ilities": 8895,
      "ĠCeux": 8896,
      "Ã¨ter": 8897,
      "ĠHokk": 8898,
      "Ġtrous": 8899,
      "ĠMiss": 8900,
      "Ġrand": 8901,
      "Ġsees": 8902,
      "ĠplantÃ©": 8903,
      "Ġparvenir": 8904,
      "Ġceinture": 8905,
      "oos": 8906,
      "Ġsoyons": 8907,
      "Ġprouver": 8908,
      "olÃ©e": 8909,
      "Ġalliez": 8910,
      "ĠgoÃ»": 8911,
      "Ġsaches": 8912,
      "Ġrig": 8913,
      "aved": 8914,
      "Ġpartit": 8915,
      "Ġdises": 8916,
      "enseigne": 8917,
      "ĠtouchÃ©": 8918,
      "Ġrenvers": 8919,
      "Ġcheated": 8920,
      "Ã®le": 8921,
      "ĠRuss": 8922,
      "Ġperds": 8923,
      "Ġsaison": 8924,
      "ĠEnv": 8925,
      "ĠChoose": 8926,
      "Ġpolici": 8927,
      "ĠQuelques": 8928,
      "ĠprÃ©nom": 8929,
      "Ġscar": 8930,
      "ocÃ©an": 8931,
      "Ġhanded": 8932,
      "Ġunderstands": 8933,
      "ĠAngleterre": 8934,
      "Ġtrouva": 8935,
      "Ġcondam": 8936,
      "Ġinsul": 8937,
      "ĠrÃ©sister": 8938,
      "Ġcolon": 8939,
      "ĠprÃ©fÃ¨res": 8940,
      "Ġsolved": 8941,
      "Ġeffet": 8942,
      "Ġmission": 8943,
      "Ġrendent": 8944,
      "Ġtemple": 8945,
      "Ġordres": 8946,
      "ĠrÃªvÃ©": 8947,
      "Ġsuffering": 8948,
      "ĠtraversÃ©": 8949,
      "Ġdessin": 8950,
      "Ġarriva": 8951,
      "Ġnaturel": 8952,
      "Ġ199": 8953,
      "ĠrÃ©frig": 8954,
      "Ġcleaning": 8955,
      "Ġclimate": 8956,
      "Ġfrapper": 8957,
      "Ġabandoned": 8958,
      "Ġselling": 8959,
      "Ġelection": 8960,
      "Ġleader": 8961,
      "ĠtÃ©lÃ©phonÃ©": 8962,
      "Ġgratuite": 8963,
      "Ġinvented": 8964,
      "ĠÃ©lectron": 8965,
      "Ġtoilettes": 8966,
      "Ġrichesse": 8967,
      "Ġlouer": 8968,
      "Ġscreaming": 8969,
      "parents": 8970,
      "Ġpollution": 8971,
      "Ġobviously": 8972,
      "Ġdistinguer": 8973,
      "Ġknock": 8974,
      "Ġ2013": 8975,
      "Ġdegrees": 8976,
      "Ġrejoindre": 8977,
      "Ġwitness": 8978,
      "Ġjuice": 8979,
      "Ġchallen": 8980,
      "Ġcoffre": 8981,
      "humanitÃ©": 8982,
      "Ġdaily": 8983,
      "ĠcÃ´tÃ©s": 8984,
      "nam": 8985,
      "round": 8986,
      "uries": 8987,
      "vard": 8988,
      "Ġdata": 8989,
      "Ġsail": 8990,
      "ĠsÃ©v": 8991,
      "itif": 8992,
      "Ġfashion": 8993,
      "ombe": 8994,
      "quette": 8995,
      "ailles": 8996,
      "Ġgel": 8997,
      "Ġgate": 8998,
      "ĠCle": 8999,
      "ĠCons": 9000,
      "ĠSer": 9001,
      "Ġbeard": 9002,
      "Ġtrack": 9003,
      "Ġrater": 9004,
      "ĠAg": 9005,
      "ĠAsi": 9006,
      "ieuses": 9007,
      "Ġital": 9008,
      "onses": 9009,
      "Ġdesign": 9010,
      "Ġprat": 9011,
      "Ġconce": 9012,
      "Ġsomeday": 9013,
      "ĠOu": 9014,
      "ĠThree": 9015,
      "itez": 9016,
      "ateful": 9017,
      "Ġusage": 9018,
      "Ġuseless": 9019,
      "autÃ©": 9020,
      "enseigner": 9021,
      "iving": 9022,
      "Ã§ait": 9023,
      "Ġcarp": 9024,
      "Ġperman": 9025,
      "ignit": 9026,
      "Ġhelps": 9027,
      "Ġpasses": 9028,
      "Ġpassagers": 9029,
      "Ġspl": 9030,
      "issante": 9031,
      "Ġarrives": 9032,
      "ĠvoilÃł": 9033,
      "aido": 9034,
      "Ġwhenever": 9035,
      "Ġferions": 9036,
      "Åĵuf": 9037,
      "Ġsentis": 9038,
      "Ġconnait": 9039,
      "Ġconnue": 9040,
      "Ġflag": 9041,
      "Ġguard": 9042,
      "Ġpulled": 9043,
      "ĠrÃ©ponses": 9044,
      "Ġrecent": 9045,
      "Ġ17": 9046,
      "Ġpockets": 9047,
      "existe": 9048,
      "Ġcris": 9049,
      "Ġplanned": 9050,
      "liquÃ©e": 9051,
      "Ġincor": 9052,
      "Ġmoteur": 9053,
      "Ġaimons": 9054,
      "Ġfacture": 9055,
      "sembles": 9056,
      "Ġdoctors": 9057,
      "Ġeffic": 9058,
      "Ġnourrir": 9059,
      "Ġtempor": 9060,
      "ĠchantÃ©": 9061,
      "Ġretourne": 9062,
      "ricitÃ©": 9063,
      "intÃ©rÃªt": 9064,
      "ĠrÃ©col": 9065,
      "ĠrÃ©cup": 9066,
      "Ġlegal": 9067,
      "Ġpoule": 9068,
      "Ġappears": 9069,
      "Ġhorses": 9070,
      "ĠÃīcoute": 9071,
      "Ġpromener": 9072,
      "issement": 9073,
      "Ġfairly": 9074,
      "Ġcesser": 9075,
      "Ġholidays": 9076,
      "engers": 9077,
      "Ġretrouv": 9078,
      "Ġincrease": 9079,
      "Ġtowards": 9080,
      "Ġrespecter": 9081,
      "ĠingÃ©n": 9082,
      "Ġcoop": 9083,
      "honneur": 9084,
      "ĠpropriÃ©tÃ©": 9085,
      "Ġrompu": 9086,
      "ĠDemande": 9087,
      "Ġfassiez": 9088,
      "Ġexperienced": 9089,
      "standing": 9090,
      "Ġdesperate": 9091,
      "Ġclassique": 9092,
      "ĠrÃ©frigÃ©rateur": 9093,
      "bable": 9094,
      "rure": 9095,
      "vable": 9096,
      "Ġtat": 9097,
      "Ġastr": 9098,
      "Ġpup": 9099,
      "Ġsouth": 9100,
      "ony": 9101,
      "onstr": 9102,
      "Ġloyer": 9103,
      "Ġcart": 9104,
      "ĠcÃ¢": 9105,
      "Ġmix": 9106,
      "iti": 9107,
      "itted": 9108,
      "Ġwest": 9109,
      "Ġber": 9110,
      "Ġdear": 9111,
      "Ġdete": 9112,
      "Ġvive": 9113,
      "arian": 9114,
      "ĠJones": 9115,
      "Ġgro": 9116,
      "using": 9117,
      "eding": 9118,
      "euble": 9119,
      "ĠlavÃ©": 9120,
      "Ġredu": 9121,
      "Ġmember": 9122,
      "ĠLinc": 9123,
      "ĠHad": 9124,
      "Ġhamb": 9125,
      "uteur": 9126,
      "Ġtrac": 9127,
      "ĠMom": 9128,
      "ĠMore": 9129,
      "memb": 9130,
      "agent": 9131,
      "adÃ©": 9132,
      "oogle": 9133,
      "illa": 9134,
      "acles": 9135,
      "Ġpray": 9136,
      "oln": 9137,
      "Ġallong": 9138,
      "Ġavenir": 9139,
      "ĠOuv": 9140,
      "ĠOlymp": 9141,
      "Ġaliment": 9142,
      "Ġapporter": 9143,
      "Ġgris": 9144,
      "Ġgrateful": 9145,
      "umn": 9146,
      "ĠHowever": 9147,
      "Ġadvert": 9148,
      "Ġbran": 9149,
      "ĠblÃ¢": 9150,
      "ĠpensÃ©e": 9151,
      "Ġmathematics": 9152,
      "ĠmalgrÃ©": 9153,
      "Ġdemandez": 9154,
      "Ġregul": 9155,
      "ĠKate": 9156,
      "Ġconsist": 9157,
      "Ġsmiling": 9158,
      "Ġtermes": 9159,
      "ĠscÃ¨ne": 9160,
      "ĠremÃ¨de": 9161,
      "Ġremoved": 9162,
      "Ġobt": 9163,
      "Ġfold": 9164,
      "Ġdisputer": 9165,
      "Ġgarant": 9166,
      "Ġmortes": 9167,
      "ĠannulÃ©": 9168,
      "Ġopening": 9169,
      "Ġcambri": 9170,
      "Ġsurprises": 9171,
      "Ġmerde": 9172,
      "Ġadvise": 9173,
      "Ġfalls": 9174,
      "lected": 9175,
      "Ġcops": 9176,
      "ĠCesse": 9177,
      "wards": 9178,
      "ĠÃ©gal": 9179,
      "Ġtaxes": 9180,
      "ĠÃ©lÃ©ph": 9181,
      "Ġgreet": 9182,
      "Ġprendrai": 9183,
      "ĠSoon": 9184,
      "ĠlumiÃ¨res": 9185,
      "Ġromans": 9186,
      "Ġdimin": 9187,
      "ĠrÃ©veillÃ©e": 9188,
      "essaye": 9189,
      "Ġscientist": 9190,
      "ĠconsidÃ©rÃ©": 9191,
      "Ġabandonner": 9192,
      "Ġimprobable": 9193,
[...]
