{
  "version": "1.0",
  "truncation": null,
  "padding": null,
  "added_tokens": [
    {
      "id": 0,
      "content": "\n",
      "single_word": false,
      "lstrip": false,
      "rstrip": false,
      "normalized": false,
      "special": true
    },
    {
      "id": 1,
      "content": "[UNK]",
      "single_word": false,
      "lstrip": false,
      "rstrip": false,
      "normalized": false,
      "special": true
    },
    {
      "id": 2,
      "content": "[BOS]",
      "single_word": false,
      "lstrip": false,
      "rstrip": false,
      "normalized": false,
      "special": true
    },
    {
      "id": 3,
      "content": "[EOS]",
      "single_word": false,
      "lstrip": false,
      "rstrip": false,
      "normalized": false,
      "special": true
    },
    {
      "id": 4,
      "content": "[PAD]",
      "single_word": false,
      "lstrip": false,
      "rstrip": false,
      "normalized": false,
      "special": true
    }
  ],
  "normalizer": null,
  "pre_tokenizer": {
    "type": "ByteLevel",
    "add_prefix_space": true,
    "trim_offsets": true,
    "use_regex": true
  },
  "post_processor": {
    "type": "ByteLevel",
    "add_prefix_space": true,
    "trim_offsets": true,
    "use_regex": true
  },
  "decoder": {
    "type": "ByteLevel",
    "add_prefix_space": true,
    "trim_offsets": true,
    "use_regex": true
  },
  "model": {
    "type": "BPE",
    "dropout": null,
    "unk_token": null,
    "continuing_subword_prefix": null,
    "end_of_word_suffix": null,
    "fuse_unk": false,
    "byte_fallback": false,
    "ignore_merges": false,
    "vocab": {
      "\n": 0,
      "[UNK]": 1,
      "[BOS]": 2,
      "[EOS]": 3,
      "[PAD]": 4,
      "!": 5,
      "\"": 6,
      "#": 7,
      "$": 8,
      "%": 9,
      "&": 10,
      "'": 11,
      "(": 12,
      ")": 13,
      "*": 14,
      "+": 15,
      ",": 16,
      "-": 17,
      ".": 18,
      "/": 19,
      "0": 20,
      "1": 21,
      "2": 22,
      "3": 23,
      "4": 24,
      "5": 25,
      "6": 26,
      "7": 27,
      "8": 28,
      "9": 29,
      ":": 30,
      ";": 31,
      "<": 32,
      "=": 33,
      ">": 34,
      "?": 35,
      "@": 36,
      "A": 37,
      "B": 38,
      "C": 39,
      "D": 40,
      "E": 41,
      "F": 42,
      "G": 43,
      "H": 44,
      "I": 45,
      "J": 46,
      "K": 47,
      "L": 48,
      "M": 49,
      "N": 50,
      "O": 51,
      "P": 52,
      "Q": 53,
      "R": 54,
      "S": 55,
      "T": 56,
      "U": 57,
      "V": 58,
      "W": 59,
      "X": 60,
      "Y": 61,
      "Z": 62,
      "[": 63,
      "\\": 64,
      "]": 65,
      "^": 66,
      "_": 67,
      "`": 68,
      "a": 69,
      "b": 70,
      "c": 71,
      "d": 72,
      "e": 73,
      "f": 74,
      "g": 75,
      "h": 76,
      "i": 77,
      "j": 78,
      "k": 79,
      "l": 80,
      "m": 81,
      "n": 82,
      "o": 83,
      "p": 84,
      "q": 85,
      "r": 86,
      "s": 87,
      "t": 88,
      "u": 89,
      "v": 90,
      "w": 91,
      "x": 92,
      "y": 93,
      "z": 94,
      "{": 95,
      "|": 96,
      "}": 97,
      "~": 98,
      "¡": 99,
      "¢": 100,
      "£": 101,
      "¤": 102,
      "¥": 103,
      "¦": 104,
      "§": 105,
      "¨": 106,
      "©": 107,
      "ª": 108,
      "«": 109,
      "¬": 110,
      "®": 111,
      "¯": 112,
      "°": 113,
      "±": 114,
      "²": 115,
      "³": 116,
      "´": 117,
      "µ": 118,
      "¶": 119,
      "·": 120,
      "¸": 121,
      "¹": 122,
      "º": 123,
      "»": 124,
      "¼": 125,
      "½": 126,
      "¾": 127,
      "¿": 128,
      "À": 129,
      "Á": 130,
      "Â": 131,
      "Ã": 132,
      "Ä": 133,
      "Å": 134,
      "Æ": 135,
      "Ç": 136,
      "È": 137,
      "É": 138,
      "Ê": 139,
      "Ë": 140,
      "Ì": 141,
      "Í": 142,
      "Î": 143,
      "Ï": 144,
      "Ð": 145,
      "Ñ": 146,
      "Ò": 147,
      "Ó": 148,
      "Ô": 149,
      "Õ": 150,
      "Ö": 151,
      "×": 152,
      "Ø": 153,
      "Ù": 154,
      "Ú": 155,
      "Û": 156,
      "Ü": 157,
      "Ý": 158,
      "Þ": 159,
      "ß": 160,
      "à": 161,
      "á": 162,
      "â": 163,
      "ã": 164,
      "ä": 165,
      "å": 166,
      "æ": 167,
      "ç": 168,
      "è": 169,
      "é": 170,
      "ê": 171,
      "ë": 172,
      "ì": 173,
      "í": 174,
      "î": 175,
      "ï": 176,
      "ð": 177,
      "ñ": 178,
      "ò": 179,
      "ó": 180,
      "ô": 181,
      "õ": 182,
      "ö": 183,
      "÷": 184,
      "ø": 185,
      "ù": 186,
      "ú": 187,
      "û": 188,
      "ü": 189,
      "ý": 190,
      "þ": 191,
      "ÿ": 192,
      "Ā": 193,
      "ā": 194,
      "Ă": 195,
      "ă": 196,
      "Ą": 197,
      "ą": 198,
      "Ć": 199,
      "ć": 200,
      "Ĉ": 201,
      "ĉ": 202,
      "Ċ": 203,
      "ċ": 204,
      "Č": 205,
      "č": 206,
      "Ď": 207,
      "ď": 208,
      "Đ": 209,
      "đ": 210,
      "Ē": 211,
      "ē": 212,
      "Ĕ": 213,
      "ĕ": 214,
      "Ė": 215,
      "ė": 216,
      "Ę": 217,
      "ę": 218,
      "Ě": 219,
      "ě": 220,
      "Ĝ": 221,
      "ĝ": 222,
      "Ğ": 223,
      "ğ": 224,
      "Ġ": 225,
      "ġ": 226,
      "Ģ": 227,
      "ģ": 228,
      "Ĥ": 229,
      "ĥ": 230,
      "Ħ": 231,
      "ħ": 232,
      "Ĩ": 233,
      "ĩ": 234,
      "Ī": 235,
      "ī": 236,
      "Ĭ": 237,
      "ĭ": 238,
      "Į": 239,
      "į": 240,
      "İ": 241,
      "ı": 242,
      "Ĳ": 243,
      "ĳ": 244,
      "Ĵ": 245,
      "ĵ": 246,
      "Ķ": 247,
      "ķ": 248,
      "ĸ": 249,
      "Ĺ": 250,
      "ĺ": 251,
      "Ļ": 252,
      "ļ": 253,
      "Ľ": 254,
      "ľ": 255,
      "Ŀ": 256,
      "ŀ": 257,
      "Ł": 258,
      "ł": 259,
      "Ń": 260,
      "ãģ": 261,
      "ãĤ": 262,
      "ãĢ": 263,
      "Ġt": 264,
      "ãĢĤ": 265,
      "he": 266,
      "ãģ¯": 267,
      "ãĥ": 268,
      "ãģĦ": 269,
      "Ġa": 270,
      "ãģ®": 271,
      "ãģŁ": 272,
      "in": 273,
      "ãģ«": 274,
      "Ġw": 275,
      "Ġs": 276,
      "ãģª": 277,
      "ou": 278,
      "re": 279,
      "ãģ¦": 280,
      "ãĤĴ": 281,
      "ãģĹ": 282,
      "is": 283,
      "ãĤĭ": 284,
      "Ġthe": 285,
      "ãģ£": 286,
      "ãģ§": 287,
      "ĠI": 288,
      "ãģĮ": 289,
      "on": 290,
      "Ġm": 291,
      "Ġb": 292,
      "Ġh": 293,
      "Ġå": 294,
      "ãģĭ": 295,
      "ãģ¨": 296,
      "Ġto": 297,
      "er": 298,
      "Ġc": 299,
      "ãģĻ": 300,
      "at": 301,
      "½¼": 302,
      "Ġf": 303,
      "an": 304,
      "Ġd": 305,
      "or": 306,
      "ĠT": 307,
      "en": 308,
      "ãģ¾": 309,
      "ed": 310,
      "ing": 311,
      "it": 312,
      "ãģĵ": 313,
      "Ġl": 314,
      "ãģĨ": 315,
      "Ġo": 316,
      "Ġy": 317,
      "as": 318,
      "Ġå½¼": 319,
      "ãĤĮ": 320,
      "ãģł": 321,
      "Ġp": 322,
      "ãĤī": 323,
      "ll": 324,
      "om": 325,
      "ãĢģ": 326,
      "ar": 327,
      "es": 328,
      "ãĤĤ": 329,
      "Ġyou": 330,
      "ãģ£ãģŁ": 331,
      "ç§": 332,
      "ãģı": 333,
      "Ġis": 334,
      "Ġth": 335,
      "ç§ģ": 336,
      "ãĤĵ": 337,
      "Ġin": 338,
      "Ġn": 339,
      "Ġg": 340,
      "ãģĤ": 341,
      "ãģ¦ãģĦ": 342,
      "Ġof": 343,
      "ãģĿ": 344,
      "ãĤĬ": 345,
      "ĠH": 346,
      "ãģ¯å": 347,
      "ä¸": 348,
      "äº": 349,
      "ï¼": 350,
      "ãģªãģĦ": 351,
      "ve": 352,
      "ãģį": 353,
      "Ġhe": 354,
      "ĠThe": 355,
      "ot": 356,
      "ãĤĪ": 357,
      "ãģĹãģŁ": 358,
      "ãģ®å": 359,
      "le": 360,
      "Ġbe": 361,
      "ãĥ¼": 362,
      "ãģķ": 363,
      "ay": 364,
      "Ġan": 365,
      "Ġç§ģ": 366,
      "å¥": 367,
      "ĠHe": 368,
      "ow": 369,
      "Ġha": 370,
      "ãģĳ": 371,
      "ld": 372,
      "Ġe": 373,
      "ic": 374,
      "et": 375,
      "ãģ¯æ": 376,
      "us": 377,
      "ĠW": 378,
      "ãģ§ãģĻ": 379,
      "im": 380,
      "å¥³": 381,
      "ãģ®æ": 382,
      "ãģ¦ãģĦãĤĭ": 383,
      "Ġwas": 384,
      "oo": 385,
      "ĠS": 386,
      "'t": 387,
      "ãģ«å": 388,
      "Ġæ": 389,
      "ãģ¾ãģĻ": 390,
      "ke": 391,
      "Ġon": 392,
      "Ġfor": 393,
      "ver": 394,
      "çĶ": 395,
      "ãģ¡": 396,
      "ãĥĪ": 397,
      "ä»": 398,
      "id": 399,
      "è¦": 400,
      "Ġst": 401,
      "ent": 402,
      "ãģ£ãģ¦": 403,
      "ãģĵãģ¨": 404,
      "ãģ¤": 405,
      "Ġre": 406,
      "ãĤĴå": 407,
      "äºº": 408,
      "ãĥ³": 409,
      "ãģ©": 410,
      "ä½": 411,
      "al": 412,
      "ãĤĴæ": 413,
      "éģ": 414,
      "gh": 415,
      "Ġr": 416,
      "Ġme": 417,
      "ãģĪ": 418,
      "ch": 419,
      "'s": 420,
      "èª": 421,
      "Ġthat": 422,
      "Ġå½¼ãģ¯": 423,
      "ãģĬ": 424,
      "è¨": 425,
      "ãģĽ": 426,
      "ion": 427,
      "¡Į": 428,
      "ãĤ¹": 429,
      "Ġwe": 430,
      "ĠãģĿ": 431,
      "Ġdo": 432,
      "Ġit": 433,
      "ad": 434,
      "Ĺ¥": 435,
      "Ġli": 436,
      "ut": 437,
      "ith": 438,
      "her": 439,
      "åĪ": 440,
      "Ġå½¼å¥³": 441,
      "ãģĹãģ¦": 442,
      "ter": 443,
      "ãĤı": 444,
      "ly": 445,
      "ill": 446,
      "ãĤģ": 447,
      "Ġwith": 448,
      "Ġhave": 449,
      "ĠM": 450,
      "Ġat": 451,
      "out": 452,
      "ce": 453,
      "ãģĻãĤĭ": 454,
      "se": 455,
      "Ġhis": 456,
      "Ġãģĵ": 457,
      "am": 458,
      "æľ": 459,
      "Ġand": 460,
      "st": 461,
      "Ġnot": 462,
      "Ġu": 463,
      "è¡Į": 464,
      "ãģĤãĤĭ": 465,
      "ir": 466,
      "Ġmy": 467,
      "éĸ": 468,
      "hat": 469,
      "ãģ«æ": 470,
      "Ġas": 471,
      "ãĥĪãĥ": 472,
      "å¤": 473,
      "ãģ°": 474,
      "ĠA": 475,
      "ght": 476,
      "ãģĭãģ£ãģŁ": 477,
      "ĠShe": 478,
      "ome": 479,
      "ould": 480,
      "ãĤį": 481,
      "Ġare": 482,
      "æĹ¥": 483,
      "ri": 484,
      "ãģĭãĤī": 485,
      "Ġne": 486,
      "ct": 487,
      "è©": 488,
      "ain": 489,
      "ä¼": 490,
      "ur": 491,
      "å®": 492,
      "è¦ĭ": 493,
      "äºĭ": 494,
      "ĠY": 495,
      "ĠIt": 496,
      "all": 497,
      "ãģ®ç": 498,
      "éĢ": 499,
      "Ġyour": 500,
      "ä¸Ģ": 501,
      "Ġgo": 502,
      "Ġsh": 503,
      "å½¼": 504,
      "Ġcan": 505,
      "ĠTom": 506,
      "ãĥĪãĥł": 507,
      "éĽ": 508,
      "ãĥ¼ãĥ": 509,
      "Ġç§ģãģ¯": 510,
      "ãĤĪãģĨ": 511,
      "Ġse": 512,
      "ãģķãģĦ": 513,
      "Ġher": 514,
      "Ġthis": 515,
      "åĲ": 516,
      "ro": 517,
      "è¨Ģ": 518,
      "ï¼Ł": 519,
      "ĩº": 520,
      "ĻĤ": 521,
      "ĠYou": 522,
      "ãĤĦ": 523,
      "Ġk": 524,
      "Ġãĥ": 525,
      "very": 526,
      "ĠWe": 527,
      "ãģ¿": 528,
      "ook": 529,
      "é£": 530,
      "ä½ķ": 531,
      "Ġsu": 532,
      "Ġhim": 533,
      "ãģ¯ç": 534,
      "ãģĹãģĦ": 535,
      "ãģ®è": 536,
      "ea": 537,
      "çĶŁ": 538,
      "ãĤ¢": 539,
      "æĢ": 540,
      "ãĤĮãģŁ": 541,
      "ĠãģĤ": 542,
      "åŃ": 543,
      "ore": 544,
      "éĸĵ": 545,
      "Ġwor": 546,
      "ãģªãģŁ": 547,
      "ĠD": 548,
      "one": 549,
      "ãģªãģĭãģ£ãģŁ": 550,
      "Ġab": 551,
      "Ġso": 552,
      "pp": 553,
      "Ġç": 554,
      "ĠãĥĪãĥł": 555,
      "Ġwill": 556,
      "if": 557,
      "ake": 558,
      "ãĤĴè": 559,
      "åĪĨ": 560,
      "ãģŁãģ¡": 561,
      "ãĤĴç": 562,
      "æ°": 563,
      "ãĥª": 564,
      "ant": 565,
      "ãĤ¤": 566,
      "éĩ": 567,
      "Ġtr": 568,
      "ãģ¦ãģĦãģŁ": 569,
      "ãģĦãģŁ": 570,
      "il": 571,
      "ãģ£ãģ¦ãģĦãĤĭ": 572,
      "nd": 573,
      "è©±": 574,
      "rom": 575,
      "ge": 576,
      "ãģ¾ãģĽ": 577,
      "ck": 578,
      "Ġhas": 579,
      "ãģ¹": 580,
      "ãģ«ãģª": 581,
      "op": 582,
      "ust": 583,
      "ight": 584,
      "th": 585,
      "ãģ¾ãģĽãĤĵ": 586,
      "æī": 587,
      "ood": 588,
      "ãĤĵãģł": 589,
      "ãģ¾ãģĹãģŁ": 590,
      "æĸ": 591,
      "ĠTh": 592,
      "ul": 593,
      "å¹": 594,
      "ä»Ĭ": 595,
      "åı": 596,
      "èĢ": 597,
      "Ġlike": 598,
      "Ġup": 599,
      "ãģ¯å½¼": 600,
      "and": 601,
      "end": 602,
      "Ġby": 603,
      "åħ": 604,
      "ãģĺ": 605,
      "ãģ«ãģ¯": 606,
      "Ġå½¼å¥³ãģ¯": 607,
      "Ġch": 608,
      "ãģ§ãģĻãģĭ": 609,
      "Ġè": 610,
      "Ġfrom": 611,
      "Ġsp": 612,
      "ä¼ļ": 613,
      "æĻĤ": 614,
      "ess": 615,
      "ĩª": 616,
      "Ġex": 617,
      "ation": 618,
      "ap": 619,
      "ãĤ¯": 620,
      "Ġout": 621,
      "Ġhad": 622,
      "Ġpl": 623,
      "Ŀ¥": 624,
      "Ġde": 625,
      "Ġus": 626,
      "nt": 627,
      "ãģ«ç": 628,
      "ãģ§ãģ¯": 629,
      "ĠC": 630,
      "est": 631,
      "å¾": 632,
      "ãĥĥ": 633,
      "ãģ§ãģį": 634,
      "ä¸Ń": 635,
      "Ġwh": 636,
      "our": 637,
      "Ġall": 638,
      "ard": 639,
      "æŃ": 640,
      "ãĤĮãģ°": 641,
      "ong": 642,
      "ãĥ©": 643,
      "Ġtim": 644,
      "now": 645,
      "ãģĹãģ¦ãģĦãĤĭ": 646,
      "ãĥ«": 647,
      "ãģŃ": 648,
      "å¿": 649,
      "è»": 650,
      "Ġman": 651,
      "æ°Ĺ": 652,
      "'m": 653,
      "ĠJ": 654,
      "ĠThis": 655,
      "ãĤĩ": 656,
      "ear": 657,
      "hen": 658,
      "åĬ": 659,
      "Ġcom": 660,
      "ast": 661,
      "ĠE": 662,
      "ase": 663,
      "èªŀ": 664,
      "Ġal": 665,
      "åĩº": 666,
      "ame": 667,
      "Ġj": 668,
      "Ł¥": 669,
      "ãģļ": 670,
      "ä¸Ĭ": 671,
      "åº": 672,
      "ind": 673,
      "ry": 674,
      "ï¼ĳ": 675,
      "ĠP": 676,
      "ble": 677,
      "Ġno": 678,
      "å¹´": 679,
      "ĠãĤ": 680,
      "ãģ»": 681,
      "éĻ": 682,
      "æĢĿ": 683,
      "ak": 684,
      "ate": 685,
      "red": 686,
      "qu": 687,
      "ãģ¾ãģĻãģĭ": 688,
      "åĽ": 689,
      "ãĤįãģĨ": 690,
      "ãģĮæ": 691,
      "çī": 692,
      "Ġtime": 693,
      "ãģĦãģ¦": 694,
      "ãĤĵãģª": 695,
      "Ġcon": 696,
      "ĲĽ": 697,
      "ud": 698,
      "ãģªãĤī": 699,
      "īį": 700,
      "ice": 701,
      "ish": 702,
      "art": 703,
      "ers": 704,
      "é£Ł": 705,
      "æľ¬": 706,
      "ãĤĵãģ§": 707,
      "Ġget": 708,
      "Ġbut": 709,
      "ãģłãģ£ãģŁ": 710,
      "Ġknow": 711,
      "ãģĤãĤĬ": 712,
      "un": 713,
      "ãģ®é": 714,
      "Ġdon": 715,
      "ink": 716,
      "ãģ«è": 717,
      "ĠãģĤãģªãģŁ": 718,
      "ãĤĮãĤĭ": 719,
      "Ġabout": 720,
      "ãģ®ãĥ": 721,
      "ive": 722,
      "ĠMy": 723,
      "Ġshe": 724,
      "ol": 725,
      "æķ": 726,
      "ãģķãĤĵ": 727,
      "Ġdid": 728,
      "åĭ": 729,
      "res": 730,
      "os": 731,
      "Ľ¸": 732,
      "ãģ¯è": 733,
      "ä¾": 734,
      "Ġvery": 735,
      "ĠWhat": 736,
      "ãģ§ãģĤãĤĭ": 737,
      "ãģ£ãģ¨": 738,
      "ist": 739,
      "Ġany": 740,
      "Ġsee": 741,
      "ãģĵãģ¨ãģĮ": 742,
      "Ġv": 743,
      "ãĤĤãģ®": 744,
      "ãģ¸": 745,
      "ays": 746,
      "ãģĦãģĦ": 747,
      "ãģ©ãģĨ": 748,
      "fe": 749,
      "ĠB": 750,
      "çµ": 751,
      "ãĤĴè¦ĭ": 752,
      "ãģ¦ãĤĤ": 753,
      "çī©": 754,
      "ort": 755,
      "Ġgood": 756,
      "Ġwork": 757,
      "Ġfe": 758,
      "day": 759,
      "èĢħ": 760,
      "ary": 761,
      "å¸": 762,
      "Ġwant": 763,
      "å±": 764,
      "ĠL": 765,
      "Ġco": 766,
      "éĩĳ": 767,
      "ãĤĩãģĨ": 768,
      "åĳ": 769,
      "ig": 770,
      "ãĤĥ": 771,
      "Ġint": 772,
      "are": 773,
      "ãģ¯å¤": 774,
      "Ġsa": 775,
      "ï¼Ĳ": 776,
      "other": 777,
      "Ġcl": 778,
      "å¼": 779,
      "Įģ": 780,
      "éģĶ": 781,
      "'ll": 782,
      "ãģĶ": 783,
      "ĠN": 784,
      "ä¿": 785,
      "ãĢħ": 786,
      "Ġpro": 787,
      "Ġwhat": 788,
      "Ġwere": 789,
      "ĠThey": 790,
      "ng": 791,
      "½ãģį": 792,
      "ãģ¨æĢĿ": 793,
      "æīĭ": 794,
      "ĠåĲĽ": 795,
      "ep": 796,
      "lease": 797,
      "ie": 798,
      "ãģ¯ãĥ": 799,
      "å¯": 800,
      "ĠF": 801,
      "ãģ¾ãģ§": 802,
      "Ġte": 803,
      "Ġam": 804,
      "ãĤĭãģ®": 805,
      "ãģ£ãģ¦ãģĦ": 806,
      "åīį": 807,
      "Ġtoo": 808,
      "å¤§": 809,
      "ound": 810,
      "Ġthan": 811,
      "ãģĴ": 812,
      "Ġlo": 813,
      "Ġar": 814,
      "cc": 815,
      "Ġfa": 816,
      "ĠThere": 817,
      "ãģ¨ãģĦ": 818,
      "ather": 819,
      "ãģłãĤįãģĨ": 820,
      "ãģªãģı": 821,
      "°ĳ": 822,
      "æĦ": 823,
      "Ġlook": 824,
      "ĺİ": 825,
      "ãĤ«": 826,
      "Ġé": 827,
      "ãĢĮ": 828,
      "ãĢį": 829,
      "ãģĿãģ®": 830,
      "Ġå½¼ãĤī": 831,
      "row": 832,
      "Ġ\"": 833,
      "ack": 834,
      "è»Ĭ": 835,
      "lf": 836,
      "åŃ¦": 837,
      "um": 838,
      "ãģĦãģ¤": 839,
      "ãĤ¿": 840,
      "ãģıãģł": 841,
      "ä»ķ": 842,
      "ãģĳãĤĮãģ°": 843,
      "Ġbeen": 844,
      "Ġag": 845,
      "Ġshould": 846,
      "ild": 847,
      "ç´": 848,
      "Ġor": 849,
      "ãĥ¬": 850,
      "ãģĹãĤĩãģĨ": 851,
      "ãĥī": 852,
      "ãĤĤãģĨ": 853,
      "ãģªãģķãģĦ": 854,
      "ĩªåĪĨ": 855,
      "Ġthere": 856,
      "ãģ«è¡Į": 857,
      "ãģĻãģ": 858,
      "Ġwhen": 859,
      "Ġro": 860,
      "Ġaf": 861,
      "ĠO": 862,
      "Ġä»Ĭ": 863,
      "µ·": 864,
      "ine": 865,
      "Ġthink": 866,
      "åŃĲ": 867,
      "ãģıãģłãģķãģĦ": 868,
      "Ġç§ģãģŁãģ¡": 869,
      "ãģ®æľ": 870,
      "alk": 871,
      "ass": 872,
      "Ġwould": 873,
      "ally": 874,
      "ãģĿãĤĮ": 875,
      "åĲĪ": 876,
      "å½": 877,
      "Ġoff": 878,
      "ree": 879,
      "Ġone": 880,
      "el": 881,
      "ãģ¯ç§ģ": 882,
      "ave": 883,
      "Ġcar": 884,
      "ous": 885,
      "Ġbook": 886,
      "æĪ": 887,
      "Ġstud": 888,
      "Ġqu": 889,
      "ãģĮãģĤãĤĭ": 890,
      "æĸ¹": 891,
      "ren": 892,
      "æĿ¥": 893,
      "ä¸ĭ": 894,
      "Ġnew": 895,
      "æł": 896,
      "ãģŁãĤģ": 897,
      "ãģªãģĳãĤĮãģ°": 898,
      "Ġcome": 899,
      "å¥½ãģį": 900,
      "ŃĲ": 901,
      "ģŀ": 902,
      "èª°": 903,
      "ool": 904,
      "ãģĮè": 905,
      "çķ": 906,
      "æ¥": 907,
      "hing": 908,
      "ãĤĪãĤĬ": 909,
      "ĠDo": 910,
      "ãģŁãģĦ": 911,
      "Ġyear": 912,
      "ven": 913,
      "éĿ": 914,
      "çĲ": 915,
      "ä»ķäºĭ": 916,
      "çĽ": 917,
      "ãĥ¡": 918,
      "Ń¦": 919,
      "ite": 920,
      "Ġmore": 921,
      "ãĤ³": 922,
      "ĥ¨": 923,
      "Ġå½¼ãģ¯æ": 924,
      "è¦ģ": 925,
      "ved": 926,
      "Ġå¤": 927,
      "ãģĤãģªãģŁ": 928,
      "eop": 929,
      "ure": 930,
      "ãģĦãĤĭ": 931,
      "éł": 932,
      "åľ": 933,
      "ĠãģĿãģ®": 934,
      "çĦ": 935,
      "eople": 936,
      "®¶": 937,
      "ther": 938,
      "ra": 939,
      "ãĤ¸": 940,
      "«ĭ": 941,
      "Ġå½¼ãģ¯å": 942,
      "uch": 943,
      "Ġle": 944,
      "ï¼Ĵ": 945,
      "itt": 946,
      "Ġbo": 947,
      "ķı": 948,
      "ãģ¨ãģ¦ãĤĤ": 949,
      "ity": 950,
      "ãģ®ãģ§": 951,
      "ade": 952,
      "ãģĿãģĨ": 953,
      "ĠWh": 954,
      "Ġhere": 955,
      "Ġcomp": 956,
      "Ġevery": 957,
      "Ġad": 958,
      "çĻ": 959,
      "īĭ": 960,
      "ag": 961,
      "Ġsome": 962,
      "Ġgot": 963,
      "Ī¶": 964,
      "Ġbr": 965,
      "å®¶": 966,
      "Ĺħ": 967,
      "Ġour": 968,
      "ĠHow": 969,
      "æ³": 970,
      "ĥķ": 971,
      "åį": 972,
      "Ġmo": 973,
      "Ġhome": 974,
      "ick": 975,
      "éĢļ": 976,
      "Ġcould": 977,
      "Ġday": 978,
      "ount": 979,
      "ĠThat": 980,
      "Ġmuch": 981,
      "ĠãģĿãģ®å": 982,
      "å½¼å¥³": 983,
      "éĽ»": 984,
      "ãģłãģĳ": 985,
      "Ġtw": 986,
      "çļ": 987,
      "apan": 988,
      "ä¹": 989,
      "ãģ§ãĤĤ": 990,
      "ought": 991,
      "ĠJapan": 992,
      "ãģĹãģ¾": 993,
      "Ġtake": 994,
      "Ġbec": 995,
      "Ĥª": 996,
      "è¦ª": 997,
      "ãģ£ãģ¦ãģĦãģŁ": 998,
      "ĿĢ": 999,
      "Ġpeople": 1000,
      "Ġgoing": 1001,
      "age": 1002,
      "Ġbus": 1003,
      "Ġif": 1004,
      "ĠãģĿãĤĮ": 1005,
      "ãĤĮãģªãģĦ": 1006,
      "ãģ¨ãģĦãģĨ": 1007,
      "hed": 1008,
      "ãĤĪãģı": 1009,
      "Ġlong": 1010,
      "eak": 1011,
      "çŁ¥": 1012,
      "ang": 1013,
      "Ġdoes": 1014,
      "self": 1015,
      "urn": 1016,
      "ĠãģĬ": 1017,
      "ãģªãĤīãģªãģĦ": 1018,
      "Ġen": 1019,
      "here": 1020,
      "Ġmust": 1021,
      "Ġexp": 1022,
      "é¡Į": 1023,
      "ĠãģĵãĤĮ": 1024,
      "ãģĳãģŁ": 1025,
      "ãĥªãĥ¼": 1026,
      "ough": 1027,
      "Ġover": 1028,
      "ide": 1029,
      "ving": 1030,
      "Ġmake": 1031,
      "Ġbet": 1032,
      "ãĤ·": 1033,
      "Ġsch": 1034,
      "ect": 1035,
      "ãģ§ãģ¯ãģªãģĦ": 1036,
      "ĠHis": 1037,
      "ãĤĴåı": 1038,
      "Ġwho": 1039,
      "ãĥķ": 1040,
      "pt": 1041,
      "Ġmade": 1042,
      "reat": 1043,
      "ĠG": 1044,
      "ãĥĨ": 1045,
      "oney": 1046,
      "ł´": 1047,
      "ĠIf": 1048,
      "ãģįãģŁ": 1049,
      "è²": 1050,
      "åº¦": 1051,
      "ãģ³": 1052,
      "Ġwent": 1053,
      "Ġsm": 1054,
      "ngl": 1055,
      "ning": 1056,
      "ult": 1057,
      "Ġnow": 1058,
      "ãģ¯ãģĦ": 1059,
      "ï¼ģ": 1060,
      "ĠPlease": 1061,
      "ue": 1062,
      "Ġold": 1063,
      "ãĤģãģŁ": 1064,
      "ä¾Ľ": 1065,
      "ħ¥": 1066,
      "Ġchild": 1067,
      "lp": 1068,
      "ĠEngl": 1069,
      "Ġwr": 1070,
      "çļĦ": 1071,
      "'ve": 1072,
      "åĽ½": 1073,
      "Ġspeak": 1074,
      "ãģĪãĤĭ": 1075,
      "Ġpo": 1076,
      "ĠDon": 1077,
      "Ġacc": 1078,
      "ãĤĢ": 1079,
      "ãģ«ãģ¤": 1080,
      "use": 1081,
      "ãĤĮãģ¦ãģĦãĤĭ": 1082,
      "Ġread": 1083,
      "æĦı": 1084,
      "Ġschool": 1085,
      "ãģĭãĤĬ": 1086,
      "ãģĵãĤį": 1087,
      "Ġother": 1088,
      "ies": 1089,
      "own": 1090,
      "çĲĨ": 1091,
      "ouse": 1092,
      "é£Łãģ¹": 1093,
      "Ġmoney": 1094,
      "å½ĵ": 1095,
      "ãģ²": 1096,
      "ä¸į": 1097,
      "ment": 1098,
      "ãĤĤãģĹ": 1099,
      "Ġlast": 1100,
      "Ġwat": 1101,
      "riend": 1102,
      "ĭ±": 1103,
      "Ġhelp": 1104,
      "çĶ»": 1105,
      "ves": 1106,
      "Ġim": 1107,
      "Ġinto": 1108,
      "¯į": 1109,
      "Ġãģĵãģ®": 1110,
      "Ġafter": 1111,
      "ķ·": 1112,
      "å±ĭ": 1113,
      "è¿": 1114,
      "Ġjust": 1115,
      "Ġbu": 1116,
      "å£": 1117,
      "Ġun": 1118,
      "ãĤŃ": 1119,
      "ãĤĪãģĨãģ«": 1120,
      "Ġwell": 1121,
      "Ġsay": 1122,
      "èªŃ": 1123,
      "ond": 1124,
      "ãģĿãģ®å": 1125,
      "ãģĻãģĲ": 1126,
      "Ġapp": 1127,
      "ãģĵãģ¨ãģ¯": 1128,
      "ãģĪãģŁ": 1129,
      "ĠEnglish": 1130,
      "ãĤĮãģ¦": 1131,
      "ç¤": 1132,
      "ãģ¯æľ": 1133,
      "ãĤ£": 1134,
      "è¨Ī": 1135,
      "ĠãĥĪãĥłãģ¯": 1136,
      "ob": 1137,
      "ãģĹãģ¾ãģĻ": 1138,
      "fore": 1139,
      "ãģĹãģ¦ãģĦ": 1140,
      "Ġhouse": 1141,
      "Ġke": 1142,
      "Ġplay": 1143,
      "Ġhapp": 1144,
      "Ġcall": 1145,
      "ãĤīãģªãģĦ": 1146,
      "ress": 1147,
      "«ĺ": 1148,
      "Ł³": 1149,
      "æĽ¸": 1150,
      "±º": 1151,
      "Ġhard": 1152,
      "ãĤĭãģ¨": 1153,
      "Ġway": 1154,
      "ance": 1155,
      "ï¼ĵ": 1156,
      "ãģ«ãĤĤ": 1157,
      "ok": 1158,
      "éģķ": 1159,
      "é¡": 1160,
      "ãģ®äºº": 1161,
      "Ġtwo": 1162,
      "ãģĦãģ¾ãģĻ": 1163,
      "ĠMary": 1164,
      "od": 1165,
      "Ġtea": 1166,
      "Ġdown": 1167,
      "ence": 1168,
      "åĨ": 1169,
      "Ġdis": 1170,
      "ried": 1171,
      "Ġbl": 1172,
      "æł¡": 1173,
      "Ġpart": 1174,
      "ãĥĲ": 1175,
      "orrow": 1176,
      "ãĤ¢ãĥªãĥ¼": 1177,
      "åĬĽ": 1178,
      "ĺ¨": 1179,
      "ãģ¹ãģį": 1180,
      "ab": 1181,
      "Ġback": 1182,
      "ãĤĴãģĹãģŁ": 1183,
      "thing": 1184,
      "ãģ¶": 1185,
      "Īĳ": 1186,
      "Ġbefore": 1187,
      "ĸ°": 1188,
      "Ġfriend": 1189,
      "°ı": 1190,
      "Ġfather": 1191,
      "omet": 1192,
      "Ġlet": 1193,
      "Ġear": 1194,
      "åĢ": 1195,
      "Ġtheir": 1196,
      "Ġæľ": 1197,
      "éĽ¨": 1198,
      "Ġagain": 1199,
      "Ġmany": 1200,
      "Ġroom": 1201,
      "å¾Į": 1202,
      "mer": 1203,
      "åĭķ": 1204,
      "Ġdidn": 1205,
      "ĭ±èªŀ": 1206,
      "ãģ®ãģĭ": 1207,
      "çĶ·": 1208,
      "ach": 1209,
      "Ġthey": 1210,
      "Ĺ¥æľ¬": 1211,
      "å¼·": 1212,
      "ĠK": 1213,
      "ways": 1214,
      "ãĤĪãģĦ": 1215,
      "Ġgr": 1216,
      "Ġrain": 1217,
      "ci": 1218,
      "Ġfl": 1219,
      "ãĤ¹ãĥ": 1220,
      "'re": 1221,
      "ft": 1222,
      "§ĭ": 1223,
      "éļ": 1224,
      "ãģ§ãģĹãĤĩãģĨ": 1225,
      "ãģ©ãģĵ": 1226,
      "ä½ľ": 1227,
      "Ġcame": 1228,
      "ãģ®æľ¬": 1229,
      "ħè¦ģ": 1230,
      "Ġnever": 1231,
      "Ġç§ģãģ¯å½¼": 1232,
      "wn": 1233,
      "able": 1234,
      "Ġlot": 1235,
      "ī¯": 1236,
      "Ġalways": 1237,
      "éĥ¨": 1238,
      "ãģ®ä¸Ń": 1239,
      "ä¸ĸ": 1240,
      "ose": 1241,
      "æħ": 1242,
      "Ġaw": 1243,
      "åĪĩ": 1244,
      "ãģĮç": 1245,
      "ise": 1246,
      "çĶ¨": 1247,
      "ãĤĴè²": 1248,
      "ãģ®ãģ¯": 1249,
      "©ļ": 1250,
      "ãģĹãģ¦ãģĦãģŁ": 1251,
      "ãĤĴãģĻãĤĭ": 1252,
      "èŃ": 1253,
      "ãĥ¼ãĥĪ": 1254,
      "ãĥ£": 1255,
      "ãģĮå¥½ãģį": 1256,
      "ĥ½": 1257,
      "æĻĤéĸĵ": 1258,
      "ķıé¡Į": 1259,
      "Ġplan": 1260,
      "éķ·": 1261,
      "ãģĤãģ£ãģŁ": 1262,
      "ĠIn": 1263,
      "ich": 1264,
      "ä¿¡": 1265,
      "ark": 1266,
      "åĵ": 1267,
      "Ġsaid": 1268,
      "Ġbetter": 1269,
      "ä½¿": 1270,
      "Ġthing": 1271,
      "ac": 1272,
      "Ġyears": 1273,
      "em": 1274,
      "xt": 1275,
      "Ġmat": 1276,
      "ãĥ©ãĥ³": 1277,
      "æĹ": 1278,
      "ict": 1279,
      "Ġç§ģãģ¯æ": 1280,
      "ause": 1281,
      "ãĥ³ãĤ": 1282,
      "æľĪ": 1283,
      "au": 1284,
      "'d": 1285,
      "ãĤĴæĮģ": 1286,
      "ľŁ": 1287,
      "Ġneed": 1288,
      "nder": 1289,
      "ĠWhen": 1290,
      "éģĭ": 1291,
      "ãģ¨ãģĵãĤį": 1292,
      "Ġdif": 1293,
      "Ġres": 1294,
      "éģĵ": 1295,
      "è¡": 1296,
      "Ġç§ģãģ¯å": 1297,
      "ãģªãĤĵ": 1298,
      "ãģĹãģı": 1299,
      "éģħ": 1300,
      "èĩªåĪĨ": 1301,
      "é«ĺ": 1302,
      "ãģ¯ä½ķ": 1303,
      "Ġask": 1304,
      "è¨ĢãģĨ": 1305,
      "å¿ĥ": 1306,
      "Ġeat": 1307,
      "Ġä½ķ": 1308,
      "ķĻ": 1309,
      "ãģĪãģ¦": 1310,
      "Ġtell": 1311,
      "æĿ": 1312,
      "ãģªãģĳãĤĮãģ°ãģªãĤīãģªãģĦ": 1313,
      "ãĥ§": 1314,
      "Ġpr": 1315,
      "©Ł": 1316,
      "æĽ": 1317,
      "ãĥŃ": 1318,
      "ãģķãĤĮãģŁ": 1319,
      "ãģ«åħ¥": 1320,
      "ittle": 1321,
      "ãĥĳ": 1322,
      "Ġimp": 1323,
      "æĮģ": 1324,
      "ber": 1325,
      "è¾": 1326,
      "ile": 1327,
      "ãĥĭ": 1328,
      "Ġput": 1329,
      "ãģ«ãģªãĤĭ": 1330,
      "ŃĲä¾Ľ": 1331,
      "ãģ®å¤": 1332,
      "å®Ł": 1333,
      "ãģ«ãģªãģ£ãģŁ": 1334,
      "æĺİ": 1335,
      "Ġright": 1336,
      "Ġtom": 1337,
      "è¨Ģãģ£ãģŁ": 1338,
      "ãģŁãģı": 1339,
      "°Ĺ": 1340,
      "ãģĭãģĳ": 1341,
      "éĽ»è©±": 1342,
      "ä½ı": 1343,
      "çĻº": 1344,
      "åĲĽ": 1345,
      "§£": 1346,
      "ãĥ¥": 1347,
      "åħ¥": 1348,
      "ãģ¨ãģį": 1349,
      "Ġpre": 1350,
      "ä¸ĭãģķãģĦ": 1351,
      "ħ¨": 1352,
      "è©¦": 1353,
      "Ġlittle": 1354,
      "ãģ¯å¤§": 1355,
      "ident": 1356,
      "Ġtalk": 1357,
      "Ġnight": 1358,
      "ãģ®ãģĵãģ¨": 1359,
      "ä»¥": 1360,
      "ãĥ¼ãĥ«": 1361,
      "æīĢ": 1362,
      "ory": 1363,
      "ãĥĵ": 1364,
      "Ġonly": 1365,
      "æĢ§": 1366,
      "ħĪ": 1367,
      "ãģ®ãģ§ãģĻ": 1368,
      "éħ": 1369,
      "Ġsw": 1370,
      "ãģ«ãģ¤ãģĦãģ¦": 1371,
      "ĢĿ": 1372,
      "Ġmeet": 1373,
      "Ġtomorrow": 1374,
      "Ġsomet": 1375,
      "ily": 1376,
      "åł´": 1377,
      "Ġmay": 1378,
      "éĻį": 1379,
      "Ġthem": 1380,
      "æ¥Ń": 1381,
      "ek": 1382,
      "ese": 1383,
      "irst": 1384,
      "çĦ¶": 1385,
      "Ġhand": 1386,
      "Ġ1": 1387,
      "éĢ±": 1388,
      "ãģ»ãģ©": 1389,
      "çĽ®": 1390,
      "æ¸": 1391,
      "fic": 1392,
      "ãĥĥãĤ¯": 1393,
      "åĮ": 1394,
      "æ´": 1395,
      "äºĮ": 1396,
      "Ġunder": 1397,
      "è³": 1398,
      "ãĥ»": 1399,
      "Ġboy": 1400,
      "Ġmother": 1401,
      "ĠãĢĮ": 1402,
      "ãģĹãģªãģĦ": 1403,
      "ãģĳãģªãģĦ": 1404,
      "Ġsoon": 1405,
      "ĠCan": 1406,
      "Ġåĥķ": 1407,
      "Ġå½¼ãģĮ": 1408,
      "ä½ĵ": 1409,
      "ãģıãĤī": 1410,
      "ãģĦãģ¤ãĤĤ": 1411,
      "ĪĳãĢħ": 1412,
      "ç·": 1413,
      "Ġhow": 1414,
      "Ġgreat": 1415,
      "ä¹Ĺ": 1416,
      "ãģ§ãģįãĤĭ": 1417,
      "ĠLet": 1418,
      "ms": 1419,
      "Ġten": 1420,
      "Ġtoday": 1421,
      "ãģ¡ãĤĥ": 1422,
      "Ġcare": 1423,
      "é¨": 1424,
      "ire": 1425,
      "īå¼·": 1426,
      "Ġop": 1427,
      "ï¼ķ": 1428,
      "Ġlea": 1429,
      "ĥãģĪ": 1430,
      "ãĥĹ": 1431,
      "ãģ¸è¡Į": 1432,
      "ãĤª": 1433,
      "ãģ®ãģŁãĤģ": 1434,
      "Ġfeel": 1435,
      "ied": 1436,
      "Ġfin": 1437,
      "ãģ«åĲ": 1438,
      "Ġnext": 1439,
      "ãģİ": 1440,
      "ester": 1441,
      "ç¤¾": 1442,
      "ĠIs": 1443,
      "ãģ¾ãĤĬ": 1444,
      "akes": 1445,
      "Ġwalk": 1446,
      "èª¬": 1447,
      "Ġdr": 1448,
      "æĥ": 1449,
      "ãģ¾ãģł": 1450,
      "æĺ": 1451,
      "ten": 1452,
      "ãģ§ãģįãģªãģĦ": 1453,
      "çķª": 1454,
      "ãģıãģª": 1455,
      "ãĥģ": 1456,
      "Ġtrain": 1457,
      "¶³": 1458,
      "ãģıãĤĮ": 1459,
      "ace": 1460,
      "Ġlife": 1461,
      "åĳ³": 1462,
      "00": 1463,
      "è«": 1464,
      "Ġweek": 1465,
      "éĸ¢": 1466,
      "ãģĺãĤĥ": 1467,
      "ãģ«ãģ¯å": 1468,
      "Ġleft": 1469,
      "ãģ¤ãĤĤ": 1470,
      "å¿ħè¦ģ": 1471,
      "ãģĮå": 1472,
      "ãģĭãģª": 1473,
      "Ġsuch": 1474,
      "ãĤĴãģ¤": 1475,
      "ated": 1476,
      "ful": 1477,
      "ign": 1478,
      "ãģ®ãģĬ": 1479,
      "ans": 1480,
      "Ġthree": 1481,
      "Ġcount": 1482,
      "ty": 1483,
      "è»¢": 1484,
      "Ġgir": 1485,
      "ãģ£ãģ¦ãĤĤ": 1486,
      "esterday": 1487,
      "ãģ«ãģĬ": 1488,
      "Ġaway": 1489,
      "Ġãģĵãģ®å": 1490,
      "Ġteac": 1491,
      "¢¨": 1492,
      "Ġturn": 1493,
      "ãģĵãģĵ": 1494,
      "ãģ«ä¼ļ": 1495,
      "oss": 1496,
      "Ġreally": 1497,
      "é£²": 1498,
      "Ġfirst": 1499,
      "ĠãĤ¸": 1500,
      "éĩį": 1501,
      "ãĤ±": 1502,
      "ãģıãĤĮãģŁ": 1503,
      "ãģ«åĩº": 1504,
      "©º": 1505,
      "Ġstr": 1506,
      "Ġstudy": 1507,
      "ĺ¨æĹ¥": 1508,
      "ļãģı": 1509,
      "Ġdoesn": 1510,
      "any": 1511,
      "éĽ£": 1512,
      "ãģ¨æĢĿãģĨ": 1513,
      "Ġtook": 1514,
      "ãģĹãģ¾ãģ£ãģŁ": 1515,
      "ãģ§ãģĹãģŁ": 1516,
      "Ĭ¬": 1517,
      "ä»£": 1518,
      "Ġstudent": 1519,
      "ĥį": 1520,
      "Ġfam": 1521,
      "°ĳãģĹ": 1522,
      "iz": 1523,
      "åĲĮ": 1524,
      "ï¼ĳï¼Ĳ": 1525,
      "ãĤģãģ¦": 1526,
      "æŃ©": 1527,
      "ãģķãģĽ": 1528,
      "ãģĹãģ¦ãĤĤ": 1529,
      "å¾ħ": 1530,
      "ãģ¾ãģĽãĤĵãģĭ": 1531,
      "Ġbel": 1532,
      "Ġdog": 1533,
      "ip": 1534,
      "å¤ĸ": 1535,
      ".\"": 1536,
      "ãģĮãģªãģĦ": 1537,
      "æĪĲ": 1538,
      "Ġcat": 1539,
      "ä¼Ŀ": 1540,
      "ãĤĪãģĨãģª": 1541,
      "ank": 1542,
      "Ġlate": 1543,
      "Ġwa": 1544,
      "ç«ĭ": 1545,
      "Ġplease": 1546,
      "Ġkind": 1547,
      "Ġuse": 1548,
      "Ġbecause": 1549,
      "Ġrem": 1550,
      "ãĤĴçŁ¥": 1551,
      "æ¥½": 1552,
      "Ġteacher": 1553,
      "ç´Ļ": 1554,
      "æļ": 1555,
      "Ġå½¼å¥³ãģ¯å": 1556,
      "ãģĸ": 1557,
      "ĺİæĹ¥": 1558,
      "Ġä»ĬæĹ¥": 1559,
      "ãĥĥãĥĪ": 1560,
      "ãģ¯å½¼å¥³": 1561,
      "éģİ": 1562,
      "æ©Ł": 1563,
      "µĲ": 1564,
      "èĪ": 1565,
      "Ġpol": 1566,
      "¾İ": 1567,
      "ĠR": 1568,
      "åħ¨": 1569,
      "ody": 1570,
      "ãģ¤ãĤĤãĤĬ": 1571,
      "int": 1572,
      "Ġchildren": 1573,
      "Ġyesterday": 1574,
      "ä»ĺ": 1575,
      "é¨ĵ": 1576,
      "hes": 1577,
      "Ġpers": 1578,
      "Ġbeg": 1579,
      "Ġsc": 1580,
      "ãģŁãģıãģķãĤĵ": 1581,
      "ãģĤãĤĬãģ¾ãģĽãĤĵ": 1582,
      "ãģ®ãģ§ãģĻãģĭ": 1583,
      "ãĤ¿ãĥ¼": 1584,
      "not": 1585,
      "Ġkeep": 1586,
      "Ġatt": 1587,
      "ost": 1588,
      "Ġrun": 1589,
      "ĠMr": 1590,
      "éĸĭ": 1591,
      "Ġcold": 1592,
      "ãģĳãģ¦": 1593,
      "ãĥ©ãĥ³ãĤ¹": 1594,
      "ions": 1595,
      "Ġgirl": 1596,
      "oy": 1597,
      "Ġmor": 1598,
      "ting": 1599,
      "ãĥĸ": 1600,
      "ç§ģãģŁãģ¡": 1601,
      "æ®": 1602,
      "Ġword": 1603,
      "èģŀ": 1604,
      "igh": 1605,
      "çĿĢ": 1606,
      "èĩª": 1607,
      "Ġlove": 1608,
      "Ġç§ģãģŁãģ¡ãģ¯": 1609,
      "ĠãĤĤãģĨ": 1610,
      "ãģĿãģĵ": 1611,
      "ĠãģĿãģ®æ": 1612,
      "ãĤ¹ãĥĪ": 1613,
      "Ġisn": 1614,
      "ãģ«å¤": 1615,
      "Ġå½¼ãĤīãģ¯": 1616,
      "ãĤĴè²·": 1617,
      "¡ãĤ¢ãĥªãĥ¼": 1618,
      "ited": 1619,
      "é£Ľ": 1620,
      "ãĤĴèģŀ": 1621,
      "Ġsomething": 1622,
      "ange": 1623,
      "Ġyoung": 1624,
      "Ġstart": 1625,
      "Ġlive": 1626,
      "åĲį": 1627,
      "åľ°": 1628,
      "ired": 1629,
      "æĻ": 1630,
      "Ġnothing": 1631,
      "å¤ī": 1632,
      "Ġcannot": 1633,
      "ãĤ¦": 1634,
      "ãģ£ãģ¦ãģĦãģ¾ãģĻ": 1635,
      "Ġgive": 1636,
      "ctor": 1637,
      "ãĤīãģĽ": 1638,
      "ĠJapanese": 1639,
      "ī²": 1640,
      "leep": 1641,
      "Ġcont": 1642,
      "Ġac": 1643,
      "ç§ģãģ¯": 1644,
      "ock": 1645,
      "ãģĳãĤĭ": 1646,
      "ne": 1647,
      "Ġgave": 1648,
      "ãģ®å®¶": 1649,
      "Ġmorning": 1650,
      "Ġå½¼å¥³ãģ¯æ": 1651,
      "ãĤ¤ãĥ³": 1652,
      "Ġoften": 1653,
      "éĿ¢": 1654,
      "å©ļ": 1655,
      "Ġbeing": 1656,
      "Ġwithout": 1657,
      "º«": 1658,
      "Ġbad": 1659,
      "Ġpass": 1660,
      "ä¼ĳ": 1661,
      "Ĥ²": 1662,
      "Ġanything": 1663,
      "µ·ãģĵ": 1664,
      "µ¤": 1665,
      "ãĤĦãģ£ãģ¦": 1666,
      "ãĤĵãģ§ãģĦãĤĭ": 1667,
      "é§": 1668,
      "ãģ®ãģ«": 1669,
      "Ġstay": 1670,
      "ell": 1671,
      "ãģĹãģĭ": 1672,
      "Ġbest": 1673,
      "ãģĿãģ®æ": 1674,
      "Ġused": 1675,
      "ĠCh": 1676,
      "rest": 1677,
      "ãģĤãĤĬãģ¾ãģĻ": 1678,
      "Ġç§ģéģĶ": 1679,
      "Ġproble": 1680,
      "ģ¥": 1681,
      "ãģ®åı": 1682,
      "ģ¯": 1683,
      "og": 1684,
      "Ġmatter": 1685,
      "aut": 1686,
      "æĬ": 1687,
      "Ĳį": 1688,
      "ãĤĤãģ£ãģ¨": 1689,
      "çĤ": 1690,
      "Ġdec": 1691,
      "Ľ®": 1692,
      "ious": 1693,
      "ĠAs": 1694,
      "ãĥªãĤ«": 1695,
      "Ġä¸Ģ": 1696,
      "Ġrep": 1697,
      "aking": 1698,
      "ãģĻãģİ": 1699,
      "»Ĭ": 1700,
      "ãĤ¨": 1701,
      "ãģĵãģ¨ãĤĴ": 1702,
      "æĽľ": 1703,
      "les": 1704,
      "ull": 1705,
      "Ġäºº": 1706,
      "çŃ": 1707,
      "ĠæĪĳãĢħ": 1708,
      "ãģĲ": 1709,
      "å®ļ": 1710,
      "æŀ": 1711,
      "Ġjob": 1712,
      "ãģ«æĿ¥": 1713,
      "ı¾": 1714,
      "Ġstill": 1715,
      "Ġmet": 1716,
      "æķħ": 1717,
      "ãĢįãĢĮ": 1718,
      "çĦ¡": 1719,
      "ãģĦãģ¦ãģĦãĤĭ": 1720,
      "iss": 1721,
      "éŁ³": 1722,
      "ãĤµ": 1723,
      "ãĥ¼ãĤ¹": 1724,
      "Ġmon": 1725,
      "åĬŁ": 1726,
      "ince": 1727,
      "ãģ®æĸ": 1728,
      "ens": 1729,
      "Ġadv": 1730,
      "Ġclass": 1731,
      "rench": 1732,
      "iness": 1733,
      "Ġå½¼ãģ¯ç§ģ": 1734,
      "¥½": 1735,
      "Ġrec": 1736,
      "ãĥŀ": 1737,
      "ope": 1738,
      "Ġnews": 1739,
      "ç¬": 1740,
      "Ġbre": 1741,
      "orm": 1742,
      "ãģ¹ãģ¦": 1743,
      "çµĲ": 1744,
      "ãĤĵãģ©": 1745,
      "ĠFrench": 1746,
      "ĪĲ": 1747,
      "Ġå½¼ãģ®": 1748,
      "ĠNo": 1749,
      "è¨ĪçĶ»": 1750,
      "ãĤ§": 1751,
      "ãĤīãĤĮãģŁ": 1752,
      "iver": 1753,
      "Ġèª°": 1754,
      "ãģ¨ãĤĤ": 1755,
      "ĠWhy": 1756,
      "ert": 1757,
      "Ġdays": 1758,
      "¯İ": 1759,
      "ĭ¥": 1760,
      "Ġãģĵãģĵ": 1761,
      "ath": 1762,
      "åĽŀ": 1763,
      "get": 1764,
      "Ġbeaut": 1765,
      "ãģ«åı": 1766,
      "å½¼ãģ¯": 1767,
      "ãģĤãĤĬãģ¾ãģĻãģĭ": 1768,
      "Ġãģ©ãģĨ": 1769,
      "ister": 1770,
      "Ġfar": 1771,
      "Ġeas": 1772,
      "ĠãģĤãģªãģŁãģ¯": 1773,
      "æľĢ": 1774,
      "Ġsaw": 1775,
      "çĪ¶": 1776,
      "ãģľ": 1777,
      "ãĤĴèªŃ": 1778,
      "ãģ«å¯": 1779,
      "Ġche": 1780,
      "Ġgu": 1781,
      "ãĤ¢ãĥ¡": 1782,
      "Ĭ±": 1783,
      "ãģĹãģ¾ãģĹãģŁ": 1784,
      "ĠAre": 1785,
      "Ġperson": 1786,
      "ãģ£ãģ": 1787,
      "Ġtold": 1788,
      "ãĤĪãģĨãģ¨": 1789,
      "Ĳ½": 1790,
      "ĸãĤĬ": 1791,
      "Ġeven": 1792,
      "¬¡": 1793,
      "body": 1794,
      "Ġbuy": 1795,
      "è¶³": 1796,
      "Ġmar": 1797,
      "ãĤ¢ãĥ¡ãĥªãĤ«": 1798,
      "ãģĮãģĦãģĦ": 1799,
      "ãģ«ãĤĪ": 1800,
      "ĸ°ãģĹãģĦ": 1801,
      "æĶ": 1802,
      "Ġcle": 1803,
      "Ġlost": 1804,
      "Ġaround": 1805,
      "ĳī": 1806,
      "ãģłãģ¨": 1807,
      "Ġworld": 1808,
      "å·": 1809,
      "Ġsk": 1810,
      "Ġname": 1811,
      "çĶ±": 1812,
      "ork": 1813,
      "ãģ®åŃĲ": 1814,
      "ä»ĸ": 1815,
      "çķĮ": 1816,
      "ãĥĶ": 1817,
      "Ġfo": 1818,
      "ãģĵãģ®": 1819,
      "å¤ľ": 1820,
      "©ãģı": 1821,
      "Ġletter": 1822,
      "Ġown": 1823,
      "Ġwhere": 1824,
      "è¾¼": 1825,
      "te": 1826,
      "ished": 1827,
      "ord": 1828,
      "ened": 1829,
      "Ġparty": 1830,
      "Ġwatch": 1831,
      "Ġfound": 1832,
      "ãģĹãģ¦ãģĦãģ¾ãģĻ": 1833,
      "è§£": 1834,
      "åĳ½": 1835,
      "Ġbrother": 1836,
      "air": 1837,
      "ĠæĹ¥æľ¬": 1838,
      "ãģ¡ãĤī": 1839,
      "ãĥł": 1840,
      "ãĥ¼ãĥĨ": 1841,
      "ãģµ": 1842,
      "ä¸»": 1843,
      "ãģ¯ãģªãģĦ": 1844,
      "Ġfind": 1845,
      "Ġshow": 1846,
      "ä¸¡": 1847,
      "Ĺħæ°Ĺ": 1848,
      "ãģŀ": 1849,
      "ãģ¨ãģĹãģ¦": 1850,
      "Ġdiffic": 1851,
      "Ġdifficult": 1852,
      "é¢¨": 1853,
      "Ġãģ©": 1854,
      "Ġthought": 1855,
      "éģ¸": 1856,
      "Ġwater": 1857,
      "Ħ¡": 1858,
      "led": 1859,
      "Ľ½": 1860,
      "ãģ»ãģ¨": 1861,
      "ible": 1862,
      "Ġend": 1863,
      "ãģ¥": 1864,
      "ãģĿãĤĵãģª": 1865,
      "Ń¦æł¡": 1866,
      "Ġact": 1867,
      "äºĪ": 1868,
      "Ġdoor": 1869,
      "Ġarri": 1870,
      "Ġfriends": 1871,
      "Ġleave": 1872,
      "ãģĭãģªãģĦ": 1873,
      "alth": 1874,
      "æĸĩ": 1875,
      "Ġdrink": 1876,
      "ãĥ©ãĥ³ãĤ¹èªŀ": 1877,
      "ail": 1878,
      "ãĤĴãĤĦ": 1879,
      "Ġbelie": 1880,
      "Ġdri": 1881,
      "Ġaccident": 1882,
      "ãģ¼": 1883,
      "ãģĨãģ¡": 1884,
      "man": 1885,
      "Ġgl": 1886,
      "ãĤıãģªãģĦ": 1887,
      "ãģ¿ãĤĵãģª": 1888,
      "arent": 1889,
      "åĥį": 1890,
      "Ġper": 1891,
      "ĠWhere": 1892,
      "éĸĵéģķ": 1893,
      "¢º": 1894,
      "Ħı": 1895,
      "ãģ¯ãģ¨ãģ¦ãĤĤ": 1896,
      "Ġhour": 1897,
      "Ġexam": 1898,
      "ãĥĢ": 1899,
      "ãģ«ãģ¯æ": 1900,
      "è¿ĳ": 1901,
      "Ġdes": 1902,
      "ãĤĴå¾": 1903,
      "Ġwhile": 1904,
      "æĮģãģ¡": 1905,
      "±ãģĦ": 1906,
      "Ġwait": 1907,
      "ãģ¦ãģĦãģ¾ãģĻ": 1908,
      "ãģ»ãģ¨ãĤĵãģ©": 1909,
      "?\"": 1910,
      "ian": 1911,
      "ĠWho": 1912,
      "ãģ«ãģĦ": 1913,
      "Ġlear": 1914,
      "Ġpres": 1915,
      "ãĤ£ãĥ¼": 1916,
      "åĵ¡": 1917,
      "per": 1918,
      "ĥ¨å±ĭ": 1919,
      "»èĢħ": 1920,
      "Ġph": 1921,
      "Ġtry": 1922,
      "ĠSt": 1923,
      "¥³": 1924,
      "Ġhear": 1925,
      "ãĤĴåıĹ": 1926,
      "erest": 1927,
      "¶ļ": 1928,
      "åķı": 1929,
      "Ġvis": 1930,
      "ever": 1931,
      "ãģ«ä½ı": 1932,
      "ãģ¾ãģŁ": 1933,
      "ition": 1934,
      "éĽ¨ãģĮ": 1935,
      "Ġonce": 1936,
      "äºĭæķħ": 1937,
      "®Ł": 1938,
      "è£": 1939,
      "Ġthr": 1940,
      "ãĤĬãģ¾ãģĻ": 1941,
      "Ġproblem": 1942,
      "ãĤĴå¤": 1943,
      "åı£": 1944,
      "Ġmonth": 1945,
      "ffe": 1946,
      "æ²": 1947,
      "æİ": 1948,
      "æĽľæĹ¥": 1949,
      "ãģĮãģĦ": 1950,
      "ãģıãĤīãģĦ": 1951,
      "Ġwon": 1952,
      "Ġsur": 1953,
      "æ´»": 1954,
      "ĠåĲĽãģ¯": 1955,
      "Ġmind": 1956,
      "ĠHer": 1957,
      "Ġheard": 1958,
      "ãģĺãĤĥãģªãģĦ": 1959,
      "ãģĴãģŁ": 1960,
      "ĤªãģĦ": 1961,
      "æ¯į": 1962,
      "ãģįãģª": 1963,
      "Ġinterest": 1964,
      "¿ĥ": 1965,
      "Ġãģĵãģ®æ": 1966,
      "°ĳå¹´": 1967,
      "ãĥ³ãĥī": 1968,
      "ĠEvery": 1969,
      "Ġhot": 1970,
      "ãģ¨ãģĨ": 1971,
      "äº¬": 1972,
      "Ġey": 1973,
      "ãĥ¼ãĥł": 1974,
      "æŃ»": 1975,
      "cle": 1976,
      "èĥ½": 1977,
      "ľ°": 1978,
      "ãģ¾ãģ£ãģŁ": 1979,
      "ĠHave": 1980,
      "ãģ«å½¼": 1981,
      "æķĻ": 1982,
      "ised": 1983,
      "éĢļãĤĬ": 1984,
      "èī¯": 1985,
      "èĳī": 1986,
      "ãģłãĤĪ": 1987,
      "ãģ«è¡Įãģı": 1988,
      "ãģĵãĤĮ": 1989,
      "ub": 1990,
      "Ġmin": 1991,
      "è¦ļ": 1992,
      "èª¿": 1993,
      "ĠAll": 1994,
      "oh": 1995,
      "°´": 1996,
      "åħĪ": 1997,
      "ç´Ħ": 1998,
      "ħĪçĶŁ": 1999,
      "åĤ": 2000,
      "æ±º": 2001,
      "éĩİ": 2002,
      "ars": 2003,
      "ãĤĴæĽ¸": 2004,
      "ãĤīãĤĮ": 2005,
      "Ġever": 2006,
      "ä¸Ģäºº": 2007,
      "ĭéģĶ": 2008,
      "ãģĻãģ¹ãģ¦": 2009,
      "ãĤıãĤĮ": 2010,
      "æĸĻ": 2011,
      "Ġquest": 2012,
      "ner": 2013,
      "ķ°": 2014,
      "èĢĥãģĪ": 2015,
      "Ġair": 2016,
      "Ġthings": 2017,
      "ãģªãĤĵãģ¦": 2018,
      "Ġasked": 2019,
      "und": 2020,
      "çµĤ": 2021,
      "Ġcountry": 2022,
      "ness": 2023,
      "ãģ»ãģĨ": 2024,
      "ï¼Ķ": 2025,
      "ãĤģãĤĭ": 2026,
      "ĠãĥĪãĥłãģ¯ãĥ": 2027,
      "Ġfail": 2028,
      "we": 2029,
      "å§ĭ": 2030,
      "Ġbooks": 2031,
      "Ġunderst": 2032,
      "der": 2033,
      "ãĤĴå¼": 2034,
      "ee": 2035,
      "ãĤĴãģĹ": 2036,
      "ĠU": 2037,
      "ĠAmer": 2038,
      "ĠAmeric": 2039,
      "ãĤĴè¨": 2040,
      "ãĤĨ": 2041,
      "als": 2042,
      "ľł": 2043,
      "ãģ«ä¹Ĺ": 2044,
      "Ġbro": 2045,
      "Ġthrough": 2046,
      "Ġdoctor": 2047,
      "ãĤĩãģ£ãģ¨": 2048,
      "µ°": 2049,
      "åĸ": 2050,
      "Ń£": 2051,
      "ãģĭãĤīãģªãģĦ": 2052,
      "èĭ±èªŀ": 2053,
      "Ġsl": 2054,
      "Ġtrue": 2055,
      "æŃ³": 2056,
      "ced": 2057,
      "up": 2058,
      "ãĥĬ": 2059,
      "oke": 2060,
      "ĭīå¼·": 2061,
      "ç¨": 2062,
      "Ġcr": 2063,
      "Ġplace": 2064,
      "Ġcons": 2065,
      "Ġbeautif": 2066,
      "aw": 2067,
      "Ġmist": 2068,
      "èŃ°": 2069,
      "ĴãģĦ": 2070,
      "Ġsleep": 2071,
      "Ġsister": 2072,
      "ĠTo": 2073,
      "ife": 2074,
      "Ġwar": 2075,
      "Ġwind": 2076,
      "çĽ´": 2077,
      "è«ĸ": 2078,
      "ãĤ®": 2079,
      "ä¸Ģçķª": 2080,
      "ãģ¾ãģĹãģŁãģĭ": 2081,
      "Ġhappy": 2082,
      "arents": 2083,
      "Ġç§ģãģĮ": 2084,
      "ãģ¨ãģ¯": 2085,
      "oth": 2086,
      "Ġstation": 2087,
      "æľĿ": 2088,
      "ä¸ĸçķĮ": 2089,
      "ãģĳãģ©": 2090,
      "ady": 2091,
      "ĠMay": 2092,
      "ãĥ§ãĥ³": 2093,
      "¿ĳ": 2094,
      "ĹĽ": 2095,
      "Ġwom": 2096,
      "ãĥĪãĥ©": 2097,
      "Ġwhich": 2098,
      "ãĤĪãĤĬãĤĤ": 2099,
      "Ĺħè¡Į": 2100,
      "Ġbed": 2101,
      "éĻĲ": 2102,
      "ix": 2103,
      "ph": 2104,
      "av": 2105,
      "ãĥĩ": 2106,
      "Ġthese": 2107,
      "ãģįãģ¾ãģĻ": 2108,
      "Ġent": 2109,
      "äººãģ¯": 2110,
      "ä¼ļç¤¾": 2111,
      "ãģĭãģĭ": 2112,
      "arge": 2113,
      "ãģĬéĩĳ": 2114,
      "Ġbeautiful": 2115,
      "ãĥĦ": 2116,
      "pped": 2117,
      "Ġcouldn": 2118,
      "ãģ®ãģł": 2119,
      "ĠãĤĤãģĹ": 2120,
      "ï¼ĸ": 2121,
      "Ġans": 2122,
      "Ġlooking": 2123,
      "ff": 2124,
      "ĠæĺİæĹ¥": 2125,
      "Ġcomm": 2126,
      "du": 2127,
      "Ġåı": 2128,
      "Ġinc": 2129,
      "ĠçĪ¶": 2130,
      "èº«": 2131,
      "Ġstre": 2132,
      "Ġmeeting": 2133,
      "åľ¨": 2134,
      "éħį": 2135,
      "Ġable": 2136,
      "ä¾¡": 2137,
      "īĭç´Ļ": 2138,
      "éĢ£": 2139,
      "Ġseen": 2140,
      "æŃ£": 2141,
      "æ³ķ": 2142,
      "ãĤĴãģĬ": 2143,
      "å¸¸": 2144,
      "ä¿¡ãģĺ": 2145,
      "ãĥ¼ãĥĨãĤ£ãĥ¼": 2146,
      "Ġbig": 2147,
      "ĠãģĿãģ®ç": 2148,
      "ĠDid": 2149,
      "Ġå¤§": 2150,
      "Ġinv": 2151,
      "ãģĹãģŁãģĦ": 2152,
      "Ġsec": 2153,
      "¡Ī": 2154,
      "ãĥľ": 2155,
      "Ġcompany": 2156,
      "Ġmost": 2157,
      "Ġbir": 2158,
      "ãģĵãģĨ": 2159,
      "ãĤĴåĩº": 2160,
      "mb": 2161,
      "¨æĦı": 2162,
      "ãĤ°": 2163,
      "ãģĦãģ§": 2164,
      "ãĥ¬ãĥĵ": 2165,
      "Ġsing": 2166,
      "Ġmus": 2167,
      "Ġhigh": 2168,
      "Ġparents": 2169,
      "¬²": 2170,
      "Ġson": 2171,
      "ãģĿãģ®ç": 2172,
      "ĠãģĿãģ®è": 2173,
      "Ġbusiness": 2174,
      "Ġcalled": 2175,
      "Ġswim": 2176,
      "åĲĮãģĺ": 2177,
      "¬å½ĵ": 2178,
      "±Ĥ": 2179,
      "ãģ«ãģĹãģ¦": 2180,
      "ãĤīãĤĮãĤĭ": 2181,
      "ãģĤãģ¾ãĤĬ": 2182,
      "ãĤ¯ãĥ©": 2183,
      "å¯¾": 2184,
      "å°": 2185,
      "ĠOur": 2186,
      "å£«": 2187,
      "Ġfamily": 2188,
      "é¦": 2189,
      "Ġbought": 2190,
      "ãģ¡ãĤĩãģ£ãģ¨": 2191,
      "old": 2192,
      "ss": 2193,
      "ãĤĴé£Łãģ¹": 2194,
      "éĢ²": 2195,
      "Ġenough": 2196,
      "gg": 2197,
      "wer": 2198,
      "½ĵ": 2199,
      "è¨Ģèĳī": 2200,
      "Ġsure": 2201,
      "ãģ¬": 2202,
      "ãģĹãģªãģķãģĦ": 2203,
      "Ġhur": 2204,
      "Ġfood": 2205,
      "éĿŀ": 2206,
      "Ġid": 2207,
      "Ġstudents": 2208,
      "¿Ĵ": 2209,
      "Ĭ©": 2210,
      "vel": 2211,
      "çĶº": 2212,
      "å¯Ŀ": 2213,
      "ç¥": 2214,
      "Ġpain": 2215,
      "Ġimport": 2216,
      "łçĶ»": 2217,
      "ãĤĴãģ¨": 2218,
      "Ġstand": 2219,
      "ãģ«åĲĪ": 2220,
      "ces": 2221,
      "Ġseems": 2222,
      "ç·Ĵ": 2223,
      "ĪĲåĬŁ": 2224,
      "ãĤº": 2225,
      "ãģªãģıãģ¦": 2226,
      "ãĤīãģĹãģĦ": 2227,
      "é¤": 2228,
      "ĦŁ": 2229,
      "Ġset": 2230,
      "Ġfore": 2231,
      "ject": 2232,
      "Ġlik": 2233,
      "augh": 2234,
      "ater": 2235,
      "Ġsupp": 2236,
      "ģ«": 2237,
      "ãĥŁ": 2238,
      "iv": 2239,
      "¸°": 2240,
      "ãģ®ä¸Ĭ": 2241,
      "ret": 2242,
      "äº¤": 2243,
      "Ġreg": 2244,
      "ãģļãģ£ãģ¨": 2245,
      "ªåķı": 2246,
      "Ġob": 2247,
      "ical": 2248,
      "pr": 2249,
      "Ġbeh": 2250,
      "ross": 2251,
      "å¾Ĺ": 2252,
      "ĠBe": 2253,
      "æŃ¢": 2254,
      "å¸°": 2255,
      "è©¦é¨ĵ": 2256,
      "çľŁ": 2257,
      "éĢģ": 2258,
      "çĤ¹": 2259,
      "Ġunderstand": 2260,
      "µĤ": 2261,
      "ãģ¾ãģĹãĤĩãģĨ": 2262,
      "çĶŁæ´»": 2263,
      "ĭäºº": 2264,
      "ãģ«ãģĤãĤĭ": 2265,
      "ãģıãģªãģĦ": 2266,
      "ãĤ¬": 2267,
      "ãĤĴãģĹãģ¦ãģĦãĤĭ": 2268,
      "Ġearly": 2269,
      "ually": 2270,
      "ward": 2271,
      "orry": 2272,
      "åĵģ": 2273,
      "ģ¯åŃĲ": 2274,
      "ãģ£ãģ¦ãĤĭ": 2275,
      "Ġrest": 2276,
      "è¨ĺ": 2277,
      "uth": 2278,
      "å¤ļ": 2279,
      "çĶŁãģį": 2280,
      "åĳĬ": 2281,
      "Ġtired": 2282,
      "ãģĹãģĭãģ£ãģŁ": 2283,
      "ates": 2284,
      "ãĥ¡ãĤ¢ãĥªãĥ¼": 2285,
      "«Į": 2286,
      "Ġwin": 2287,
      "Ġanother": 2288,
      "æĹı": 2289,
      "éĽ¨ãģĮéĻį": 2290,
      "Ġhealth": 2291,
      "è©±ãģĹ": 2292,
      "ãģ£ãģ¦ãģįãģŁ": 2293,
      "ãģ®æĸ¹": 2294,
      "Ġyet": 2295,
      "è©±ãģĻ": 2296,
      "ãĤĤãģ®ãģł": 2297,
      "Ġlooked": 2298,
      "less": 2299,
      "Į«": 2300,
      "ãģ¯åı": 2301,
      "ãģ®æĻĤ": 2302,
      "Ġhimself": 2303,
      "åĦ": 2304,
      "ĠYour": 2305,
      "çļĦãģª": 2306,
      "lic": 2307,
      "ãģªãĤĭ": 2308,
      "å¸Ń": 2309,
      "æł¼": 2310,
      "éł¼": 2311,
      "ãģķãĤĮãĤĭ": 2312,
      "ãĤĴæİ": 2313,
      "Ġlooks": 2314,
      "ãģ¯ãģ©ãģĨ": 2315,
      "ons": 2316,
      "aught": 2317,
      "ru": 2318,
      "Ġser": 2319,
      "Ġfive": 2320,
      "ãģĻãĤĭãģ®": 2321,
      "Ġsmall": 2322,
      "Ġminut": 2323,
      "ãĤĴè¦ĭãģŁ": 2324,
      "Ġquite": 2325,
      "æŀľ": 2326,
      "Ġtried": 2327,
      "Ġrel": 2328,
      "çĲĥ": 2329,
      "Ġsince": 2330,
      "ãģķãĤĮ": 2331,
      "Ġits": 2332,
      "æĸ°": 2333,
      "Ġlearn": 2334,
      "ohn": 2335,
      "ãĥį": 2336,
      "ense": 2337,
      "Ġunt": 2338,
      "ĠJohn": 2339,
      "ãģ®éĥ¨å±ĭ": 2340,
      "Ġfew": 2341,
      "ãģĦãģ¾ãģĹãģŁ": 2342,
      "Ġsame": 2343,
      "Ġconc": 2344,
      "ãĥ³ãĤ°": 2345,
      "¶Ī": 2346,
      "Ġill": 2347,
      "ãĤīãĤĮãģªãģĦ": 2348,
      "Ġlight": 2349,
      "Ġsum": 2350,
      "é¡ĺ": 2351,
      "§ĺ": 2352,
      "ç¶ļ": 2353,
      "Ġweather": 2354,
      "éŃ": 2355,
      "ãģĮç§ģ": 2356,
      "éłŃ": 2357,
      "Ġbusy": 2358,
      "ĸ²": 2359,
      "ãģıãĤĮãĤĭ": 2360,
      "ĠAn": 2361,
      "ï¼Ļ": 2362,
      "æľī": 2363,
      "æ°´": 2364,
      "Ġdoing": 2365,
      "ãģ¯åį": 2366,
      "éĢŁ": 2367,
      "ãģĵãģ¨ãģĮãģ§ãģį": 2368,
      "Ġbreak": 2369,
      "ãģ«å¯¾": 2370,
      "Ġbelieve": 2371,
      "ä¸ĩ": 2372,
      "Ġang": 2373,
      "ãĤĴåĪ": 2374,
      "ãģ«çĿĢ": 2375,
      "ãģĭãĤĤãģĹ": 2376,
      "çĶ£": 2377,
      "ãģ¹ãģįãģł": 2378,
      "éĥ¨å±ĭ": 2379,
      "æı": 2380,
      "ãĤĴä½¿": 2381,
      "ãģĹãģ°": 2382,
      "ä»»": 2383,
      "Ġret": 2384,
      "Ġdep": 2385,
      "çĻ½": 2386,
      "Ġagainst": 2387,
      "Ġmusic": 2388,
      "Ġsho": 2389,
      "åĩºæĿ¥": 2390,
      "ºĢ": 2391,
      "aper": 2392,
      "æĦŁ": 2393,
      "ä»¥ä¸Ĭ": 2394,
      "è²·": 2395,
      "Ġpolice": 2396,
      "Ġ2": 2397,
      "ãģ®åĲį": 2398,
      "angu": 2399,
      "èħ": 2400,
      "Ġhead": 2401,
      "Ġãģĵãģ®ãĥ": 2402,
      "ãģ«è¡Įãģ£ãģŁ": 2403,
      "yo": 2404,
      "ãģªãĤĬ": 2405,
      "Ġpict": 2406,
      "æķ°": 2407,
      "ãģ¯èĩªåĪĨ": 2408,
      "ŃĮ": 2409,
      "ãĤĴãģĹãģ¦": 2410,
      "ç½": 2411,
      "è·": 2412,
      "ĠTok": 2413,
      "ided": 2414,
      "ãģ«ç«ĭ": 2415,
      "ered": 2416,
      "cept": 2417,
      "ãģ«ãģªãĤĬ": 2418,
      "éģĭè»¢": 2419,
      "æĥħ": 2420,
      "ãģ«ãģ¨": 2421,
      "Ġãģĵãģ®è": 2422,
      "åº·": 2423,
      "Ġtri": 2424,
      "ream": 2425,
      "Ġopen": 2426,
      "ģ¥åº·": 2427,
      "æľŁ": 2428,
      "éĽª": 2429,
      "uck": 2430,
      "Ġdone": 2431,
      "Ġtele": 2432,
      "åģ": 2433,
      "Ġele": 2434,
      "åĪ©": 2435,
      "Ġfact": 2436,
      "µģ": 2437,
      "Ġwond": 2438,
      "ãģªãģ®": 2439,
      "ãĤıãģĳ": 2440,
      "åİ": 2441,
      "åĪĿ": 2442,
      "Ġuntil": 2443,
      "ĠTokyo": 2444,
      "ãģ¾ãĤĭ": 2445,
      "ãģĨãģ¾": 2446,
      "å°ı": 2447,
      "Ļº": 2448,
      "ãģ¯ãģĬ": 2449,
      "Ġcity": 2450,
      "Ġstory": 2451,
      "ãĤıãĤĬ": 2452,
      "¿ĺ": 2453,
      "ĠWould": 2454,
      "Ġtown": 2455,
      "Ġæĺ¨æĹ¥": 2456,
      "Ġabs": 2457,
      "ction": 2458,
      "åĲĳ": 2459,
      "ãĥĻ": 2460,
      "ãģĮãĤī": 2461,
      "ĠSome": 2462,
      "ä»ĬæĹ¥": 2463,
      "Ġcoll": 2464,
      "Ĺè»Ĭ": 2465,
      "ceed": 2466,
      "Ġyourself": 2467,
      "Ġgetting": 2468,
      "ove": 2469,
      "pl": 2470,
      "»º": 2471,
      "ĦĽ": 2472,
      "ãģĹãĤĥ": 2473,
      "ĠåŃĲä¾Ľ": 2474,
      "Ġgame": 2475,
      "ä½ķãģĭ": 2476,
      "åĬ©": 2477,
      "åĩºãģĹãģŁ": 2478,
      "ä¸Ĭæīĭ": 2479,
      "ossible": 2480,
      "Ġlangu": 2481,
      "Ġeach": 2482,
      "éģł": 2483,
      "ä¸Ģç·Ĵ": 2484,
      "æķĹ": 2485,
      "åŃ¦æł¡": 2486,
      "Ġadd": 2487,
      "ted": 2488,
      "ä¸İ": 2489,
      "Ġface": 2490,
      "ãģªãĤĵãģł": 2491,
      "ãģĮè¦ĭ": 2492,
      "äºī": 2493,
      "ĠæľĢ": 2494,
      "æ¡Ī": 2495,
      "ãģ¯ãģ©ãģĵ": 2496,
      "å¯Ł": 2497,
      "iet": 2498,
      "é³": 2499,
      "ãģĮå¤§": 2500,
      "µ·ãģį": 2501,
      "Ġanswer": 2502,
      "ãĤĴãĤĤ": 2503,
      "ĠSh": 2504,
      "Ġref": 2505,
      "Ġcut": 2506,
      "Ġran": 2507,
      "Ġcomes": 2508,
      "Ĳ½ãģ¡": 2509,
      "ãĤ»": 2510,
      "ãģıãĤĭ": 2511,
      "ffee": 2512,
      "ew": 2513,
      "ãĥ¯": 2514,
      "cy": 2515,
      "ãģĦãģĨ": 2516,
      "Ġlarge": 2517,
      "ãģ§ãģĻãĤĪ": 2518,
      "ãĤıãģŁ": 2519,
      "osed": 2520,
      "Ġbab": 2521,
      "ors": 2522,
      "Ġå½¼å¥³ãģ¯ç": 2523,
      "Ġsun": 2524,
      "ãģĽãģ¦": 2525,
      "ĠãģĿãĤĵãģª": 2526,
      "oking": 2527,
      "éĥ½": 2528,
      "Ġreading": 2529,
      "åĨħ": 2530,
      "Ġdiffe": 2531,
      "é£Ľè¡Į": 2532,
      "ãģ«ãĤĪãģ£ãģ¦": 2533,
      "oon": 2534,
      "ģ·": 2535,
      "ł±": 2536,
      "ãģıãĤĬ": 2537,
      "ãģĦãģŁãģĦ": 2538,
      "ia": 2539,
      "ãĥ¼ãĥī": 2540,
      "åĭīå¼·": 2541,
      "Ġãģª": 2542,
      "Ġsnow": 2543,
      "ãģ®æĦı": 2544,
      "Ġwrong": 2545,
      "work": 2546,
      "ï½": 2547,
      "ations": 2548,
      "ccess": 2549,
      "ãģ²ãģ©": 2550,
      "Ġturned": 2551,
      "ãĤ½": 2552,
      "ãģĻãĤĮãģ°": 2553,
      "ract": 2554,
      "Ġeasy": 2555,
      "ĲĨ": 2556,
      "ãģªãģ£ãģŁ": 2557,
      "ãģĹãģ¦ãģıãģłãģķãģĦ": 2558,
      "å¾Ĵ": 2559,
      "Ġfell": 2560,
      "Įĩ": 2561,
      "Ġless": 2562,
      "ãģ¯åħ¨": 2563,
      "ãģĻãĤĭãģĵãģ¨": 2564,
      "éĻº": 2565,
      "Ġeyes": 2566,
      "ax": 2567,
      "ĭ¦": 2568,
      "åĮĸ": 2569,
      "±äº¬": 2570,
      "Ġpay": 2571,
      "Ġcoffee": 2572,
      "ä¸¡è¦ª": 2573,
      "±æķĹ": 2574,
      "ç©": 2575,
      "Ġsick": 2576,
      "ime": 2577,
      "ãģĿãģĨãģł": 2578,
      "Ġwonder": 2579,
      "ãĥĿ": 2580,
      "æĹ¥æľ¬": 2581,
      "ãĥīãĥ«": 2582,
      "Ń»": 2583,
      "ãģ¨è¨Ģ": 2584,
      "Ġnice": 2585,
      "æ°ĹãģĮ": 2586,
      "Ġstreet": 2587,
      "Ġãĥ¡ãĤ¢ãĥªãĥ¼": 2588,
      "æĪĳ": 2589,
      "Ġeverything": 2590,
      "Ġquestion": 2591,
      "æ§ĺ": 2592,
      "ä¸ī": 2593,
      "ãģįãģ¾ãģĹãģŁ": 2594,
      "åĪ¥": 2595,
      "ember": 2596,
      "æŁ": 2597,
      "Ġpoint": 2598,
      "az": 2599,
      "ãģĦãģł": 2600,
      "Ġthen": 2601,
      "¾Į": 2602,
      "Ģ¥": 2603,
      "ãģ«ãģĹãģŁ": 2604,
      "ason": 2605,
      "Ġæ¯į": 2606,
      "åıĸ": 2607,
      "Ġdisc": 2608,
      "æĿŁ": 2609,
      "Ĵãĥ¼": 2610,
      "ãģĪãģªãģĦ": 2611,
      "è¿Ķ": 2612,
      "Ġidea": 2613,
      "ç¦": 2614,
      "ĠãģĦ": 2615,
      "ĠAt": 2616,
      "med": 2617,
      "Ġsat": 2618,
      "ãĤīãģļ": 2619,
      "ãĤĴåĲ": 2620,
      "ãĤĴæĬ": 2621,
      "ãĤĴæķĻ": 2622,
      "ween": 2623,
      "¹¸": 2624,
      "oud": 2625,
      "äººãģĮ": 2626,
      "ç¾İ": 2627,
      "Ġhope": 2628,
      "Ġfire": 2629,
      "çĶ³": 2630,
      "ãĤĴæī": 2631,
      "ãģ¯ãģ©": 2632,
      "ãĥİ": 2633,
      "Ġwish": 2634,
      "ãĤĭãģĵãģ¨": 2635,
      "Ġsuc": 2636,
      "åı¯": 2637,
      "è¦ªåĪĩ": 2638,
      "ãģĦãģªãģĦ": 2639,
      "ready": 2640,
      "Ġstop": 2641,
      "ãģ®ãģ§ãģĻãģĮ": 2642,
      "Ġwords": 2643,
      "Ġsucceed": 2644,
      "çľł": 2645,
      "Ġnum": 2646,
      "Ġshort": 2647,
      "åīįãģ«": 2648,
      "Ġmov": 2649,
      "ĪĨ": 2650,
      "ãģĵãģ®å": 2651,
      "Ġind": 2652,
      "Ġtrave": 2653,
      "Ġalready": 2654,
      "ãģ¡ãĤĥãĤĵ": 2655,
      "Ġimportant": 2656,
      "ple": 2657,
      "¹´": 2658,
      "éľ": 2659,
      "Ġinf": 2660,
      "ĠWill": 2661,
      "Ġtrou": 2662,
      "Ġbaby": 2663,
      "ike": 2664,
      "ĲãĤ¹": 2665,
      "ä»¶": 2666,
      "Ġriver": 2667,
      "Ġå½¼å¥³ãģ¯å½¼": 2668,
      "éĽĨ": 2669,
      "ãĥ¼ãĥĴãĥ¼": 2670,
      "Ġsuccess": 2671,
      "Ġfinished": 2672,
      "ĭ¥ãģĦ": 2673,
      "ãģĭãĤĤãģĹãĤĮãģªãģĦ": 2674,
      "ģĲ": 2675,
      "Ġmiss": 2676,
      "Ġdress": 2677,
      "ãĥ³ãĥĪ": 2678,
      "åľĴ": 2679,
      "æ¨": 2680,
      "ãģ¯ä¸Ģ": 2681,
      "ãģĮãģĤãģ£ãģŁ": 2682,
      "Ġmen": 2683,
      "ï¼ĺ": 2684,
      "éĽ¢": 2685,
      "åĭĻ": 2686,
      "åĥķ": 2687,
      "Į»èĢħ": 2688,
      "Ġlist": 2689,
      "Ġprom": 2690,
      "å¹³": 2691,
      "rent": 2692,
      "ãģ£ãģĭãĤĬ": 2693,
      "ãģıãģ®": 2694,
      "Ġmyself": 2695,
      "ä¸ĬãģĮ": 2696,
      "raid": 2697,
      "Ġvisit": 2698,
      "Ġwife": 2699,
      "ãģĤãģĴ": 2700,
      "ĠãĥĪãĥłãģ¯æ": 2701,
      "ãģ¯ãģĦãģĳãģªãģĦ": 2702,
      "é«ĺãģĦ": 2703,
      "ĥĮ": 2704,
      "ãģĮãģĤãĤĬãģ¾ãģĻ": 2705,
      "Ġwanted": 2706,
      "Ġafraid": 2707,
      "Ġbecome": 2708,
      "so": 2709,
      "Ġhaving": 2710,
      "anger": 2711,
      "Ġflow": 2712,
      "ãģ°ãģĭãĤĬ": 2713,
      "lt": 2714,
      "Ġfree": 2715,
      "Ġem": 2716,
      "æľ¬å½ĵ": 2717,
      "ä¿Ĥ": 2718,
      "ãģĭãĤı": 2719,
      "ï¼Ĺ": 2720,
      "ãĤĴæīĭ": 2721,
      "Ġalone": 2722,
      "Ġbuild": 2723,
      "ãģĮå¥½ãģįãģł": 2724,
      "Ġlikes": 2725,
      "èµ°": 2726,
      "Ķ¯": 2727,
      "ãĤĴå®": 2728,
      "Ġtimes": 2729,
      "ä¿º": 2730,
      "ĩ¸": 2731,
      "Ġfast": 2732,
      "ãģ®åį": 2733,
      "ãģ§ãģĻãģŃ": 2734,
      "çĶŁå¾Ĵ": 2735,
      "Ġago": 2736,
      "ķãģį": 2737,
      "ãĤĴä½ľ": 2738,
      "ãģĭãģĮ": 2739,
      "Ġdoll": 2740,
      "ãģ«æ°Ĺ": 2741,
      "å½¼ãĤī": 2742,
      "é£Ľè¡Įæ©Ł": 2743,
      "èī²": 2744,
      "ãģĹãģ¿": 2745,
      "ital": 2746,
      "ï¼Ĳï¼Ĳ": 2747,
      "ience": 2748,
      "ªģ": 2749,
      "é»": 2750,
      "ings": 2751,
      "Ġæĺ": 2752,
      "æľĽ": 2753,
      "çµĲå©ļ": 2754,
      "ç¾": 2755,
      "ãģ«ãģ¯ç": 2756,
      "orn": 2757,
      "ãģ¦ãģĦãģªãģĦ": 2758,
      "ĠãĤ³": 2759,
      "é§ħ": 2760,
      "ared": 2761,
      "ball": 2762,
      "Ġsit": 2763,
      "ãĥ¼ãĤ¿ãĥ¼": 2764,
      "ä¸ĬãģĴ": 2765,
      "Ġoffice": 2766,
      "Ġwrite": 2767,
      "ĢĿãģĦ": 2768,
      "Ġsurpr": 2769,
      "Ġsummer": 2770,
      "act": 2771,
      "®ĭ": 2772,
      "Ġtruth": 2773,
      "Ġcoming": 2774,
      "å¼µ": 2775,
      "Ġbetween": 2776,
      "ãĥĭãĤ¹": 2777,
      "ãĤĴé£²": 2778,
      "Ġfish": 2779,
      "Ġthose": 2780,
      "çĶŁãģ¾": 2781,
      "Ġhours": 2782,
      "Ġgoes": 2783,
      "ãģ£ãģ¦ãģĦãģªãģĦ": 2784,
      "Ġexpect": 2785,
      "ãĥķãĥ©ãĥ³ãĤ¹èªŀ": 2786,
      "ãģ®ä¸Ńãģ§": 2787,
      "Ġmarried": 2788,
      "Ġpresent": 2789,
      "Ġminutes": 2790,
      "joy": 2791,
      "å¤©": 2792,
      "ħĦ": 2793,
      "Ĩ±": 2794,
      "ãģķãĤĮãģ¦ãģĦãĤĭ": 2795,
      "å±±": 2796,
      "éļĽ": 2797,
      "ãģ¯åĲĽ": 2798,
      "Ġnear": 2799,
      "æ®µ": 2800,
      "Ġarrived": 2801,
      "Ġgi": 2802,
      "Ġgone": 2803,
      "å¹¸": 2804,
      "å¿µ": 2805,
      "ãĤ·ãĥ¼": 2806,
      "aid": 2807,
      "å¦": 2808,
      "çĬ": 2809,
      "ãģ«éĸ¢": 2810,
      "ãĤĴéĸĭ": 2811,
      "ãģ£ãģıãĤĬ": 2812,
      "ä¾¿": 2813,
      "Ġothers": 2814,
      "ãģ«ãģĦãĤĭ": 2815,
      "ç§ĳ": 2816,
      "ãģ¨æĢĿãģĦãģ¾ãģĻ": 2817,
      "é¡ŀ": 2818,
      "éĿŀå¸¸": 2819,
      "çı¾": 2820,
      "ãģŁãĤī": 2821,
      "ãĥ¼ãĤ¯": 2822,
      "ä½ķãĤĤ": 2823,
      "Ġå½¼å¥³ãģ¯ç§ģ": 2824,
      "ĠOn": 2825,
      "æĹ©ãģı": 2826,
      "¯İæĹ¥": 2827,
      "éĤª": 2828,
      "ãģªãģĮãĤī": 2829,
      "Ġins": 2830,
      "Ġsub": 2831,
      "ĠCould": 2832,
      "Ġbegan": 2833,
      "ĩ¸åĳ½": 2834,
      "cess": 2835,
      "ient": 2836,
      "oc": 2837,
      "è©¦åĲĪ": 2838,
      "éĽ£ãģĹãģĦ": 2839,
      "ãģĿãģ®è": 2840,
      "ãĤĴè¦ĭãģ¤": 2841,
      "Ġstarted": 2842,
      "dd": 2843,
      "Ġsorry": 2844,
      "ãģĭãģĦ": 2845,
      "ãģ§ãģĤãģ£ãģŁ": 2846,
      "Ġcaught": 2847,
      "ãģ£ãģŁãĤī": 2848,
      "ãģ«æ³": 2849,
      "lain": 2850,
      "Ġå½¼ãģ®å": 2851,
      "èªį": 2852,
      "Ġorder": 2853,
      "inner": 2854,
      "ä¸Ģåº¦": 2855,
      "çĶŁæ": 2856,
      "Ġwhy": 2857,
      "ĠãģĿãĤĮãģ¯": 2858,
      "æħ¢": 2859,
      "nis": 2860,
      "¼Ķ": 2861,
      "Ġå½¼ãģ®æ": 2862,
      "Ġheart": 2863,
      "Ġå½¼å¥³ãģĮ": 2864,
      "Ń¦çĶŁ": 2865,
      "Ġremember": 2866,
      "æ·": 2867,
      "ãģ®éĸĵ": 2868,
      "æĻ©": 2869,
      "Ġmakes": 2870,
      "llow": 2871,
      "ãģ«å¿": 2872,
      "Ġlives": 2873,
      "æĸŃ": 2874,
      "ular": 2875,
      "Ġwhe": 2876,
      "Ġcatch": 2877,
      "ģåĪĨ": 2878,
      "ħãģļ": 2879,
      "Ġsent": 2880,
      "ãģįãģŁãģĦ": 2881,
      "ãģ¤ãģĭ": 2882,
      "Ġalong": 2883,
      "Ġhum": 2884,
      "ħĻ": 2885,
      "Ġliving": 2886,
      "uring": 2887,
      "ãģĮæĿ¥": 2888,
      "ãģŁãĤģãģ«": 2889,
      "¥½ãģį": 2890,
      "ĠTV": 2891,
      "ics": 2892,
      "ãĥªãĤ¢": 2893,
      "Ġchange": 2894,
      "å£°": 2895,
      "æħĭ": 2896,
      "Ġreturn": 2897,
      "ç©º": 2898,
      "ī©": 2899,
      "ãģ¯ä»Ĭ": 2900,
      "Ġfull": 2901,
      "ĠNot": 2902,
      "ĠãĤ¢": 2903,
      "Ġmight": 2904,
      "Ġbroke": 2905,
      "cl": 2906,
      "ãģ«ãģĭ": 2907,
      "Ġpark": 2908,
      "æľį": 2909,
      "ãģ®çµ": 2910,
      "ãģ¿ãģŁãģĦ": 2911,
      "æ°ĳ": 2912,
      "Ġenjoy": 2913,
      "¬ł": 2914,
      "ãģ«è¦ĭ": 2915,
      "rew": 2916,
      "ãĤĭãĤĪ": 2917,
      "è¡Įãģı": 2918,
      "iction": 2919,
      "éĢ±éĸĵ": 2920,
      "çĽ¸": 2921,
      "é©ļ": 2922,
      "ãĥ»ãĥ»": 2923,
      "app": 2924,
      "īĩ": 2925,
      "ĭĿ": 2926,
      "Ġtennis": 2927,
      "çĶ³ãģĹ": 2928,
      "ºĹ": 2929,
      "ãģŁãģł": 2930,
      "ĠåĪ": 2931,
      "Ġcase": 2932,
      "unch": 2933,
      "åĢ¤": 2934,
      "Ġresult": 2935,
      "used": 2936,
      "çĶ°": 2937,
      "éĸī": 2938,
      "ãĤĵãģ§ãģĦãģŁ": 2939,
      "ãĤĴåıĸ": 2940,
      "Ġplaying": 2941,
      "éģİãģİ": 2942,
      "·Ŀ": 2943,
      "ãĤĵãģ§ãģĻ": 2944,
      "ãģ«å¸°": 2945,
      "è¡Įãģ£ãģŁ": 2946,
      "ãĤĦãĤĬ": 2947,
      "ãĥı": 2948,
      "icy": 2949,
      "orts": 2950,
      "ãģ¯æľ¬å½ĵ": 2951,
      "ãģ«ãģ¨ãģ£ãģ¦": 2952,
      "Ġnumber": 2953,
      "ç¢º": 2954,
      "ĭķ": 2955,
      "Į¶": 2956,
      "Ġter": 2957,
      "Ġfall": 2958,
      "ention": 2959,
      "ãĥ¼ãĥĦ": 2960,
      "ãĤĴåıĸãĤĬ": 2961,
      "èª¬æĺİ": 2962,
      "Ġwoman": 2963,
      "ĠãģĶ": 2964,
      "ĠSund": 2965,
      "Ġmean": 2966,
      "åįĺ": 2967,
      "ual": 2968,
      "ination": 2969,
      "ener": 2970,
      "ãģĪãģ°": 2971,
      "ä¼¼": 2972,
      "Ġpoor": 2973,
      "Ġtrouble": 2974,
      "..": 2975,
      "Ġsal": 2976,
      "Ġmed": 2977,
      "ĠãģĿãģ®ãĥ": 2978,
      "èĢĥ": 2979,
      "Ġbegin": 2980,
      "Ġpicture": 2981,
      "åĿ": 2982,
      "ãģ¯ãģļ": 2983,
      "Ġç§ģãģ®": 2984,
      "Ġsol": 2985,
      "Ġearth": 2986,
      "Ġç§ģãģ¯å½¼å¥³": 2987,
      "ãĤĴæĮģãģ£ãģ¦ãģĦãĤĭ": 2988,
      "¿é¡Į": 2989,
      "ĢĴ": 2990,
      "ãģłãĤĮ": 2991,
      "å¤«": 2992,
      "ãĤĴè¦ĭãģ¦": 2993,
      "Ġcomple": 2994,
      "ĴĮ": 2995,
      "ãģ¯å®": 2996,
      "éģĬ": 2997,
      "Ġãĥĳ": 2998,
      "Ġfelt": 2999,
      "ãģ®å¤§": 3000,
      "Ġfollow": 3001,
      "pect": 3002,
      "ãģ¤ãģĦ": 3003,
      "Ġreal": 3004,
      "é£Łäºĭ": 3005,
      "å¸«": 3006,
      "Ġfav": 3007,
      "ãģ²ãģ¨": 3008,
      "ç¬ĳ": 3009,
      "Ġwindow": 3010,
      "é¡ĺãģĦ": 3011,
      "ron": 3012,
      "ħ¬": 3013,
      "Ġsight": 3014,
      "ash": 3015,
      "ãģ«ãģªãģ£ãģ¦": 3016,
      "ĠèĩªåĪĨ": 3017,
      "Ġangry": 3018,
      "å°ĳãģĹ": 3019,
      "èĤ²": 3020,
      "ĢĥãģĪ": 3021,
      "ãģĮãĤĪãģĦ": 3022,
      "ane": 3023,
      "±ºãģĹãģ¦": 3024,
      "Ġï¼ĳ": 3025,
      "ãģĹãģªãģĳãĤĮãģ°ãģªãĤīãģªãģĦ": 3026,
      "Ġdist": 3027,
      "Ġå½¼ãģ¯èĩªåĪĨ": 3028,
      "å®¢": 3029,
      "Ġhappened": 3030,
      "é¡Ķ": 3031,
      "èĩ": 3032,
      "ãĥļ": 3033,
      "Ġcook": 3034,
      "ãģķãģĪ": 3035,
      "ãģĳãģ¾ãģĽãĤĵ": 3036,
      "äººãģ®": 3037,
      "ãģĽãģŁ": 3038,
      "ãĤĪãģĨãģł": 3039,
      "ung": 3040,
      "ĠãĥĪãĥłãģ¯ãĥ¡ãĤ¢ãĥªãĥ¼": 3041,
      "ib": 3042,
      "ªåĬĽ": 3043,
      "Ġsays": 3044,
      "Ġbit": 3045,
      "Ġdied": 3046,
      "Ġdream": 3047,
      "è¨³": 3048,
      "è¨Ģãģ£ãģ¦": 3049,
      "éĻ¢": 3050,
      "åŃĲä¾Ľ": 3051,
      "ãģĮå¥½ãģįãģ§ãģĻ": 3052,
      "Ġtravel": 3053,
      "åķıé¡Į": 3054,
      "ased": 3055,
      "ãĤĤãģªãģĦ": 3056,
      "Ġheav": 3057,
      "ãģ©ãģĨãģĭ": 3058,
      "°ĳå¥³": 3059,
      "Ġroad": 3060,
      "Ġwrit": 3061,
      "èŃĺ": 3062,
      "ãģ®åĲįåīį": 3063,
      "port": 3064,
      "Ġtable": 3065,
      "Ġnat": 3066,
      "ãģĪãģ¦ãģĦãĤĭ": 3067,
      "road": 3068,
      "è©±ãģĽ": 3069,
      "ãģ«è¿": 3070,
      "Ġlanguage": 3071,
      "¾ŀ": 3072,
      "Ķ¿": 3073,
      "Ġage": 3074,
      "ĠãĥĨ": 3075,
      "ãĥ¬ãĤ¹": 3076,
      "ãĤĴåıĹãģĳ": 3077,
      "±éĻº": 3078,
      "ãģªãģĹ": 3079,
      "ision": 3080,
      "Ġãģĵãģ®æľ¬": 3081,
      "ertain": 3082,
      "¬²ãģĹãģĦ": 3083,
      "ãģ§æ": 3084,
      "ãģĮå¿ħè¦ģ": 3085,
      "ĠThese": 3086,
      "Ġred": 3087,
      "æīķ": 3088,
      "Ġhomework": 3089,
      "Ġsmoking": 3090,
      "Ġdecided": 3091,
      "éŁ³æ¥½": 3092,
      "ier": 3093,
      "ãĥ¼ãĤ¸": 3094,
      "Ġhair": 3095,
      "Ġstore": 3096,
      "å¤ļãģı": 3097,
      "ĠAf": 3098,
      "aken": 3099,
      "Ń¦å¯Ł": 3100,
      "ãĤ³ãĥ³": 3101,
      "ī¯ãģĦ": 3102,
      "ize": 3103,
      "ãĤ¯ãĥ©ãĤ¹": 3104,
      "most": 3105,
      "§ī": 3106,
      "éĬ": 3107,
      "ating": 3108,
      "Ġdinner": 3109,
      "ãģ«åĪ": 3110,
      "Ġpret": 3111,
      "ned": 3112,
      "ĻçľŁ": 3113,
      "Ġsix": 3114,
      "Ġãĥķ": 3115,
      "osp": 3116,
      "Ġworking": 3117,
      "æĪ¦": 3118,
      "å£²": 3119,
      "Ġkept": 3120,
      "Ġhands": 3121,
      "ªĵ": 3122,
      "Ġåį": 3123,
      "éĽ»è»Ĭ": 3124,
      "ts": 3125,
      "«ª": 3126,
      "Ġ3": 3127,
      "ãĤĴãģĭ": 3128,
      "ãĤıãģ£ãģŁ": 3129,
      "åºĹ": 3130,
      "Ġagree": 3131,
      "ountain": 3132,
      "è¡ĵ": 3133,
      "ãĥ¼ãĥĸ": 3134,
      "éĩįè¦ģ": 3135,
      "Ġmil": 3136,
      "ãģįãģªãģķãģĦ": 3137,
      "Ġdeath": 3138,
      "éĸ¢ä¿Ĥ": 3139,
      "ures": 3140,
      "Ġphone": 3141,
      "é¤¨": 3142,
      "èį": 3143,
      "èµ·ãģį": 3144,
      "ĠãģĦãģ¤": 3145,
      "ãĤĭãģĭ": 3146,
      "ãģĮå½¼": 3147,
      "Ġhon": 3148,
      "Ġinter": 3149,
      "ãĤıãģŁãģĹ": 3150,
      "ç¦ı": 3151,
      "º§": 3152,
      "ãģ¨åĲĮãģĺ": 3153,
      "Ġcry": 3154,
      "Ġlived": 3155,
      "å®ī": 3156,
      "ĻĤéĸĵ": 3157,
      "ãĤĦãģĻ": 3158,
      "æĢ¥": 3159,
      "ming": 3160,
      "Ġfine": 3161,
      "ãģłãģĭãĤī": 3162,
      "ãģ«å¾": 3163,
      "çµĮ": 3164,
      "oint": 3165,
      "ç¿Ĵ": 3166,
      "Ġtall": 3167,
      "Ġå®¶": 3168,
      "ãĤīãģĦ": 3169,
      "ãĤīãģªãģĭãģ£ãģŁ": 3170,
      "Ġgrow": 3171,
      "åĬł": 3172,
      "Ġcor": 3173,
      "ãģ®æīĭ": 3174,
      "ãĤĵãģłãĤĪ": 3175,
      "éķ·ãģĦ": 3176,
      "çĶŁæĩ¸åĳ½": 3177,
      "ıĲ": 3178,
      "ãĥ¼ãĥ³": 3179,
      "ãĥĲãĤ¹": 3180,
      "ãģıãģªãģ£ãģŁ": 3181,
      "èĮ¶": 3182,
      "ãģ«ãģĻãĤĭ": 3183,
      "ãģ¨ãģĹãģŁ": 3184,
      "Ġfun": 3185,
      "Ġç§ģãģ®å": 3186,
      "åĪ¤": 3187,
      "illed": 3188,
      "Ġtalking": 3189,
      "è·¯": 3190,
      "Ġtrip": 3191,
      "vent": 3192,
      "Ġpen": 3193,
      "ãģ¡ãĤĩãģĨ": 3194,
      "ãģ®è»Ĭ": 3195,
      "ãĤĴçĿĢ": 3196,
      "Ġknows": 3197,
      "ĠOne": 3198,
      "Ġadvice": 3199,
      "ç«": 3200,
      "Ī¦": 3201,
      "Į¯": 3202,
      "its": 3203,
      "Ġstrong": 3204,
      "ãĥ¢": 3205,
      "Ġcour": 3206,
      "ãģ®æĹ¥": 3207,
      "ears": 3208,
      "ĠNew": 3209,
      "ãģ¨æĢĿãģ£ãģŁ": 3210,
      "æ²»": 3211,
      "ffic": 3212,
      "éĢĶ": 3213,
      "cial": 3214,
      "Ġbag": 3215,
      "ãĤĴå°": 3216,
      "Ġå½¼ãģ¯ãģĿãģ®": 3217,
      "ï¼ŁãĢįãĢĮ": 3218,
      "Ġexper": 3219,
      "åħĪçĶŁ": 3220,
      "¨ĺ": 3221,
      "ĸ¬": 3222,
      "ãģ®ãģ¨ãģĵãĤį": 3223,
      "ãģĹãĤĪãģĨ": 3224,
      "Ġç§ģãģ®ç": 3225,
      "è¦³": 3226,
      "å±Ģ": 3227,
      "æĦĽ": 3228,
      "Ġfavor": 3229,
      "Ġsound": 3230,
      "Ġmountain": 3231,
      "Ġcap": 3232,
      "Ġdanger": 3233,
      "Ġple": 3234,
      "ãĤ¤ãĥĪ": 3235,
      "iew": 3236,
      "ãģ®ãģŁãĤģãģ«": 3237,
      "çİ": 3238,
      "çĬ¬": 3239,
      "ãģ¦ãģŁ": 3240,
      "Ġpop": 3241,
      "ãģ®éł": 3242,
      "ãĤĴå¿ĺ": 3243,
      "ãģ©ãĤĵãģª": 3244,
      "amp": 3245,
      "Ġãĥŀ": 3246,
      "ãĤĴè¿": 3247,
      "Ġchar": 3248,
      "Ġwants": 3249,
      "ãĤĴèģŀãģĦãģ¦": 3250,
      "Ġbirth": 3251,
      "Ġhaven": 3252,
      "ries": 3253,
      "Ġè²": 3254,
      "olog": 3255,
      "Ġbecame": 3256,
      "ĠAmerica": 3257,
      "ched": 3258,
      "Ġsto": 3259,
      "äººéĸĵ": 3260,
      "äºĭå®Ł": 3261,
      "è¨ĢãĤı": 3262,
      "Ġspee": 3263,
      "ãģ«å¤§": 3264,
      "Īå¾Į": 3265,
      "Ŀ±äº¬": 3266,
      "ŃĶ": 3267,
      "ãģ¯èª°": 3268,
      "æµ·": 3269,
      "ĭãĥ¥": 3270,
      "ãģ«ä½ķ": 3271,
      "ãģ«éĽ»è©±": 3272,
      "Ġdiction": 3273,
      "ãĤīãĤĮãģ¦ãģĦãĤĭ": 3274,
      "Ġabroad": 3275,
      "Ġconf": 3276,
      "æ³³": 3277,
      "ĠãĤ¸ãĥ§ãĥ³": 3278,
      "aughter": 3279,
      "Ġdark": 3280,
      "Ġrich": 3281,
      "Ġãĥľ": 3282,
      "ãĥĥãĥĹ": 3283,
      "åĳ¼": 3284,
      "Ġbrought": 3285,
      "ãĥĨãĥ«": 3286,
      "Ġgrand": 3287,
      "æĥ³": 3288,
      "è«ĩ": 3289,
      "Ġinteresting": 3290,
      "Ġforeign": 3291,
      "Ġtaking": 3292,
      "ãĤĤãģªãģı": 3293,
      "ç§ĺ": 3294,
      "å¥½": 3295,
      "åĪ»": 3296,
      "ãģ®éĿ": 3297,
      "ãģ£ãģ¦ãģĦãģ¾ãģĻãģĭ": 3298,
      "aged": 3299,
      "ages": 3300,
      "é¦¬": 3301,
      "æĭ": 3302,
      "Ġtax": 3303,
      "ãģĦãģ¾ãģĻãģĭ": 3304,
      "Ġmom": 3305,
      "ãģ¨è¨Ģãģ£ãģŁ": 3306,
      "ĠãĥĪãĥłãģ¯å": 3307,
      "ended": 3308,
      "Ġalso": 3309,
      "Ġcarry": 3310,
      "ĠUn": 3311,
      "åł±": 3312,
      "ither": 3313,
      "ãĤĴæŃ": 3314,
      "å®ħ": 3315,
      "ãģĤãĤĬãģĮ": 3316,
      "Ġopin": 3317,
      "è»¢è»Ĭ": 3318,
      "ãģ«ä¼ļãģ£ãģŁ": 3319,
      "èģ·": 3320,
      "ãģ«ãģĤ": 3321,
      "ãĤĴãģĭãģĳ": 3322,
      "ãģĮãģªãģĭãģ£ãģŁ": 3323,
      "Ġlunch": 3324,
      "ãģĵãģ¨ãģł": 3325,
      "Ġwear": 3326,
      "ãĤĪãģĨãģ«æ": 3327,
      "å¸Ĥ": 3328,
      "ãĤ¿ãĤ¤": 3329,
      "oice": 3330,
      "ĳãģĦ": 3331,
      "ĸåĽ½": 3332,
      "Ľ´": 3333,
      "Ġty": 3334,
      "ãģ¯ãĤĤãģĨ": 3335,
      "ãģĦãģ¦ãģĦãģŁ": 3336,
      "ently": 3337,
      "ĠThank": 3338,
      "åĩºçĻº": 3339,
      "Ġstudying": 3340,
      "ial": 3341,
      "ys": 3342,
      "ç®": 3343,
      "Ġå½¼ãģ¯å½¼å¥³": 3344,
      "ãģįãĤĬ": 3345,
      "Ġanim": 3346,
      "Ġadm": 3347,
      "Ġswe": 3348,
      "ãģ¸è¡Įãģı": 3349,
      "ãģĨãģ¾ãģı": 3350,
      "ior": 3351,
      "éĥ": 3352,
      "ãģ®ä»ķäºĭ": 3353,
      "ĠåĨ": 3354,
      "Ġlaw": 3355,
      "ote": 3356,
      "ãģ¿ãģª": 3357,
      "å¿Ļ": 3358,
      "Ġtem": 3359,
      "Ġå½¼ãĤīãģ¯æ": 3360,
      "å½¼å¥³ãģ¯": 3361,
      "Ġmaking": 3362,
      "Ġtrans": 3363,
      "æ³¨æĦı": 3364,
      "åįĬ": 3365,
      "Ġwhether": 3366,
      "Ġspeech": 3367,
      "bed": 3368,
      "½®": 3369,
      "ãĥ¼ãĤŃ": 3370,
      "Ġãģĵãģ®ç": 3371,
      "éĢĥ": 3372,
      "ãĥ¼ãĥĹ": 3373,
      "æ°ı": 3374,
      "ãģ¯æľĢ": 3375,
      "µĲå©ļ": 3376,
      "Ġwaiting": 3377,
      "Ġsecret": 3378,
      "å¤ļãģĦ": 3379,
      "èĤ": 3380,
      "Ġfour": 3381,
      "Ġel": 3382,
      "ãģ£ãģ¦ãģĹãģ¾ãģ£ãģŁ": 3383,
      "äººãģ®å": 3384,
      "ility": 3385,
      "Ġext": 3386,
      "Ġcost": 3387,
      "ãĥĽ": 3388,
      "ãģ¨ãģĭ": 3389,
      "ãĤĮãģ¦ãģĦãģŁ": 3390,
      "Ġinst": 3391,
      "ãģĿãģ®ãĥ": 3392,
      "è©©": 3393,
      "Ġaccount": 3394,
      "éĺ": 3395,
      "Ġap": 3396,
      "ãģ®è©±": 3397,
      "Ġhold": 3398,
      "ãģªãģĦãģ§": 3399,
      "imes": 3400,
      "è¡¨": 3401,
      "ãĤĴä¸İ": 3402,
      "ãģ®åĨ": 3403,
      "Ġreason": 3404,
      "rop": 3405,
      "ãĥªãĤ¹": 3406,
      "ãģĵãģ¨ãģĮãģĤãĤĭ": 3407,
      "ĠFor": 3408,
      "Ġart": 3409,
      "èħ¹": 3410,
      "ĠãĤ¹": 3411,
      "ķé£Ł": 3412,
      "Ġhosp": 3413,
      "ãģĹãģŁãĤī": 3414,
      "Ġexc": 3415,
      "ãĤ·ãĥ£": 3416,
      "ãĤĴå¾Ĺ": 3417,
      "Ī»": 3418,
      "Ġå®": 3419,
      "ĠåħĪçĶŁ": 3420,
      "ãģĭãģĹ": 3421,
      "ãĤīãģ£ãģŁ": 3422,
      "ets": 3423,
      "éĻ¤": 3424,
      "Ġclot": 3425,
      "¡Ķ": 3426,
      "çĸ²": 3427,
      "ãģ®ãĤĪãģĨãģ«": 3428,
      "ãģ£ãģ¡": 3429,
      "Ġduring": 3430,
      "å¤§ãģª": 3431,
      "ãĤ¹ãĥĪãĥ³": 3432,
      "ĠSunday": 3433,
      "Ĺ©": 3434,
      "ãĤ´": 3435,
      "Ġsense": 3436,
      "Ġforget": 3437,
      "æĻĤãģ«": 3438,
      "ãĤ³ãĥ¼ãĥĴãĥ¼": 3439,
      "èŃ·": 3440,
      "Ġclear": 3441,
      "åĤĻ": 3442,
      "çĹħæ°Ĺ": 3443,
      "ĭ¬": 3444,
      "ĺłçĶ»": 3445,
      "Ġton": 3446,
      "Ġboth": 3447,
      "ãģ®åīį": 3448,
      "ãģ¯æĹ¥æľ¬": 3449,
      "ĠMany": 3450,
      "Ġkne": 3451,
      "éĻ½": 3452,
      "éłĥ": 3453,
      "Ġdifferent": 3454,
      "±±": 3455,
      "ãģĹãģªãģĭãģ£ãģŁ": 3456,
      "Ġwasn": 3457,
      "Ġusually": 3458,
      "Ġclim": 3459,
      "Ġlonger": 3460,
      "åĦª": 3461,
      "¤ãģĦ": 3462,
      "ãĤ¶": 3463,
      "ãģ®ä¸Ģ": 3464,
      "ãģŁãĤĬ": 3465,
      "ãģ¦ãģıãģłãģķãģĦ": 3466,
      "ãģĮåĩº": 3467,
      "ãģ¾ãģ¾": 3468,
      "ãĤĪãģĭãģ£ãģŁ": 3469,
      "Ġru": 3470,
      "ãĤıãģĭ": 3471,
      "ends": 3472,
      "Ġdel": 3473,
      "Ġmovie": 3474,
      "åĴĮ": 3475,
      "ĠãģĻ": 3476,
      "Ġpat": 3477,
      "ĠãĥĪãĥłãģĮ": 3478,
      "ãģ¾ãģĽãĤĵãģ§ãģĹãģŁ": 3479,
      "Ġalmost": 3480,
      "Ł¥ãĤīãģĽ": 3481,
      "ĠBost": 3482,
      "éĻįãĤĬ": 3483,
      "Ġmistake": 3484,
      "ĠBoston": 3485,
      "¢Ĺ": 3486,
      "çĹĽ": 3487,
      "Ġtre": 3488,
      "ãģ¯ãģĿãģ®": 3489,
      "ãĤĴåĳ": 3490,
      "äººãģł": 3491,
      "å®ĺ": 3492,
      "å½¹": 3493,
      "®ãĤī": 3494,
      "ĠãģŁ": 3495,
      "ãģĭãģ«": 3496,
      "ãģ¯æĢĿ": 3497,
      "Ġspe": 3498,
      "Ġacross": 3499,
      "Ġdrive": 3500,
      "Ġdictionary": 3501,
      "Ġhospital": 3502,
      "ãģ¨ä¸Ģç·Ĵ": 3503,
      "æĸ¹ãģĮãģĦãģĦ": 3504,
      "ĠãģĵãĤĮãĤī": 3505,
      "ç¤¼": 3506,
      "Ġä½ķãģĭ": 3507,
      "å§ĭãĤģãģŁ": 3508,
      "Ġteleph": 3509,
      "įå¯¾": 3510,
      "ãģªãģ©": 3511,
      "Ġbase": 3512,
      "è¨±": 3513,
      "Ġheavy": 3514,
      "Ġ5": 3515,
      "ãģĻãģ¹ãģį": 3516,
      "ãģķãģª": 3517,
      "ãĥ©ãĤ¤": 3518,
      "ĠãĤ±": 3519,
      "Ġaccept": 3520,
      "çĬ¶": 3521,
      "ãģĮãģ¤": 3522,
      "Ġmine": 3523,
      "å®³": 3524,
      "éĢĢ": 3525,
      "ãģ¯ç§ģãģŁãģ¡": 3526,
      "æ¸Ī": 3527,
      "ãĤĴè¨ª": 3528,
      "ãģ¯ãĤĦ": 3529,
      "ãĤĭãģłãĤįãģĨ": 3530,
      "ãģĮãģĤ": 3531,
      "ãĤĴç«ĭ": 3532,
      "åı·": 3533,
      "Ġchang": 3534,
      "ãģ«è²": 3535,
      "fect": 3536,
      "ãģĮèµ·ãģĵ": 3537,
      "ãģ¾ãģ£ãģŁãģı": 3538,
      "uss": 3539,
      "amed": 3540,
      "Ġquick": 3541,
      "ãģķãģĽãģŁ": 3542,
      "åŁ": 3543,
      "Ġtree": 3544,
      "Ġyen": 3545,
      "Ġpur": 3546,
      "ãģ®åĪ": 3547,
      "ĠSm": 3548,
      "è¦ı": 3549,
      "é§Ħ": 3550,
      "Ġclean": 3551,
      "Ġbehind": 3552,
      "łĤ": 3553,
      "Ġpian": 3554,
      "åħĥ": 3555,
      "Ġnovel": 3556,
      "Ġknown": 3557,
      "åĭĿ": 3558,
      "ãģ£ãģ±": 3559,
      "con": 3560,
      "æ£": 3561,
      "æĤª": 3562,
      "Ġtest": 3563,
      "ãģĹãģ¾ãģĹãĤĩãģĨ": 3564,
      "Ġolder": 3565,
      "Ġsaying": 3566,
      "æĿ¯": 3567,
      "ãģĻãģİãĤĭ": 3568,
      "ĠAfter": 3569,
      "Ġtonight": 3570,
      "¹¿": 3571,
      "è¬": 3572,
      "èµ·ãģĵ": 3573,
      "Ī¹": 3574,
      "ãģ¯ãģĤ": 3575,
      "Ġtoget": 3576,
      "aster": 3577,
      "Ġpaper": 3578,
      "Ġtra": 3579,
      "ãĤŃãĥ¼": 3580,
      "ä¼ĳãģ¿": 3581,
      "Ġhotel": 3582,
      "ãģĤãĤĬãģĮãģ¨ãģĨ": 3583,
      "Ġtogether": 3584,
      "ãĤ¡": 3585,
      "ãģ®ãĤĪãģĨãģª": 3586,
      "Ġside": 3587,
      "ĠTake": 3588,
      "ãĤĴæ±Ĥ": 3589,
      "ãĤįãģĦ": 3590,
      "èª°ãĤĤ": 3591,
      "éĩİçĲĥ": 3592,
      "Ġcomplete": 3593,
      "¶Ļ": 3594,
      "Īæ¥Ń": 3595,
      "Ġdou": 3596,
      "æŃĮ": 3597,
      "Ġspeaking": 3598,
      "ãģĻãģĲãģ«": 3599,
      "ãģ§ãģĹãĤĩãģĨãģĭ": 3600,
      "éħĴ": 3601,
      "ãģ¸è¡Įãģ£ãģŁ": 3602,
      "éģİãģĶ": 3603,
      "æĶ¿": 3604,
      "äºĪå®ļ": 3605,
      "Ġfailed": 3606,
      "Ġmoment": 3607,
      "çħĻ": 3608,
      "è¼": 3609,
      "Ġãģķ": 3610,
      "ãģ¯ãģĦãģ¤ãĤĤ": 3611,
      "ãĤĴä¸Ģ": 3612,
      "ãģĨãģ®": 3613,
      "ãģ©ãĤĤ": 3614,
      "ustom": 3615,
      "Ġè»Ĭ": 3616,
      "ĠCome": 3617,
      "å¯Ĩ": 3618,
      "åĢĻ": 3619,
      "æ¯įãģķãĤĵ": 3620,
      "èī¯ãģĦ": 3621,
      "ger": 3622,
      "Ġpossible": 3623,
      "è¦ĭãģŁ": 3624,
      "ãģ®çĽ®": 3625,
      "è¨ĢãģĦ": 3626,
      "ĠEven": 3627,
      "ãģĮæĤªãģĦ": 3628,
      "ãģĵãģ¨ãģĮãģ§ãģįãĤĭ": 3629,
      "ãĥĳãĥ¼ãĥĨãĤ£ãĥ¼": 3630,
      "£æŃ©": 3631,
      "æ¬¡": 3632,
      "Ġsong": 3633,
      "oup": 3634,
      "ãĤĴæ¥½": 3635,
      "ãģ®è²": 3636,
      "Ġteam": 3637,
      "éĿĻ": 3638,
      "Ġsomeone": 3639,
      "Ġwhole": 3640,
      "ãĥĨãĥ¬ãĥĵ": 3641,
      "Ġaftern": 3642,
      "åĨĨ": 3643,
      "ãĤ¹ãĥĿ": 3644,
      "Ġfinish": 3645,
      "é³´": 3646,
      "Ġbuilding": 3647,
      "Ġpri": 3648,
      "Ġpub": 3649,
      "ãĤĪãĤį": 3650,
      "Ġeff": 3651,
      "Ġseat": 3652,
      "Ġç§ģéģĶãģ¯": 3653,
      "ãģ£ãģ±ãģĦ": 3654,
      "ãģ®æĦıè¦ĭ": 3655,
      "Ġdollars": 3656,
      "åĿĬ": 3657,
      "br": 3658,
      "©¦": 3659,
      "Ġhor": 3660,
      "Ġcertain": 3661,
      "Ġpick": 3662,
      "ä½Ļ": 3663,
      "éģ©": 3664,
      "Ġnecess": 3665,
      "Ġshall": 3666,
      "ants": 3667,
      "ä¿Ŀ": 3668,
      "Ġcareful": 3669,
      "Ġexamination": 3670,
      "ãģ¡ãĤĩãģĨãģ©": 3671,
      "½ãģĦ": 3672,
      "ĺĺ": 3673,
      "Ľ°": 3674,
      "ŁãĤĬ": 3675,
      "ãģ§ãģĤ": 3676,
      "Ġprop": 3677,
      "Ġ19": 3678,
      "ãĤĴåĪĩ": 3679,
      "ç¾©": 3680,
      "ãĥ¼ãĥĸãĥ«": 3681,
      "Ġafternoon": 3682,
      "Ġãģ¾": 3683,
      "ãģĭãĤĮ": 3684,
      "Ġdet": 3685,
      "Ġrather": 3686,
      "Ġç§ģãģ¯ãģĤãģªãģŁ": 3687,
      "èĢģ": 3688,
      "ãĥ£ãĥ³": 3689,
      "ized": 3690,
      "ĲĮ": 3691,
      "ĠãģĿãģĨ": 3692,
      "Ġuncle": 3693,
      "ä¾¡åĢ¤": 3694,
      "Īåĳ³": 3695,
      "ãģ¯ãģ¾ãģł": 3696,
      "Ġdaughter": 3697,
      "Ġforg": 3698,
      "åº§": 3699,
      "ĠãģĤãģªãģŁãģĮ": 3700,
      "Ġeveryone": 3701,
      "éĻĲãĤĬ": 3702,
      "Ġlisten": 3703,
      "ead": 3704,
      "æľ«": 3705,
      "äºĭãģĮ": 3706,
      "ãģ«è³": 3707,
      "itting": 3708,
      "éĿ¢çĻ½": 3709,
      "°¡": 3710,
      "Ġtick": 3711,
      "ãģ§å½¼": 3712,
      "Ġborn": 3713,
      "ush": 3714,
      "ä¸ĢçĶŁæĩ¸åĳ½": 3715,
      "Ġherself": 3716,
      "åŃĹ": 3717,
      "ãĤĴçµĤ": 3718,
      "Ġworked": 3719,
      "æļĩ": 3720,
      "Ġclothes": 3721,
      "ined": 3722,
      "Ġopp": 3723,
      "Ġrece": 3724,
      "ä½į": 3725,
      "å®¤": 3726,
      "éĽĳ": 3727,
      "ãģ«ãģªãģ£ãģ¦ãģĦãĤĭ": 3728,
      "ä¼ļèŃ°": 3729,
      "ãģŃãģ°": 3730,
      "è¡Ĩ": 3731,
      "ä»¥åīį": 3732,
      "Ġpassed": 3733,
      "clock": 3734,
      "ĽæĪĲ": 3735,
      "Ġsign": 3736,
      "ãĤĴåĭīå¼·": 3737,
      "äººãĢħ": 3738,
      "ãģĬãĤĬ": 3739,
      "è¨¼": 3740,
      "ãģĻãĤĭãģ¨": 3741,
      "ĠFr": 3742,
      "ç¥ŀ": 3743,
      "ured": 3744,
      "ãģıãģ¦": 3745,
      "ç§ģãģ«": 3746,
      "æľ¨": 3747,
      "Ġkn": 3748,
      "Ġsudd": 3749,
      "Ġwhite": 3750,
      "ãģªãĤīãģªãģĭãģ£ãģŁ": 3751,
      "ãģĵãģ¨ãģĮãģªãģĦ": 3752,
      "ãģ¨ãģĦãģĨãģĵãģ¨": 3753,
      "Ġpost": 3754,
      "000": 3755,
      "Ġglass": 3756,
      "Ġbird": 3757,
      "Ġwinter": 3758,
      "Ġshoes": 3759,
      "Ġsudden": 3760,
      "ale": 3761,
      "°çĿĢ": 3762,
      "¼·": 3763,
      "¿Ģ": 3764,
      "æĹħè¡Į": 3765,
      "Ġãģ¡ãĤĩãģ£ãģ¨": 3766,
      "Ġmeans": 3767,
      "Ġèĭ±èªŀ": 3768,
      "Ġclose": 3769,
      "çŁ¥ãĤĬ": 3770,
      "ãģıãĤĮãģ¾ãģĽãĤĵãģĭ": 3771,
      "Ġstrange": 3772,
      "åİ»": 3773,
      "Ġbaseball": 3774,
      "Ġbank": 3775,
      "ãģ¯å®¶": 3776,
      "Ġgets": 3777,
      "éĩĳæĮģãģ¡": 3778,
      "Ġcomput": 3779,
      "ãģĿãģ®åķıé¡Į": 3780,
      "åĢĴ": 3781,
      "Ġãģ©ãĤĵãģª": 3782,
      "ç¨®": 3783,
      "åı¯èĥ½": 3784,
      "ºĸ": 3785,
      "»ŀ": 3786,
      "ç§ģãģĮ": 3787,
      "ĠSp": 3788,
      "ãģ©ãģ¡ãĤī": 3789,
      "ãĤıãģĭãĤīãģªãģĦ": 3790,
      "Ġãĥī": 3791,
      "æĪ»": 3792,
      "Ġleg": 3793,
      "ãĥĨãĥĭãĤ¹": 3794,
      "Ġfamous": 3795,
      "ãĤĴå®Ī": 3796,
      "Ġãģį": 3797,
      "īĽ": 3798,
      "Ġtaken": 3799,
      "ãģĹãĤĪãģĨãģ¨": 3800,
      "Ġfut": 3801,
      "ãģ¯å¿": 3802,
      "ãĥªãĥ³": 3803,
      "Ġexpens": 3804,
      "æħ£": 3805,
      "è³ª": 3806,
      "Ĭ©ãģĳ": 3807,
      "io": 3808,
      "Ĺ©ãģı": 3809,
      "Ġå¯": 3810,
      "Ġheld": 3811,
      "irt": 3812,
      "å®Ī": 3813,
      "ĠBut": 3814,
      "Ġprodu": 3815,
      "ĠåĲĽãģĮ": 3816,
      "ĠãģĵãĤĮãģ¯": 3817,
      "Ġplane": 3818,
      "éĸĵéģķãģĦ": 3819,
      "Ġopinion": 3820,
      "dy": 3821,
      "¬ä»»": 3822,
      "´Ħ": 3823,
      "ãģĦãģª": 3824,
      "ãģ«éģħ": 3825,
      "ãĤĴãģĤ": 3826,
      "ott": 3827,
      "ä»²": 3828,
      "èª¤": 3829,
      "Ġworth": 3830,
      "ãģ§ãģįãģªãģĭãģ£ãģŁ": 3831,
      "ä¿®": 3832,
      "ãģĭãģªãĤĬ": 3833,
      "ãĤ±ãĥĥãĥĪ": 3834,
      "ãĥ³ãĥīãĥ³": 3835,
      "ªģçĦ¶": 3836,
      "Ġhonest": 3837,
      "by": 3838,
      "ĸľ": 3839,
      "ãģĮãģĦãĤĭ": 3840,
      "Ġhalf": 3841,
      "Ġsea": 3842,
      "ä¼ļãģ£ãģŁ": 3843,
      "Ġdead": 3844,
      "Ġview": 3845,
      "Ġlead": 3846,
      "ãģłãģĳãģ§": 3847,
      "µĲæŀľ": 3848,
      "Ġtelephone": 3849,
      "Ġtraffic": 3850,
      "ric": 3851,
      "å«Į": 3852,
      "įµ": 3853,
      "ļĹ": 3854,
      "ãģ¯ãģªãĤīãģªãģĦ": 3855,
      "Ġcrow": 3856,
      "ãģŁãģ¡ãģ¯": 3857,
      "ãģĺãģŁ": 3858,
      "å¿ĺ": 3859,
      "ĠLond": 3860,
      "Ġbox": 3861,
      "ãĤĴå¾ħ": 3862,
      "ãģ«å¯¾ãģĹãģ¦": 3863,
      "Ġcolle": 3864,
      "Ġinform": 3865,
      "ĠLondon": 3866,
      "fer": 3867,
      "åĩ": 3868,
      "èµ¤": 3869,
      "Ġed": 3870,
      "ãģĹãĤĩ": 3871,
      "ãģ«åº§": 3872,
      "éĸĵãģ«åĲĪ": 3873,
      "Ġdeal": 3874,
      "Ġanyone": 3875,
      "ãģĿãģ®ä»ķäºĭ": 3876,
      "ãģ¤ãĤĤãĤĬãģ§ãģĻ": 3877,
      "çĪ¶ãģķãĤĵ": 3878,
      "ãģ«ä½ıãĤĵãģ§ãģĦãĤĭ": 3879,
      "Ġsurprised": 3880,
      "½¢": 3881,
      "æ±Ĥ": 3882,
      "Ġlater": 3883,
      "ãģ¯åĪ": 3884,
      "Ġass": 3885,
      "ained": 3886,
      "Ġbring": 3887,
      "æ³£": 3888,
      "hip": 3889,
      "æĤ": 3890,
      "Ġhung": 3891,
      "ower": 3892,
      "è¦ĸ": 3893,
      "å¤±": 3894,
      "ĠAl": 3895,
      "ãĤ¤ãĤ¹": 3896,
      "åı°": 3897,
      "osition": 3898,
      "ump": 3899,
      "Ġspeaks": 3900,
      "ĠKen": 3901,
      "Ġcollege": 3902,
      "fast": 3903,
      "where": 3904,
      "ķĨ": 3905,
      "vern": 3906,
      "pping": 3907,
      "åħī": 3908,
      "Ġchair": 3909,
      "ãĥĥãĥī": 3910,
      "ãģŃãģŁ": 3911,
      "æĿ¥ãģŁ": 3912,
      "ãģ«åĲĳ": 3913,
      "ç½ª": 3914,
      "Ġmedic": 3915,
      "¨ª": 3916,
      "âĢ": 3917,
      "ķçĶŁ": 3918,
      "Ġtakes": 3919,
      "ask": 3920,
      "ãģłãģĮ": 3921,
      "ãģ¯æ³": 3922,
      "èªķçĶŁ": 3923,
      "Ġchance": 3924,
      "Ġaff": 3925,
      "ĠWhich": 3926,
      "ãĤĴæİ¢": 3927,
      "ived": 3928,
      "èĥĮ": 3929,
      "ĠãĤĦ": 3930,
      "İŁ": 3931,
      "łĶ": 3932,
      "ony": 3933,
      "Ġhat": 3934,
      "Ġforward": 3935,
      "irty": 3936,
      "ãģ§ãģ¯ãģĤãĤĬãģ¾ãģĽãĤĵ": 3937,
      "åĽ³": 3938,
      "ªéĻ½": 3939,
      "Ġï¼Ĵ": 3940,
      "ãģ¦ãĤĭ": 3941,
      "Ġcur": 3942,
      "ities": 3943,
      "Ġpie": 3944,
      "oto": 3945,
      "ãģ®åĬ": 3946,
      "ĠãģĵãĤĵãģª": 3947,
      "right": 3948,
      "ĠãĥŃ": 3949,
      "Ġquiet": 3950,
      "ãĥ³ãĤµ": 3951,
      "ãģ®ãģĵãģ¨ãĤĴ": 3952,
      "ĠChin": 3953,
      "ying": 3954,
      "æĴ": 3955,
      "Ġbicy": 3956,
      "era": 3957,
      "ãģıãģ¨": 3958,
      "Ġgener": 3959,
      "ute": 3960,
      "ãģ¯çĦ¡": 3961,
      "ãĤ¯ãĥª": 3962,
      "åŃ¦çĶŁ": 3963,
      "rence": 3964,
      "Ġbreakfast": 3965,
      "Ġflowers": 3966,
      "Ġpretty": 3967,
      "Ġfuture": 3968,
      "side": 3969,
      "´Ĺ": 3970,
      "¶Ĭ": 3971,
      "Ġtou": 3972,
      "ãģ«ãģĦãģŁ": 3973,
      "rell": 3974,
      "Ġgard": 3975,
      "ãģ®å®": 3976,
      "ude": 3977,
      "Ġblack": 3978,
      "ãĤĨãĤĭ": 3979,
      "°¡åįĺ": 3980,
      "ļĨ": 3981,
      "ãģ®ãĤĤãģ®": 3982,
      "ãģ§ãģªãģĦ": 3983,
      "Ġmark": 3984,
      "Ġcol": 3985,
      "ãĤĴæį": 3986,
      "ãĤĴæľ": 3987,
      "åıĭéģĶ": 3988,
      "ĠPeople": 3989,
      "une": 3990,
      "Ġvac": 3991,
      "itten": 3992,
      "æ®ĭ": 3993,
      "ivers": 3994,
      "ºĢè¶³": 3995,
      "Ġmedicine": 3996,
      "bt": 3997,
      "ring": 3998,
      "¥ŀ": 3999,
      "ģ´": 4000,
      "Ġfron": 4001,
      "Ġpast": 4002,
      "ãĤĴçŁ¥ãģ£ãģ¦ãģĦãĤĭ": 4003,
      "ç¬¬": 4004,
      "Ġdesk": 4005,
      "Ġwall": 4006,
      "Ġhit": 4007,
      "Ġlaugh": 4008,
      "ãĤīãģĭ": 4009,
      "ãĤıãĤĮãĤĭ": 4010,
      "å½¢": 4011,
      "Ġevening": 4012,
      "Ġwomen": 4013,
      "land": 4014,
      "Ġtast": 4015,
      "Ġcent": 4016,
      "ãĤıãģĽ": 4017,
      "ĠLook": 4018,
      "ĠéĿ": 4019,
      "ãĤĴæīĭä¼Ŀ": 4020,
      "band": 4021,
      "¦¹": 4022,
      "Ġfool": 4023,
      "äºĴãģĦ": 4024,
      "ilt": 4025,
      "ists": 4026,
      "Ġå½¼ãĤīãģ¯å": 4027,
      "ä¸ĸè©±": 4028,
      "é£²ãģ¿": 4029,
      "Ġeasily": 4030,
      "ç©¶": 4031,
      "Ġknew": 4032,
      "ĠãĤĤãģ£ãģ¨": 4033,
      "ãģ¯ãĤĪãģı": 4034,
      "ãģ®äºĭ": 4035,
      "ãģĭãģĴ": 4036,
      "ãĥ³ãĤ¸": 4037,
      "ãģĬãģĨ": 4038,
      "ãģĹãģ¦ä¸ĭãģķãģĦ": 4039,
      "ĠNow": 4040,
      "ãģĿãĤĮãĤĴ": 4041,
      "æ¸¯": 4042,
      "çŃī": 4043,
      "ç´ĦæĿŁ": 4044,
      "Ġfront": 4045,
      "ĸĳ": 4046,
      "oun": 4047,
      "ĠWith": 4048,
      "ãĤĴæĢĿãģĦ": 4049,
      "ãĤĦãģ£ãģŁ": 4050,
      "ãĤ¢ãĥİ": 4051,
      "åŃĺ": 4052,
      "ãģĦãģĦãģ§ãģĻãģĭ": 4053,
      "ĠDoes": 4054,
      "ãĤĴè²·ãģ£ãģŁ": 4055,
      "mbrell": 4056,
      "łĶç©¶": 4057,
      "Ġbicycle": 4058,
      "ling": 4059,
      "¹³": 4060,
      "ãģ£ãģįãĤĬ": 4061,
      "ãģįãĤĮ": 4062,
      "ĠæĿ¥": 4063,
      "Ġumbrell": 4064,
      "Ġgovern": 4065,
      "Ġvill": 4066,
      "Ġworks": 4067,
      "æīĭç´Ļ": 4068,
      "Ġfault": 4069,
      "çŁ¥ãĤīãģªãģĦ": 4070,
      "Ġstopped": 4071,
      "aur": 4072,
      "Ġbur": 4073,
      "ãģĹãģŁãģ®": 4074,
      "usband": 4075,
      "Ġæ¬¡": 4076,
      "ãĤıãĤĮãģŁ": 4077,
      "ĠãĥĪãĥłãģ¨": 4078,
      "ä¸Ńãģ§": 4079,
      "ãģ«ä½ıãĤĵãģ§": 4080,
      "ãģ²ãģ©ãģĦ": 4081,
      "Ġbirthday": 4082,
      "Ġumbrella": 4083,
      "ç¸": 4084,
      "isf": 4085,
      "Ġcup": 4086,
      "ãģĨãĤĮ": 4087,
      "äº¡": 4088,
      "Ġdeep": 4089,
      "çµ±": 4090,
      "ï¼ĵï¼Ĳ": 4091,
      "Ġsometimes": 4092,
      "ully": 4093,
      "¥³æĢ§": 4094,
      "Ġaddress": 4095,
      "½¹": 4096,
      "åīĩ": 4097,
      "ç¯": 4098,
      "ãģ®è¨ĢãģĨ": 4099,
      "ãĤĵåĿĬ": 4100,
      "ãĤĴæ¸": 4101,
      "rib": 4102,
      "Ġthinking": 4103,
      "ãĤĴæĮģãģ£ãģ¦": 4104,
      "Ġeating": 4105,
      "Ġwalked": 4106,
      "ĠæľĢè¿ĳ": 4107,
      "ãĤĴæķĻãģĪãģ¦": 4108,
      "Ġgarden": 4109,
      "å©¦": 4110,
      "Ġãģ©ãģĵ": 4111,
      "Ġsil": 4112,
      "ãģĭãģ©ãģĨãģĭ": 4113,
      "Ġpract": 4114,
      "ãģ¯æĿ¥": 4115,
      "Ġæĺ¨": 4116,
      "Ġaren": 4117,
      "Ġshop": 4118,
      "åıĸãĤĬ": 4119,
      "åĬ´": 4120,
      "ãĤ«ãĥ¼": 4121,
      "Ġhappen": 4122,
      "ãģ¤ãĤĤãĤĬãģł": 4123,
      "ç§ĳåŃ¦": 4124,
      "Ġsim": 4125,
      "ãĤĴãģ²": 4126,
      "ãĤīãģı": 4127,
      "ãģ£ãģ¦ãģıãģłãģķãģĦ": 4128,
      "Ġeng": 4129,
      "Ġready": 4130,
      "ĠKe": 4131,
      "éģĭåĭķ": 4132,
      "Ġpolit": 4133,
      "ĠæĪĳãĢħãģ¯": 4134,
      "Ġsky": 4135,
      "Ġsecond": 4136,
      "éŃļ": 4137,
      "ãĤĦãģĻãģĦ": 4138,
      "¸Ĥ": 4139,
      "ç²": 4140,
      "ãģ®ãģĤãĤĭ": 4141,
      "Ġhusband": 4142,
      "enty": 4143,
      "èĢ³": 4144,
      "ä¼ļãģĦ": 4145,
      "åĩºãģĻ": 4146,
      "çµ¦": 4147,
      "Ġå½¼ãģ¯æľ": 4148,
      "ãģªãĤĬãģ¾ãģĽãĤĵ": 4149,
      "ef": 4150,
      "eal": 4151,
      "³ªåķı": 4152,
      "åĥ": 4153,
      "è±": 4154,
      "ãĤĴè©±ãģĻ": 4155,
      "Ġå®Ł": 4156,
      "Ġcross": 4157,
      "outh": 4158,
      "Ġship": 4159,
      "æĻĤä»£": 4160,
      "ãģ¯èĩª": 4161,
      "ãģ¨æĢĿãģ£ãģ¦ãģĦãĤĭ": 4162,
      "ably": 4163,
      "Ġrunning": 4164,
      "Ġmistakes": 4165,
      "gr": 4166,
      "ged": 4167,
      "lves": 4168,
      "¡¨": 4169,
      "é«ª": 4170,
      "ĠãģĻãģĲ": 4171,
      "ŁãĤ¹": 4172,
      "ãĥ¶": 4173,
      "ãģĭãģĳãģŁ": 4174,
      "ãģ®åĳ": 4175,
      "ãĤıãģĭãģ£ãģŁ": 4176,
      "ãĤ¤ãĥ«": 4177,
      "ately": 4178,
      "æĪĲåĬŁ": 4179,
      "Ġslow": 4180,
      "Ġcrowd": 4181,
      "ĠäºĮ": 4182,
      "ato": 4183,
      "ider": 4184,
      "è¡Įãģį": 4185,
      "ãģ¯çŁ¥": 4186,
      "åħ·": 4187,
      "ãĤĴè¦ĭãĤĭ": 4188,
      "Ġprice": 4189,
      "Ġcheck": 4190,
      "Ġfoot": 4191,
      "Ġwatching": 4192,
      "ãģ«ä¹ĹãĤĬ": 4193,
      "Ġelect": 4194,
      "ãĤıãģĳãģ§ãģ¯ãģªãģĦ": 4195,
      "Ġelse": 4196,
      "bit": 4197,
      "µĮ": 4198,
      "ãĤĴãģĹãģ¦ãģĦãģŁ": 4199,
      "è¡Įåĭķ": 4200,
      "ĠãģĤãģ®": 4201,
      "ãĤĴè§£": 4202,
      "Ġallow": 4203,
      "ãģłãĤįãģĨãģĭ": 4204,
      "¾ŀæĽ¸": 4205,
      "ãģ«å¾ĵ": 4206,
      "Ġpiano": 4207,
      "èĬ±": 4208,
      "Ģ¤": 4209,
      "Ġcam": 4210,
      "Ġpea": 4211,
      "ãģ¯åĩº": 4212,
      "idd": 4213,
      "Ġç©º": 4214,
      "ĠEx": 4215,
      "ãĥ¡ãĥ©": 4216,
      "Ġå¤©": 4217,
      "çŁ¥ãģ£ãģ¦ãģĦãĤĭ": 4218,
      "éģĵè·¯": 4219,
      "ãĤĴèªŃãĤĢ": 4220,
      "Ġserious": 4221,
      "conom": 4222,
      "ik": 4223,
      "Ģè¡Į": 4224,
      "ãģ¯ãģĤãģªãģŁ": 4225,
      "Ġsy": 4226,
      "Ġmach": 4227,
      "Ġball": 4228,
      "Ġca": 4229,
      "ative": 4230,
      "ãģ«åĬ": 4231,
      "äººãģ§ãģĻ": 4232,
      "ãģĪãģªãģĭãģ£ãģŁ": 4233,
      "Ġabove": 4234,
      "ĠãĥĪãĥłãģ¯ç": 4235,
      "ãģ»ãģĹãģĦ": 4236,
      "aka": 4237,
      "é£Łãģ¹çī©": 4238,
      "ĸ°èģŀ": 4239,
      "Ġãģ©ãģĨãģĹãģ¦": 4240,
      "äº¤éĢļ": 4241,
      "½åŃĲ": 4242,
      "çģ«": 4243,
      "Ľŀ": 4244,
      "ãģĦãģı": 4245,
      "ãģĦãģ¦ãģĦ": 4246,
      "ãģ®ãģıãĤīãģĦ": 4247,
      "ĠåħĪ": 4248,
      "ãģłãģ¨æĢĿãģĨ": 4249,
      "Ġgre": 4250,
      "Ġmem": 4251,
      "Ġãĥĵ": 4252,
      "ãģ¿ãģ¾ãģĽãĤĵ": 4253,
      "ãĤ¤ãĥĦ": 4254,
      "ãģ¯å¤ļãģı": 4255,
      "å¼ı": 4256,
      "Ġmove": 4257,
      "ãģĹãģ¦ãģĦãģªãģĦ": 4258,
      "æŃ»ãĤĵãģł": 4259,
      "ãģ«å½¼å¥³": 4260,
      "ĠAmerican": 4261,
      "Ġhurt": 4262,
      "ãģ«çĿĢãģĦãģŁ": 4263,
      "Ġmilk": 4264,
      "¦»": 4265,
      "ãģªãģ®ãģ§": 4266,
      "ãģ®æ¯į": 4267,
      "Ġæ°´": 4268,
      "Ġrad": 4269,
      "room": 4270,
      "ãĤ¤ãĤ¯": 4271,
      "æĢĿãģĦ": 4272,
      "çŁ¥ãĤīãģĽ": 4273,
      "Ġraining": 4274,
      "ĠChr": 4275,
      "Ġãģªãģľ": 4276,
      "ken": 4277,
      "ãģĵãģ¨ãģ«": 4278,
      "Ġsuit": 4279,
      "ãģ®èĢĥãģĪ": 4280,
      "ĠèŃ¦å¯Ł": 4281,
      "Ġnoise": 4282,
      "æħ®": 4283,
      "Ġprep": 4284,
      "Ġglad": 4285,
      "Ġtrying": 4286,
      "ãĥĪãĥ©ãĥ³": 4287,
      "¨ãĥ¼ãĤ¯": 4288,
      "é¹¿": 4289,
      "ãģªãģĤ": 4290,
      "erv": 4291,
      "ãģĵãģ®æ": 4292,
      "ãģłãģŃ": 4293,
      "ç§ģéģĶ": 4294,
      "ãģĳãģ°": 4295,
      "Ġeconom": 4296,
      "å¥³æĢ§": 4297,
      "Ġrequ": 4298,
      "ames": 4299,
      "ĠYork": 4300,
      "ĠãĤ«": 4301,
      "ãģ®éŁ³": 4302,
      "ĠGive": 4303,
      "çĲĨçĶ±": 4304,
      "ãģ»ãģĨãģĮãģĦãģĦ": 4305,
      "uation": 4306,
      "³¥": 4307,
      "Ġä»ĸ": 4308,
      "łåĳĬ": 4309,
      "Ġocc": 4310,
      "ãģĹãģŁãģĮ": 4311,
      "Ġeight": 4312,
      "ĠãĤµ": 4313,
      "å¯Ħ": 4314,
      "æĦıåĳ³": 4315,
      "Ġdisapp": 4316,
      "åĮ»èĢħ": 4317,
      "ãģĹãģ¦ãĤĤãĤī": 4318,
      "ãĤĴè²·ãģĨ": 4319,
      "ãĤıãĤĮãĤıãĤĮ": 4320,
      "æĨ": 4321,
      "Ġåħ¨": 4322,
      "arm": 4323,
      "ãĤĵãģ¨": 4324,
      "ãģ®åĽ½": 4325,
      "Ġegg": 4326,
      "ãģĪãģ¾ãģĻãģĭ": 4327,
      "ĠãģĿãģĵ": 4328,
      "ãĤıãģļ": 4329,
      "ational": 4330,
      "ĠãĤ¿": 4331,
      "ãĤįãģĨãģ¨": 4332,
      "ãģ®é¡Ķ": 4333,
      "ä¾ĭ": 4334,
      "ç´ł": 4335,
      "raw": 4336,
      "ĠGer": 4337,
      "£²": 4338,
      "Ġä¿º": 4339,
      "ãģ¯ãģĻ": 4340,
      "Ġtop": 4341,
      "Ġequ": 4342,
      "vers": 4343,
      "ution": 4344,
      "ãģĭãĤīãģªãģĭãģ£ãģŁ": 4345,
      "ãĥ¼ãĥ¨ãĥ¼ãĤ¯": 4346,
      "ãģ¯å½¼ãĤī": 4347,
      "èĢħãģ¯": 4348,
      "Ġcoat": 4349,
      "ãģ¯ãģĦãģĳãģ¾ãģĽãĤĵ": 4350,
      "ãĥĲãĤ³": 4351,
      "ç·ļ": 4352,
      "ç«ĭãģ¡": 4353,
      "ĲĨè§£": 4354,
      "fully": 4355,
      "åĻ": 4356,
      "èĭ¥ãģĦ": 4357,
      "ãģĮãģĤãĤĬãģ¾ãģĻãģĭ": 4358,
      "äºĶ": 4359,
      "ãĤĴæĭ": 4360,
      "ãĤıãĤīãģļ": 4361,
      "ãģ£ãģ¦ãģĦãĤĭãģ®": 4362,
      "Ġval": 4363,
      "ãģ¾ãģ§ãģ«": 4364,
      "ãĥīãĤ¢": 4365,
      "éłĺ": 4366,
      "çĶ·ãģ®åŃĲ": 4367,
      "Ġboys": 4368,
      "ãģĹãģĭãģĹ": 4369,
      "Ġhuman": 4370,
      "ºĸåĤĻ": 4371,
      "Ġexpensive": 4372,
      "¹ĸ": 4373,
      "ç³": 4374,
      "ĳãĥ¼ãĥĨãĤ£ãĥ¼": 4375,
      "Ġav": 4376,
      "ĠSince": 4377,
      "Ġasleep": 4378,
      "å¹´éĸĵ": 4379,
      "ãģ®æľĢ": 4380,
      "æĿ¥ãĤĭ": 4381,
      "Ġleast": 4382,
      "ached": 4383,
      "Ġåĥķãģ¯": 4384,
      "æĪĳãĢħ": 4385,
      "Ġpublic": 4386,
      "unt": 4387,
      "way": 4388,
      "æ±": 4389,
      "ĸĩ": 4390,
      "ŃãģĦ": 4391,
      "Ġbath": 4392,
      "ãģĭãģªãģĭãģ£ãģŁ": 4393,
      "ãģĵãĤĵãģª": 4394,
      "ãģ¤ãģį": 4395,
      "äººãĤĤ": 4396,
      "selves": 4397,
      "å½¼ãģĮ": 4398,
      "ĠãģĤãĤĮ": 4399,
      "ãĤĴèĢ": 4400,
      "Ġèµ¤": 4401,
      "çµ¡": 4402,
      "çķĻ": 4403,
      "æĹ©": 4404,
      "Ġresp": 4405,
      "ãģĮå¤§å¥½ãģį": 4406,
      "Ġä»ķäºĭ": 4407,
      "ĽĹ": 4408,
      "ison": 4409,
      "Ġmag": 4410,
      "ãģĭãģ¨": 4411,
      "ç§ģãģ®": 4412,
      "Ġstood": 4413,
      "ãģĻãĤĭãģłãĤįãģĨ": 4414,
      "éĢ£çµ¡": 4415,
      "£ģ": 4416,
      "¤¾": 4417,
      "¤ľ": 4418,
      "èı": 4419,
      "éŁ": 4420,
      "Ġ'": 4421,
      "ãģ§ãģĬ": 4422,
      "ãģĮãģŁãģıãģķãĤĵ": 4423,
      "ãģ¾ãģĦ": 4424,
      "Ġline": 4425,
      "ĠãĥĲãĤ¹": 4426,
      "ument": 4427,
      "Ġwouldn": 4428,
      "ãģĵãģ¨ãģ¯ãģªãģĦ": 4429,
      "°ıèª¬": 4430,
      "éļİ": 4431,
      "Ġ10": 4432,
      "æĺĵ": 4433,
      "ä»ĺãģĳ": 4434,
      "Ġstayed": 4435,
      "ĠEveryone": 4436,
      "Ġswimming": 4437,
      "ç¾İãģĹãģĦ": 4438,
      "Ġcomputer": 4439,
      "æµģ": 4440,
      "ĠãĤ¢ãĥ¡ãĥªãĤ«": 4441,
      "Ġsci": 4442,
      "Ġdire": 4443,
      "ãģ£ãģ¦ãģıãĤĮãģŁ": 4444,
      "ãĤĴåħ¨": 4445,
      "ãĤĴæĦĽ": 4446,
      "åıĹ": 4447,
      "ĠPar": 4448,
      "Ġseeing": 4449,
      "ãĤĭãģ®ãģ¯": 4450,
      "æĸ¹ãģĮ": 4451,
      "Ġcomplain": 4452,
      "è²»": 4453,
      "æĻ¯": 4454,
      "Ġrestaur": 4455,
      "Ġcompletely": 4456,
      "èªķçĶŁæĹ¥": 4457,
      "Ġgovernment": 4458,
      "eb": 4459,
      "æį": 4460,
      "èĲ½ãģ¡": 4461,
      "İĪæ¥Ń": 4462,
      "ãĤĴéĸī": 4463,
      "ãģĹãĤį": 4464,
      "ĠåŃ¦æł¡": 4465,
      "Ġåľ°": 4466,
      "ature": 4467,
      "ãĤĴåŃ¦": 4468,
      "è©ķ": 4469,
      "Ġdem": 4470,
      "ãģķãĤĵãģ¯": 4471,
      "Ġwrote": 4472,
      "ĠKy": 4473,
      "ãĤĴãģ¤ãģĳ": 4474,
      "çŃĶ": 4475,
      "Ġvisited": 4476,
      "ĭķçī©": 4477,
      "Ġcamera": 4478,
      "ãģĭãģ£ãģ¦": 4479,
      "ãģ¿ãģŁ": 4480,
      "ĠJane": 4481,
      "çµĦ": 4482,
      "ighb": 4483,
      "Ġreport": 4484,
      "ãĥĶãĥ¥": 4485,
      "éĢŁãģı": 4486,
      "Ġpeace": 4487,
      "»¶": 4488,
      "ãĤ²": 4489,
      "ãģ®è¨ĪçĶ»": 4490,
      "ãģĮãģ§ãģį": 4491,
      "ç§ģãģ¯æ": 4492,
      "Ġate": 4493,
      "Ġneighb": 4494,
      "åºľ": 4495,
      "Ġprof": 4496,
      "Ġé¢¨": 4497,
      "ï¼Ĵï¼Ĳ": 4498,
      "Ġeverybody": 4499,
      "Ġgrad": 4500,
      "æļ®ãĤī": 4501,
      "Ġgiven": 4502,
      "ãĥ¶æľĪ": 4503,
      "Ħª": 4504,
      "ī¹": 4505,
      "ãģĹãģ¦ãģĬ": 4506,
      "éĸĢ": 4507,
      "è¨Ģèªŀ": 4508,
      "åĽ°": 4509,
      "Ġthank": 4510,
      "ãĤ¸ãĥ£": 4511,
      "Ġexpress": 4512,
      "ãĤ¹ãĥĶ": 4513,
      "éļľ": 4514,
      "Ġnewsp": 4515,
      "é¢¨éĤª": 4516,
      "æĸĻçĲĨ": 4517,
      "æŁ»": 4518,
      "é¡ĺãģĦãģĹãģ¾ãģĻ": 4519,
      "ze": 4520,
      "ºĥ": 4521,
      "èĭ¦": 4522,
      "İ»": 4523,
      "Ġtreat": 4524,
      "ãģ¯ãģĺ": 4525,
      "Ġsend": 4526,
      "ãģªãģĵãģ¨": 4527,
      "ãĤĴåħ¥": 4528,
      "ĠãģĤãģ®å": 4529,
      "éĩı": 4530,
      "Ġtrust": 4531,
      "åı²": 4532,
      "ãģ§ãģ¯ãģªãģĭãģ£ãģŁ": 4533,
      "Ġcond": 4534,
      "å¼ķ": 4535,
      "Ġarm": 4536,
      "èĪŀ": 4537,
      "¾İãģĹãģĦ": 4538,
      "å·Ŀ": 4539,
      "Ġdiscuss": 4540,
      "éľĩ": 4541,
      "ç§ĺå¯Ĩ": 4542,
      "Ġrule": 4543,
      "Ġvacation": 4544,
      "vision": 4545,
      "½ãģı": 4546,
      "çĹħ": 4547,
      "ĻçĲĨ": 4548,
      "Ľ²": 4549,
      "Ġburn": 4550,
      "ĠåĮ»èĢħ": 4551,
      "Ġcake": 4552,
      "ãģįãģ¦": 4553,
      "Ġæ°Ĺ": 4554,
      "æĢĴ": 4555,
      "ĠçĬ¬": 4556,
      "ãģĮæ¬²ãģĹãģĦ": 4557,
      "ãģ¯è²": 4558,
      "ãģ¯ãĥĨ": 4559,
      "Ġblue": 4560,
      "Ġflo": 4561,
      "ãĤĴèģŀãģĦãģŁ": 4562,
      "ãĤ§ãĥ¼ãĥ³": 4563,
      "èįī": 4564,
      "ĠãģĦãģĦ": 4565,
      "Ġtears": 4566,
      "ãģ®å¾Į": 4567,
      "ãģ«æīĭ": 4568,
      "ĠJust": 4569,
      "Ġvoice": 4570,
      "ãģĶãģĸ": 4571,
      "ãģ®æľ¨": 4572,
      "ãģªãģĳãĤĮãģ°ãģªãĤīãģªãģĭãģ£ãģŁ": 4573,
      "ãĤĴè²¸": 4574,
      "Ġgirls": 4575,
      "æĻ´": 4576,
      "Ġregard": 4577,
      "ħ¬åľĴ": 4578,
      "£°": 4579,
      "ãģ£ãģ¡ãĤĥ": 4580,
      "ãģ£ãģĹãĤĥ": 4581,
      "ãģ¾ãģķ": 4582,
      "ices": 4583,
      "ĠæĹ¥": 4584,
      "ãĤĴæĦŁ": 4585,
      "ãģ§ãģ¯ãģªãģı": 4586,
      "ä¸ŃåĽ½": 4587,
      "æ°ĹåĪĨ": 4588,
      "ãģ¯ç§ģãģ«": 4589,
      "ģŀãģĵ": 4590,
      "Ġappro": 4591,
      "ãĥĭãĥ¥": 4592,
      "¥³ãģ®åŃĲ": 4593,
      "Ġquestions": 4594,
      "»ŀåľ¨": 4595,
      "Ġtouch": 4596,
      "fort": 4597,
      "ral": 4598,
      "uc": 4599,
      "ı¡": 4600,
      "ãģĦãģĳãģªãģĦ": 4601,
      "Ġdie": 4602,
      "Ġann": 4603,
      "ety": 4604,
      "Ġlie": 4605,
      "åĪ¶": 4606,
      "ãģĹãģ¦ãģıãĤĮãģŁ": 4607,
      "Ġhist": 4608,
      "è¦ĭãģĪãĤĭ": 4609,
      "Ġworry": 4610,
      "ĠJim": 4611,
      "å¤§ãģį": 4612,
      "å¤§ãģįãģª": 4613,
      "Ġshouldn": 4614,
      "åįģ": 4615,
      "éļł": 4616,
      "Ġä»ĬæĹ¥ãģ¯": 4617,
      "ãĥĩãĤ£": 4618,
      "ãģ²ãģ©ãģı": 4619,
      "Ġanimals": 4620,
      "è¬Ŀ": 4621,
      "®º": 4622,
      "ħ£": 4623,
      "ãĥ¤": 4624,
      "ãģ®ãĤĪãģĨ": 4625,
      "rem": 4626,
      "ãģ«æĪ»": 4627,
      "è©±ãģĹãģŁ": 4628,
      "ãģ«ãģ¯ãģĦ": 4629,
      "Ġèĩª": 4630,
      "Ġspent": 4631,
      "ĠãĤ·": 4632,
      "ãĤ«ãĥ¡ãĥ©": 4633,
      "ãģ¯ç§ģãģĮ": 4634,
      "Ġimpossible": 4635,
      "Ī¦äºī": 4636,
      "ãĤĪãĤįãģĹãģĦ": 4637,
      "§ħ": 4638,
      "¯Ķ": 4639,
      "¼é£Ł": 4640,
      "ĠãĤıãģŁãģĹ": 4641,
      "ines": 4642,
      "Ġbill": 4643,
      "Ġland": 4644,
      "ãģĿãģ®æľ¬": 4645,
      "ãģ®åĩº": 4646,
      "Ġlibr": 4647,
      "ãĤıãģªãģĭãģ£ãģŁ": 4648,
      "äºĭä»¶": 4649,
      "è¨Ģãģ£ãģ¦ãģĦãĤĭ": 4650,
      "ĻĤè¨Ī": 4651,
      "åĪĨãģĭãĤīãģªãģĦ": 4652,
      "ief": 4653,
      "Ġå¤ļãģı": 4654,
      "ãģ®åıĭéģĶ": 4655,
      "ãģ®æĸĩ": 4656,
      "airs": 4657,
      "¿ĥéħį": 4658,
      "Ġeye": 4659,
      "æĸ°ãģĹãģĦ": 4660,
      "¹¸ãģĽ": 4661,
      "è¦ıåīĩ": 4662,
      "Ġnecessary": 4663,
      "iversity": 4664,
      "æµ": 4665,
      "Ĭ¯": 4666,
      "ãģªãĤĤãģ®": 4667,
      "Ġhol": 4668,
      "ĠæĢ¥": 4669,
      "Ġra": 4670,
      "æĹ¥ä¸Ń": 4671,
      "Ġlose": 4672,
      "ãĤĴå¤±": 4673,
      "Ġhurry": 4674,
      "Ġtyp": 4675,
      "ãĤ¹ãĥĿãĥ¼ãĥĦ": 4676,
      "ug": 4677,
      "¡Ĺ": 4678,
      "Ġes": 4679,
      "Ļ®": 4680,
      "ãĤĴè¦ļ": 4681,
      "Ġcard": 4682,
      "ãĤĬãģ¾ãģĹãģŁ": 4683,
      "ä¸Ī": 4684,
      "ãģ®æ°Ĺ": 4685,
      "Ġris": 4686,
      "Ġsuper": 4687,
      "ific": 4688,
      "osal": 4689,
      "ãĥĨãĤ£": 4690,
      "Ġfinally": 4691,
      "æĬľ": 4692,
      "Ġèª°ãĤĤ": 4693,
      "æĶ¾": 4694,
      "åģ´": 4695,
      "»ºçī©": 4696,
      "Ġtrees": 4697,
      "ãĤĴåĳ¼": 4698,
      "ĠSmith": 4699,
      "´ł": 4700,
      "ģĭ": 4701,
      "Ĺè«ĩ": 4702,
      "ãĤĴãģŁ": 4703,
      "ãģĮé«ĺãģĦ": 4704,
      "ances": 4705,
      "ãĤĵãģ§ãģĻãģĭ": 4706,
      "ãĤĬãģ§": 4707,
      "ãģ¯å¯": 4708,
      "ãĤĴåį": 4709,
      "æĢĸ": 4710,
      "°ıãģķãģª": 4711,
      "ãĤ¹ãĥŀ": 4712,
      "ãĤ¹ãĥŁãĤ¹": 4713,
      "å¾ħãģ¡": 4714,
      "æľĢãĤĤ": 4715,
      "Ġconcert": 4716,
      "é³¥": 4717,
      "Ġpleas": 4718,
      "Ġquickly": 4719,
      "ec": 4720,
      "å¢": 4721,
      "ãģªãģľ": 4722,
      "ãģĮãģĬ": 4723,
      "Ġbott": 4724,
      "Ġpaid": 4725,
      "ãģ¯åĨ": 4726,
      "Ġæĸ°ãģĹãģĦ": 4727,
      "iday": 4728,
      "Ġsold": 4729,
      "ape": 4730,
      "ãĤ¯ãĤ·ãĥ¼": 4731,
      "å¸ĥ": 4732,
      "Ġç§ģãģŁãģ¡ãģ¯æ": 4733,
      "çĶ·æĢ§": 4734,
      "è¾¼ãģ¿": 4735,
      "Ġabsent": 4736,
      "ıĲæ¡Ī": 4737,
      "Ġpopular": 4738,
      "ãģ«è³ĽæĪĲ": 4739,
      "´ĦæĿŁ": 4740,
      "ĠParis": 4741,
      "Ġlibrary": 4742,
      "©ĭ": 4743,
      "³¶": 4744,
      "å°ĳ": 4745,
      "ĠéĽ¨": 4746,
      "Ġfly": 4747,
      "ãģ¯å¥½ãģį": 4748,
      "ãĤĴå½¼": 4749,
      "ãĥ³ãģ¯": 4750,
      "ural": 4751,
      "ãĤ¤ãĤ®": 4752,
      "æķ¬": 4753,
      "ä¸įè¶³": 4754,
      "ãģ¯æľ¬": 4755,
      "ãģ¯ä½ķãģ§ãģĻãģĭ": 4756,
      "åł´æīĢ": 4757,
      "ãģ«æĿ¥ãģŁ": 4758,
      "Ġinterested": 4759,
      "Ġconsider": 4760,
      "ãģ¯åħ¨ãģı": 4761,
      "Ġsatisf": 4762,
      "Ġwriting": 4763,
      "Ġforgot": 4764,
      "Ġvillage": 4765,
      "ãģĦãģ«": 4766,
      "rect": 4767,
      "Ġbat": 4768,
      "ãģįãģ£ãģ¨": 4769,
      "ãģ§ãģĻãģĮ": 4770,
      "ĠSo": 4771,
      "ãĤĴå§ĭ": 4772,
      "ãĤıãģĸ": 4773,
      "ield": 4774,
      "Ġarg": 4775,
      "ãĤĴåĲ¸": 4776,
      "Ġsubject": 4777,
      "é©ļãģĦãģŁ": 4778,
      "ĭãĥ¥ãĥ¼ãĤ¹": 4779,
      "ãĤ¤ãĤ®ãĥªãĤ¹": 4780,
      "uk": 4781,
      "åŀ": 4782,
      "æ¢": 4783,
      "Ġwine": 4784,
      "Ġlake": 4785,
      "ãģ«å°": 4786,
      "ä»ĭ": 4787,
      "idge": 4788,
      "å½¼ãģ¯æ": 4789,
      "ãĥ¼ãĥŃ": 4790,
      "Ġseven": 4791,
      "ored": 4792,
      "ãĤĵãģłãģĳãģ©": 4793,
      "Ġclub": 4794,
      "ãģĵãģ¨ãģ¯ãģ§ãģįãģªãģĦ": 4795,
      "ãģ®äººãĢħ": 4796,
      "è¾ŀ": 4797,
      "ãĤ±ãĥ¼ãĤŃ": 4798,
      "¿ĳãģı": 4799,
      "ãĤĴæīķ": 4800,
      "å¿ĻãģĹãģĦ": 4801,
      "ä¿®çĲĨ": 4802,
      "æĴĥ": 4803,
      "Ġmachine": 4804,
      "åĻ¨": 4805,
      "ºŃ": 4806,
      "çĨ±": 4807,
      "ãģ®ãģĮ": 4808,
      "ãĤĴè¨ĢãģĨ": 4809,
      "Ġcustom": 4810,
      "ãĤĮãģªãģĭãģ£ãģŁ": 4811,
      "ãģ¯åĥķ": 4812,
      "ĠAnd": 4813,
      "ĠThose": 4814,
      "ĠãĤª": 4815,
      "Ġprob": 4816,
      "ãģ®äººãģĮ": 4817,
      "ãģ¯å¤§å¤ī": 4818,
      "Ġattend": 4819,
      "ãĤĴåıĹãģĳãģŁ": 4820,
      "èĻ": 4821,
      "Ġãģ¿ãĤĵãģª": 4822,
      "ãģ®ãģªãģĦ": 4823,
      "ãģ«éģķ": 4824,
      "ãģķãĤī": 4825,
      "eth": 4826,
      "ãģ£ãģ¦ãģĬ": 4827,
      "ird": 4828,
      "éĢł": 4829,
      "Ġsever": 4830,
      "ãģĵãģ¨ãģĮåĩºæĿ¥": 4831,
      "ãģĶãģı": 4832,
      "ãģŁãģĦãģ¸": 4833,
      "ĠGo": 4834,
      "æĺłçĶ»": 4835,
      "ãĤīãĤĮãģªãģĭãģ£ãģŁ": 4836,
      "Ġbroken": 4837,
      "Ġrestaurant": 4838,
      "rit": 4839,
      "¯Ľ": 4840,
      "Ġtill": 4841,
      "ãģĦçī©": 4842,
      "ãĤĴéĢģ": 4843,
      "ãģĮçĦ¡": 4844,
      "ãģķãģªãģĦ": 4845,
      "Ġrul": 4846,
      "ä¼ļåĲĪ": 4847,
      "itted": 4848,
      "éģķãģĨ": 4849,
      "ãĤ¹ãĥļ": 4850,
      "ãģĮãģĦãģªãģĦ": 4851,
      "ãģĹãĤĥãģ¹": 4852,
      "æ¨©": 4853,
      "ãĥ»ãĥ»ãĥ»": 4854,
      "tain": 4855,
      "¬ĳ": 4856,
      "´åĬ©": 4857,
      "¼Ł": 4858,
      "èĦ": 4859,
      "ĨæĿ¥": 4860,
      "ãģĦãģ§ãģĻ": 4861,
      "Ġce": 4862,
      "Ġinn": 4863,
      "å¤¢": 4864,
      "ĠãĥĲ": 4865,
      "Ġspoke": 4866,
      "ï¼ĳï¼Ļ": 4867,
      "Ġexplain": 4868,
      "åĭķçī©": 4869,
      "Ġfeeling": 4870,
      "Ġarrive": 4871,
      "ãģ¼ãģı": 4872,
      "Ń£çĽ´": 4873,
      "Ġconcer": 4874,
      "éŃĶ": 4875,
      "Ġsituation": 4876,
      "Ġticket": 4877,
      "Ġseveral": 4878,
      "¤į": 4879,
      "ãģ¯äºº": 4880,
      "ãģ¨çµĲå©ļ": 4881,
      "ator": 4882,
      "ãģ®å¿": 4883,
      "ãĥ¼ãĥŀ": 4884,
      "é£¼": 4885,
      "ãĤĴçĻº": 4886,
      "ĠãĤ¨": 4887,
      "éĩĳãĤĴ": 4888,
      "æīĭä¼Ŀ": 4889,
      "ãĤĴå¤ī": 4890,
      "ä¸Ģäººãģ§": 4891,
      "çµĤãĤı": 4892,
      "ãĤĴå¼ķãģį": 4893,
      "é»Ļ": 4894,
      "ŀľ": 4895,
      "head": 4896,
      "ãģ¯ãģĦãģ¤": 4897,
      "ãģ¯ãģ»ãģ¨ãĤĵãģ©": 4898,
      "Ġåħ": 4899,
      "ãģ®åŃĲä¾Ľ": 4900,
      "ãĥ¼ãĥĪãĥ": 4901,
      "Ġç§ģãģ«ãģ¯": 4902,
      "ãģĳãģªãģĭãģ£ãģŁ": 4903,
      "ãģ©ãĤĮ": 4904,
      "ãģ®çĪ¶": 4905,
      "ä¸Ģãģ¤": 4906,
      "iled": 4907,
      "ĠBill": 4908,
      "Ġstudied": 4909,
      "ãģłãģĳãģ¾ãģĻãģĭ": 4910,
      "Ġexpl": 4911,
      "Ġsmell": 4912,
      "Ġhardly": 4913,
      "åĨĬ": 4914,
      "éģħãģı": 4915,
      "ãģĹãģªãģĦãģ§": 4916,
      "æ®º": 4917,
      "çĤº": 4918,
      "Ġhorse": 4919,
      "Ġinformation": 4920,
      "ãĤĴèĢĥ": 4921,
      "ãĥĶãĥ¥ãĥ¼ãĤ¿ãĥ¼": 4922,
      "çľ": 4923,
      "ĠéĽ»è©±": 4924,
      "ĤåĬł": 4925,
      "ãģĦãģ£ãģ±ãģĦ": 4926,
      "Ġluck": 4927,
      "Ġå½¼å¥³ãģ®": 4928,
      "ãģ®èĩª": 4929,
      "æīį": 4930,
      "Ġwritten": 4931,
      "Ġplayed": 4932,
      "Ġæľ¬å½ĵ": 4933,
      "Ġleaves": 4934,
      "Ġcountries": 4935,
      "Ġdrinking": 4936,
      "Ġairport": 4937,
      "Ġcommon": 4938,
      "ĠKeep": 4939,
      "Ġradio": 4940,
      "!\"": 4941,
      "±³": 4942,
      "ãģ¯ãģĤãĤĬãģ¾ãģĻãģĭ": 4943,
      "ãģ«ãĤĪãģı": 4944,
      "Ġåĩº": 4945,
      "ãģ¾ãĤĮãģŁ": 4946,
      "arch": 4947,
      "Ġæ³": 4948,
      "ãģĹãģ¦ãĤĭ": 4949,
      "ĠMother": 4950,
      "åĪĨãģĭ": 4951,
      "çļĦãģ«": 4952,
      "Ġcontin": 4953,
      "ãĤĴå¤§": 4954,
      "åĸĦ": 4955,
      "Ġenter": 4956,
      "çĶŁãģ¾ãĤĮ": 4957,
      "Ġcrying": 4958,
      "Ġdoubt": 4959,
      "ĠChrist": 4960,
      "aj": 4961,
      "ches": 4962,
      "çŁ³": 4963,
      "ãĤĴä¿¡ãģĺ": 4964,
      "ãģĿãĤį": 4965,
      "Ġev": 4966,
      "å¾©": 4967,
      "åºŃ": 4968,
      "ãģ¦ãĤĤãĤī": 4969,
      "Ġclosed": 4970,
      "Ġmoon": 4971,
      "ãģĹãģ¾ãģĨ": 4972,
      "æ´¾": 4973,
      "ãģķãģĽãĤĭ": 4974,
      "ãģ®æĻĤéĸĵ": 4975,
      "ãģ®åįĪå¾Į": 4976,
      "Ġtemper": 4977,
      "éŁ¿": 4978,
      "¶çĦ¶": 4979,
      "ãģ«ãģĤãģ£ãģŁ": 4980,
      "ãģĮãģ£ãģ¦ãģĦãĤĭ": 4981,
      "ãģ£ãģŁãģ®": 4982,
      "ĠMon": 4983,
      "ãģ°ãĤīãģĹãģĦ": 4984,
      "å¹´åīį": 4985,
      "Ġsmoke": 4986,
      "æ¸¡": 4987,
      "ledge": 4988,
      "èĶ": 4989,
      "ins": 4990,
      "ãģ«ãģĹãģ¦ãģĦãĤĭ": 4991,
      "Ġfig": 4992,
      "Ġdro": 4993,
      "ãģ®åħĪçĶŁ": 4994,
      "ãģĳãĤĮ": 4995,
      "å¤±æķĹ": 4996,
      "éĽĩ": 4997,
      "Ġç§ģãģ¯ãģĿãģ®": 4998,
      "åºĥ": 4999,
      "ãģ¯èĭ±èªŀ": 5000,
      "Ġamong": 5001,
      "ĠOK": 5002,
      "ãģ¯ç§ģãģ®": 5003,
      "ä¹³": 5004,
      "åº¦ãģ¨": 5005,
      "Ġbuilt": 5006,
      "Ġappear": 5007,
      "ä»ĺãģį": 5008,
      "åĸľ": 5009,
      "é¦ĸ": 5010,
      "Ġtelevision": 5011,
      "Ġproposal": 5012,
      "ãģŃãģ°ãģªãĤīãģªãģĦ": 5013,
      "åĥı": 5014,
      "Ġãģ¾ãģł": 5015,
      "Ń°": 5016,
      "ãģ®çĶŁæ´»": 5017,
      "ãģĮãģ£ãģŁ": 5018,
      "Ġdue": 5019,
      "Ġthough": 5020,
      "ãģ¯æ°Ĺ": 5021,
      "Ġstorm": 5022,
      "ãĤĴæ¶Ī": 5023,
      "Ġkilled": 5024,
      "Ġoutside": 5025,
      "ãģ£ãģ¦ãģĦãģ¾ãģĹãģŁ": 5026,
      "rown": 5027,
      "çĲĨè§£": 5028,
      "Ġteach": 5029,
      "æĥĳ": 5030,
      "ãĤ¦ãĥ³": 5031,
      "Ġdriving": 5032,
      "Ġincre": 5033,
      "Ġfavorite": 5034,
      "çµ±éłĺ": 5035,
      "æ¢°": 5036,
      "¥ĸ": 5037,
      "®±": 5038,
      "Ļ»": 5039,
      "Ġsad": 5040,
      "Ġbar": 5041,
      "Ġborrow": 5042,
      "Ġfix": 5043,
      "ãĤģãģ¦ãģĦãĤĭ": 5044,
      "ãģ«æĢĿ": 5045,
      "å®¹": 5046,
      "Ġãĥ©": 5047,
      "Ġéĥ¨å±ĭ": 5048,
      "Ġord": 5049,
      "ãĤ¸ãĤª": 5050,
      "ments": 5051,
      "ä½¿ãģĦ": 5052,
      "å¿ĥéħį": 5053,
      "Ġwalking": 5054,
      "é£Ľãģ³": 5055,
      "æľīåĲį": 5056,
      "ploy": 5057,
      "å¹¸ãģĽ": 5058,
      "ĠUnited": 5059,
      "Ġchanged": 5060,
      "ä¸Īå¤«": 5061,
      "§¿": 5062,
      "µ¶": 5063,
      "èĬ": 5064,
      "è¶Ĭ": 5065,
      "ĠãģĨãģ¡": 5066,
      "ĽãĥĨãĥ«": 5067,
      "ãģĹãģ¾ãģĻãģĭ": 5068,
      "ãģĮä¸Ģçķª": 5069,
      "ãģĭãģĹãģĦ": 5070,
      "Ġbear": 5071,
      "ãĤıãĤĮãģ¦ãģĦãĤĭ": 5072,
      "ãĤıãģĭãĤĬ": 5073,
      "Ġsell": 5074,
      "ãĤĦãĤĭ": 5075,
      "éĿĴ": 5076,
      "Ġmonths": 5077,
      "äº¬éĥ½": 5078,
      "èĤī": 5079,
      "ĠKyoto": 5080,
      "ãģ«éģķãģĦãģªãģĦ": 5081,
      "ji": 5082,
      "ĠãģĤãĤĭ": 5083,
      "ãģ®ä¸ĸè©±": 5084,
      "ãģ§åĥį": 5085,
      "oned": 5086,
      "ãģĻãģ¹ãģįãģł": 5087,
      "ats": 5088,
      "ãģ¾ãģļ": 5089,
      "ãģĨãĤĵ": 5090,
      "Ġinj": 5091,
      "oose": 5092,
      "å½¼ãģ¯å": 5093,
      "åıĭ": 5094,
      "Ġspend": 5095,
      "ãĥĥãĥĳ": 5096,
      "æł¹": 5097,
      "åĭķè»Ĭ": 5098,
      "ãģĹãģıãģªãģĦ": 5099,
      "ãģ«åĲĮ": 5100,
      "å¿ħè¦ģãģĮãģĤãĤĭ": 5101,
      "ä¼ĳæļĩ": 5102,
      "īĭç´ĻãĤĴæĽ¸": 5103,
      "Ġobject": 5104,
      "å¤©æ°Ĺ": 5105,
      "Ġcourse": 5106,
      "ãģŁãģĦãģ¸ãĤĵ": 5107,
      "¼ģ": 5108,
      "Ġice": 5109,
      "Ń¯": 5110,
      "ãģ®ãģĨãģ¡": 5111,
      "ãģ¦ãģįãģŁ": 5112,
      "Ġå½ĵ": 5113,
      "Ġyours": 5114,
      "å¼Ł": 5115,
      "µ·ãģįãģŁ": 5116,
      "Ġbody": 5117,
      "å®¶æĹı": 5118,
      "ä¹ĹãĤĬ": 5119,
      "Ġacqu": 5120,
      "ãģ«åĲĪæł¼": 5121,
      "Ġpromise": 5122,
      "çĶŁãģ¾ãĤĮãģŁ": 5123,
      "Ġexperience": 5124,
      "Ġtransl": 5125,
      "ues": 5126,
      "ãĤ¼": 5127,
      "ãģ¯ãģ£ãģįãĤĬ": 5128,
      "ãģ®ä¸ĭ": 5129,
      "reed": 5130,
      "ãĤĴéĢļ": 5131,
      "ãĥ¼ãĤº": 5132,
      "Ġanx": 5133,
      "ãģĽãģªãģĦ": 5134,
      "Ġweight": 5135,
      "tern": 5136,
      "Ġãĥĸ": 5137,
      "ĠãĥĻ": 5138,
      "ãģ§ãģįãģ¾ãģĽãĤĵ": 5139,
      "åĽł": 5140,
      "Ġéķ·": 5141,
      "ãĤ¿ãĥĲãĤ³": 5142,
      "ãģłãģĳãģ¾ãģĽãĤĵãģĭ": 5143,
      "è³ĩ": 5144,
      "Ġleaving": 5145,
      "ording": 5146,
      "ãģ®ãģłãģĮ": 5147,
      "®ĭå¿µ": 5148,
      "Ġãģ¾ãģŁ": 5149,
      "ĵãģ¡": 5150,
      "ãģ¯ãģĤãĤĬãģ¾ãģĽãĤĵ": 5151,
      "ãģ«ãģĭãģĭ": 5152,
      "Ġwood": 5153,
      "ãģĮå¤ļãģĦ": 5154,
      "ãģ¨æ": 5155,
      "ãĤĮãģ¾ãģĽãĤĵ": 5156,
      "å¥³ãģ®åŃĲ": 5157,
      "ãĥ³ãĤ¹": 5158,
      "urope": 5159,
      "ãĤĴçĽĹ": 5160,
      "æ°Ĺãģ«åħ¥": 5161,
      "åĭ¢": 5162,
      "ĠBy": 5163,
      "ĠNob": 5164,
      "ousand": 5165,
      "ãģ®ãģĬãģĭãģĴ": 5166,
      "éģ¸æīĭ": 5167,
      "ãĤĴå¼ķ": 5168,
      "velop": 5169,
      "ãģªãģıãģ¦ãģ¯ãģªãĤīãģªãģĦ": 5170,
      "åĦĢ": 5171,
      "ĠãģªãĤĵãģ§": 5172,
      "Ġsolve": 5173,
      "ŃĶãģĪ": 5174,
      "Ġwearing": 5175,
      "30": 5176,
      "hood": 5177,
      "tle": 5178,
      "·çī©": 5179,
      "çĮ«": 5180,
      "é½¢": 5181,
      "Ĭæķ¬": 5182,
      "Ġsn": 5183,
      "Ġmail": 5184,
      "Ġcal": 5185,
      "Ġlack": 5186,
      "ãģĻãĤĭãģª": 5187,
      "æĻĤãģ¾ãģ§": 5188,
      "ĠEurope": 5189,
      "ĠPut": 5190,
      "Ġseem": 5191,
      "çµ¶": 5192,
      "ãģ¨æĢĿãģĦãģ¾ãģĻãģĭ": 5193,
      "ĠFather": 5194,
      "ãģ¯ãģĦãģªãģĦ": 5195,
      "å£Ĭ": 5196,
      "æĽ¸é¤¨": 5197,
      "ãģĮçĹĽ": 5198,
      "acter": 5199,
      "æĺŁ": 5200,
      "Ķ¿æ²»": 5201,
      "å¢ĥ": 5202,
      "´åı²": 5203,
      "Ķ¾": 5204,
      "eng": 5205,
      "ãĤīãĤĨãĤĭ": 5206,
      "ãĤĬãģĮ": 5207,
      "ãģ®çĬ¬": 5208,
      "åħ¬": 5209,
      "å¿ħãģļ": 5210,
      "ãģ¯å¤ĸ": 5211,
      "Ġcarried": 5212,
      "ãĥķãĤ¡": 5213,
      "ï¼ķï¼Ĳ": 5214,
      "Ġdogs": 5215,
      "Ġbread": 5216,
      "è¾¼ãĤĵãģł": 5217,
      "Ġlearning": 5218,
      "ãĤĨãģ£ãģıãĤĬ": 5219,
      "æŃ£ãģĹãģĦ": 5220,
      "Ġregret": 5221,
      "ãĤĴè¦ĭãģ¤ãģĳãģŁ": 5222,
      "...": 5223,
      "cer": 5224,
      "ª¨": 5225,
      "çĭ¬": 5226,
      "Ġãģ¨ãģ¦ãĤĤ": 5227,
      "ĠãģĹãģĭãģĹ": 5228,
      "Ģģ": 5229,
      "ĸĻçĲĨ": 5230,
      "ãĤ©": 5231,
      "ãģĦãģ£ãģŁ": 5232,
      "ãģ®ãģĽ": 5233,
      "Ġbreat": 5234,
      "Ġboss": 5235,
      "erc": 5236,
      "Ġlend": 5237,
      "ãģ®åķıé¡Į": 5238,
      "Ġæīĭ": 5239,
      "ãģ¾ãģĻãĤĪ": 5240,
      "Ġå½¼ãģ¯ãģĦãģ¤ãĤĤ": 5241,
      "åĬªåĬĽ": 5242,
      "Ġjud": 5243,
      "Ġç§ģãģŁãģ¡ãģ¯å": 5244,
      "ãģªãģĳãĤĮãģ°ãģªãĤĬãģ¾ãģĽãĤĵ": 5245,
      "Ń¦å®ĺ": 5246,
      "ãĤ·ãĥ§": 5247,
      "ãģ¶ãĤĵ": 5248,
      "Ġæľ¬": 5249,
      "æĺİæĹ¥": 5250,
      "æĬĢ": 5251,
      "ĠEverybody": 5252,
      "ĠToday": 5253,
      "Ġsinger": 5254,
      "ãģ¾ãĤĭãģ§": 5255,
      "Ġeduc": 5256,
      "Ġeggs": 5257,
      "Ġprobably": 5258,
      "ey": 5259,
      "gy": 5260,
      "¬ãĤ¹": 5261,
      "å°ĳå¹´": 5262,
      "Ġide": 5263,
      "ĲĪ": 5264,
      "Ŀĳ": 5265,
      "ãģ«ãģ¡": 5266,
      "ãģªãĤĵãģ§": 5267,
      "ãĤĴãĤĪãģı": 5268,
      "ãģ¨åĳ¼": 5269,
      "Ġfif": 5270,
      "ãģıãĤĮãģªãģĦ": 5271,
      "Ġsugg": 5272,
      "ĠçĽ®": 5273,
      "ãĥĥãĥĪãĥ": 5274,
      "å¿ľ": 5275,
      "éĻ¸": 5276,
      "ãģ¯ãĥķ": 5277,
      "è¦ģæ±Ĥ": 5278,
      "ãĤ¸ãĥ§ãĥ³": 5279,
      "ĠGod": 5280,
      "Ġkey": 5281,
      "Ġneeds": 5282,
      "ĠãĤ¸ãĥ§": 5283,
      "ãģĵãģ¨ãģĮãģ§ãģįãģªãģĭãģ£ãģŁ": 5284,
      "ãĥ³ãĤµãĥ¼ãĥĪ": 5285,
      "Ġsuggest": 5286,
      "Ġought": 5287,
      "ĪĪåĳ³": 5288,
      "ĮĻ": 5289,
      "ķ£æŃ©": 5290,
      "ĻĤãĢħ": 5291,
      "èĢĲ": 5292,
      "ãĥĥãĥģ": 5293,
      "ĠãģĤãģªãģŁãģ¯æ": 5294,
      "åĲĪãģ£ãģŁ": 5295,
      "ãģ§ãģįãĤĭãģłãģĳ": 5296,
      "Ġãģĵãģĵãģ§": 5297,
      "ffect": 5298,
      "ãģĵãģ¨ãģĮãģ§ãģįãģŁ": 5299,
      "ãģ«å¯¾ãģĻãĤĭ": 5300,
      "ç½®": 5301,
      "ãĤįãģĦãĤį": 5302,
      "Ġreceived": 5303,
      "Ġhistory": 5304,
      "ex": 5305,
      "§¦": 5306,
      "æ§ĭ": 5307,
      "Ġéĩĳ": 5308,
      "ĸŃ": 5309,
      "Ġtoward": 5310,
      "Ġå½¼ãģ«": 5311,
      "ãĤĮãģ¦ãģĦ": 5312,
      "ãģ£ãģŁãĤĬ": 5313,
      "ãģ¤ãģĳ": 5314,
      "å½¼ãģ®": 5315,
      "ãĥ¼ãĥģ": 5316,
      "Ġkid": 5317,
      "ãģłãģ£ãģŁãģ®ãģ§": 5318,
      "Ġcars": 5319,
      "Ġbecom": 5320,
      "Ġpartic": 5321,
      "Ġprefer": 5322,
      "äºĮäºº": 5323,
      "èĪ¬": 5324,
      "Ġwarm": 5325,
      "Ġpatient": 5326,
      "Ġpurp": 5327,
      "åħĥæ°Ĺ": 5328,
      "Ġnewspaper": 5329,
      "åŀĭ": 5330,
      "cil": 5331,
      "éĮ": 5332,
      "ĠãĤ¯": 5333,
      "ĸ«": 5334,
      "ãģ¯ãģĿãģ®å": 5335,
      "ãģĭãģĭãģ£ãģŁ": 5336,
      "ãģ¨ãģĪ": 5337,
      "èª²": 5338,
      "ury": 5339,
      "Ġdevelop": 5340,
      "artment": 5341,
      "ãģ®ãĥģ": 5342,
      "ãģĵãģ¨ãģĮãģĤãĤĬãģ¾ãģĻãģĭ": 5343,
      "Ġsafe": 5344,
      "Ġprov": 5345,
      "ãģªãģıãģªãģ£ãģŁ": 5346,
      "ĠOh": 5347,
      "ãģĮè²": 5348,
      "ãĤĴãģĻãĤĭãģ®": 5349,
      "Ġcareless": 5350,
      "ãģ«ä¼ļãģĨ": 5351,
      "ï¼ĳï¼Ĳï¼Ĳ": 5352,
      "Ġattention": 5353,
      "ç¬¦": 5354,
      "Ġèª°ãģĮ": 5355,
      "ãĤĴèªŃãģ¿": 5356,
      "æĶ¯": 5357,
      "ãĥĶãĤ¢ãĥİ": 5358,
      "Ġpresident": 5359,
      "æķĻãģĪãģ¦": 5360,
      "éĽ¨ãģĮéĻįãĤĬ": 5361,
      "Ġillness": 5362,
      "Ġsucceeded": 5363,
      "ĠãĥĨãĥ¬ãĥĵ": 5364,
      ",\"": 5365,
      "å²": 5366,
      "ħķ": 5367,
      "ãģĮãĤĪãģı": 5368,
      "Ġhill": 5369,
      "Ġloss": 5370,
      "Ġå½¼ãģ®è": 5371,
      "ĠAust": 5372,
      "Ġãĥģ": 5373,
      "ãģ«ãģªãĤĬãģ¾ãģĻ": 5374,
      "ĠBob": 5375,
      "Ġhelped": 5376,
      "ãģ£ãģ¦ãĤĤãĤī": 5377,
      "Ġexpected": 5378,
      "Ġcharacter": 5379,
      "é¦¬é¹¿": 5380,
      "éĿ¢çĻ½ãģĦ": 5381,
      "Ġfloor": 5382,
      "æ¼Ķ": 5383,
      "ĭåº¦": 5384,
      "Ľå¾ħ": 5385,
      "ãģĦãĤĭãģ®": 5386,
      "ãĤĴéģ¸": 5387,
      "ãģ¨ãģĬ": 5388,
      "çĶĺ": 5389,
      "rodu": 5390,
      "Ġspring": 5391,
      "çī¹": 5392,
      "Ġamount": 5393,
      "åĲĪãģĨ": 5394,
      "è¿İ": 5395,
      "èªŃãģ¿": 5396,
      "åĨ·": 5397,
      "è³ªåķı": 5398,
      "èĩªèº«": 5399,
      "Ġyounger": 5400,
      "ĠStates": 5401,
      "ãģ«éĸ¢ãģĹãģ¦": 5402,
      "Ġrespons": 5403,
      "¨ãĥ¼ãĥŃ": 5404,
      "Ġ-": 5405,
      "ĢŁãĤĬ": 5406,
      "Ġsitting": 5407,
      "read": 5408,
      "Ġben": 5409,
      "Ġfru": 5410,
      "Ġeffect": 5411,
      "è¨Ń": 5412,
      "äºĭãģ¯": 5413,
      "Ġupon": 5414,
      "Ġdef": 5415,
      "Ġcloud": 5416,
      "Ġé§ħ": 5417,
      "ager": 5418,
      "Ġenem": 5419,
      "è²¡": 5420,
      "ä¸įåı¯èĥ½": 5421,
      "ãĥĳãĥ³": 5422,
      "ãģĻãģİãģ¦": 5423,
      "Ġãģ©ãģĨãģŀ": 5424,
      "Ġshowed": 5425,
      "ãģĹãģ°ãģĹãģ°": 5426,
      "åĪĿãĤģãģ¦": 5427,
      "Ġmissed": 5428,
      "¨ãĥ¼ãĥŃãĥĥãĥĳ": 5429,
      "īĦ": 5430,
      "ķµ": 5431,
      "Ġdut": 5432,
      "Ġå½¼ãģ«ãģ¯": 5433,
      "Ġpower": 5434,
      "ãģ¤ãģĳãģŁ": 5435,
      "è©³": 5436,
      "ains": 5437,
      "ãģ®çŁ¥": 5438,
      "é£¯": 5439,
      "ãĤ¢ãĥ«": 5440,
      "åıİ": 5441,
      "Ġjo": 5442,
      "ãģ®é«ĺ": 5443,
      "ãģ¯å¤ľ": 5444,
      "ãģĮèģŀãģĵ": 5445,
      "Ġrespect": 5446,
      "é¤Ĭ": 5447,
      "ĠBec": 5448,
      "Ġtaxi": 5449,
      "Ġesc": 5450,
      "ĠNobody": 5451,
      "èĲ½": 5452,
      "ãģªäºº": 5453,
      "ãģĵãģ®è": 5454,
      "ãĤĴåĬ©": 5455,
      "ãģĻãĤĭãģ®ãģ¯": 5456,
      "ãģ¯çļĨ": 5457,
      "Ġdev": 5458,
      "ãĥ©ãĤ¹": 5459,
      "Ġconst": 5460,
      "ãģĶãĤį": 5461,
      "Ġrob": 5462,
      "Ġä»Ĭå¤ľ": 5463,
      "Ġaccom": 5464,
      "Ġuniversity": 5465,
      "ache": 5466,
      "Ġtalked": 5467,
      "ä»¥å¤ĸ": 5468,
      "ģ¥ãģļ": 5469,
      "Ġrecord": 5470,
      "Ġski": 5471,
      "ãģ¯ãģ©ãģĵãģ§ãģĻãģĭ": 5472,
      "ç®Ĺ": 5473,
      "come": 5474,
      "æĮĩ": 5475,
      "ĠV": 5476,
      "Ĺĩ": 5477,
      "ĽĽ": 5478,
      "ãģĮãģ¨ãģ¦ãĤĤ": 5479,
      "ãģĹãģŁãģĵãģ¨": 5480,
      "ãģĹãģ¦ãģĹãģ¾ãģ£ãģŁ": 5481,
      "ãģ«æļ": 5482,
      "Ġexact": 5483,
      "å¾ĭ": 5484,
      "ĠJack": 5485,
      "ä¸ĬãģĴãģŁ": 5486,
      "Ġrock": 5487,
      "åĲĪãģĦ": 5488,
      "Ġbridge": 5489,
      "ĠãģĿãģ®åķıé¡Į": 5490,
      "ãģ«åĩºçĻº": 5491,
      "åĲįåīį": 5492,
      "çŃĨ": 5493,
      "äºĪç´Ħ": 5494,
      "è£ħ": 5495,
      "undred": 5496,
      "Ġshopping": 5497,
      "Ġdangerous": 5498,
      "Ġapolog": 5499,
      "gar": 5500,
      "ny": 5501,
      "©çĶ¨": 5502,
      "¶£": 5503,
      "ı´åĬ©": 5504,
      "ķħ": 5505,
      "ãģ®ãģ»ãģĨ": 5506,
      "ãĤĭãĤĤãģ®": 5507,
      "Ġmot": 5508,
      "Ġbeer": 5509,
      "ãģĪãģ¦ãģĦãģŁ": 5510,
      "è¨ª": 5511,
      "ĠãģĿãģ®æľ¬": 5512,
      "ada": 5513,
      "åĪĹè»Ĭ": 5514,
      "éĩ£": 5515,
      "Ġknowledge": 5516,
      "ãģ®éļ": 5517,
      "å¸¯": 5518,
      "Ġquit": 5519,
      "ãĤ³ãĥ¼ãĥĪ": 5520,
      "æŀļ": 5521,
      "è£½": 5522,
      "ãģ«ãģªãĤĬãģŁãģĦ": 5523,
      "çİĭ": 5524,
      "ĠAustral": 5525,
      "ĠBecause": 5526,
      "ai": 5527,
      "bs": 5528,
      "±ãģı": 5529,
      "īå¤§ãģª": 5530,
      "ãģĮé³´": 5531,
      "ãģĭãģ¤": 5532,
      "ãĤĬãģ«": 5533,
      "ãģ®å¸": 5534,
      "Ġeither": 5535,
      "Ġform": 5536,
      "Ġste": 5537,
      "ä½İ": 5538,
      "Ġrid": 5539,
      "ãģ«æ±º": 5540,
      "ãģ®çĻº": 5541,
      "Ġãĥª": 5542,
      "Ġéł": 5543,
      "æ³ģ": 5544,
      "Ġearl": 5545,
      "Ġproud": 5546,
      "ãģıãģªãĤĭ": 5547,
      "Ġproblems": 5548,
      "ãĥ¼ãĤ¹ãĥĪãĥ©": 5549,
      "Ġperfect": 5550,
      "Ġbehav": 5551,
      "ĠãĥīãĤ¢": 5552,
      "ued": 5553,
      "¯Ĵ": 5554,
      "æº": 5555,
      "ç¹": 5556,
      "Ġ4": 5557,
      "ĠãģĻãģ¹ãģ¦": 5558,
      "łãģĳ": 5559,
      "Ġwise": 5560,
      "ãģ§ãģ¯æ": 5561,
      "ones": 5562,
      "ãģĭãģĭãĤĬ": 5563,
      "Ġfear": 5564,
      "entle": 5565,
      "ãĤĴå®Ł": 5566,
      "ality": 5567,
      "urch": 5568,
      "äºĭãĤĴ": 5569,
      "ãĤĴèµ·ãģĵ": 5570,
      "ĠãģĤãģªãģŁãģ®": 5571,
      "Ġloved": 5572,
      "ãģ®æľĿ": 5573,
      "éĿ´": 5574,
      "Ġapple": 5575,
      "Ġharder": 5576,
      "åĢį": 5577,
      "æĽ´": 5578,
      "Ġopened": 5579,
      "èĪ¹": 5580,
      "Ġsleeping": 5581,
      "Ġstanding": 5582,
      "Ġserv": 5583,
      "Ġpoliceman": 5584,
      "Ġç§ģãģ®çĪ¶": 5585,
      "ãĥ¼ãĤ¹ãĥĪãĥ©ãĥªãĤ¢": 5586,
      "ľãĥ¼ãĥ«": 5587,
      "Ń©": 5588,
      "ãģŁãģ£ãģŁ": 5589,
      "ãģ¨è¨ĢãģĨ": 5590,
      "ories": 5591,
      "ãģ¯å°ĳãģĹ": 5592,
      "ãģ®æģ¯åŃĲ": 5593,
      "ents": 5594,
      "ãĤĴæĶ¯": 5595,
      "ãģĪãĤĭãģ®": 5596,
      "irm": 5597,
      "ä½ķãģ§ãĤĤ": 5598,
      "Ġability": 5599,
      "åº«": 5600,
      "æĸ¹æ³ķ": 5601,
      "ãģŁãģĦãģ¦ãģĦ": 5602,
      "Ġapples": 5603,
      "Ġappoint": 5604,
      "Ġrains": 5605,
      "ãģĲãĤīãģĦ": 5606,
      "åĭĻæīĢ": 5607,
      "ãĤĴæŃ¢": 5608,
      "éĺ²": 5609,
      "Ġefforts": 5610,
      "ĠMonday": 5611,
      "iar": 5612,
      "´Ī": 5613,
      "ĥéĻ¤": 5614,
      "Įåħ¨": 5615,
      "Ľ³": 5616,
      "ãģ¯ãģĤãģ¾ãĤĬ": 5617,
      "Ġsus": 5618,
      "Ġmaj": 5619,
      "ãģĭãĤĮãģŁ": 5620,
      "ãģĻãģ®": 5621,
      "ĠTell": 5622,
      "Ġlay": 5623,
      "Ġthousand": 5624,
      "ãĤĬãģªãģķãģĦ": 5625,
      "ãģ¯åħ": 5626,
      "ãģ«å®": 5627,
      "ãģ«å±": 5628,
      "ãģ£ãģ¦ãģıãĤĭ": 5629,
      "Ġround": 5630,
      "Ġå½¼ãģ¯ãģĿãģ®å": 5631,
      "ãģĹãģ¦ãģıãĤĮ": 5632,
      "ãģ«æħ£": 5633,
      "è¨ĢãĤıãģªãģĦ": 5634,
      "ãĤĴçĦ¡": 5635,
      "ãģ»ãģĭ": 5636,
      "ãģ®é¦": 5637,
      "ildren": 5638,
      "åįģåĪĨ": 5639,
      "Ġmoved": 5640,
      "ĠEngland": 5641,
      "ãĤĮãģ¦ãģĹãģ¾ãģ£ãģŁ": 5642,
      "ressed": 5643,
      "Ġmatch": 5644,
      "Ġprot": 5645,
      "èĪİ": 5646,
      "Ġkeeps": 5647,
      "èĩªçĶ±": 5648,
      "Ġäººéĸĵ": 5649,
      "Ġfailure": 5650,
      "Ġsupport": 5651,
      "Ġdifference": 5652,
      "éĬĢè¡Į": 5653,
      "Ġãĥķãĥ©ãĥ³ãĤ¹èªŀ": 5654,
      "¬¬": 5655,
      "Ġ6": 5656,
      "ãģ¯ãģªãģĭãģ£ãģŁ": 5657,
      "ism": 5658,
      "Ġhundred": 5659,
      "Ġå°ĳãģĹ": 5660,
      "ãģ¯æĪĳãĢħ": 5661,
      "ides": 5662,
      "Ġç§ģãģ¯ä»Ĭ": 5663,
      "ä½ķãĤĴ": 5664,
      "ãĤ¤ãĥķ": 5665,
      "unk": 5666,
      "Ġvar": 5667,
      "ãģ«è¡Įãģį": 5668,
      "ĠOs": 5669,
      "Ġappre": 5670,
      "Ġç§ģãģ¯å½¼ãģĮ": 5671,
      "ä¿¡çĶ¨": 5672,
      "Ġrecently": 5673,
      "æİ¥": 5674,
      "¿ĳãģ¥": 5675,
      "éĽªãģĮ": 5676,
      "ãģ«æ³¨æĦı": 5677,
      "Ġenjoyed": 5678,
      "Ġsuddenly": 5679,
      "Ġinnoc": 5680,
      "Ġpurpose": 5681,
      "±éŁ¿": 5682,
      "Ġä¸ĩ": 5683,
      "Ĥ·": 5684,
      "Ĥĺ": 5685,
      "ãģ¯è¦ĭ": 5686,
      "Ġmain": 5687,
      "Ġcir": 5688,
      "ãģ¾ãģĪ": 5689,
      "ãģĵãģ®æľ¬": 5690,
      "Ġpar": 5691,
      "Ġthirty": 5692,
      "Ġnor": 5693,
      "Ġnone": 5694,
      "Ġstate": 5695,
      "rible": 5696,
      "ĠWell": 5697,
      "Ġçģ«": 5698,
      "ulation": 5699,
      "Ġå½¼å¥³ãģ¯èĩªåĪĨ": 5700,
      "ãģ«ç½®": 5701,
      "Ġseemed": 5702,
      "å±ħ": 5703,
      "Įģãģ¡": 5704,
      "ĠãģĬåīį": 5705,
      "Ġpoet": 5706,
      "é¡į": 5707,
      "éģħãĤĮãģŁ": 5708,
      "Ġeaten": 5709,
      "ãĤĴèªŃãĤĵãģ§": 5710,
      "äºĭæķħãģ§": 5711,
      "è©¦é¨ĵãģ«åĲĪæł¼": 5712,
      "ãģĨãģ¾ãģĦ": 5713,
      "Ķ¿åºľ": 5714,
      "ĠãģĻãģ¿ãģ¾ãģĽãĤĵ": 5715,
      "Ġhungry": 5716,
      "ĠAustralia": 5717,
      "iol": 5718,
      "°·": 5719,
      "°ĨæĿ¥": 5720,
      "åī": 5721,
      "éįµ": 5722,
      "ĠãģłãĤĮ": 5723,
      "ãģĦãģ¦ãģĦãģ¾ãģĻ": 5724,
      "ãģ£ãģĵ": 5725,
      "ãģĮãģĻ": 5726,
      "Ġlau": 5727,
      "Ġç§ģãģ«": 5728,
      "Ġæµ·": 5729,
      "ãģĪãģ¾ãģĻ": 5730,
      "ĠãģĤãģ®äºº": 5731,
      "ãģ«ãģªãĤĭãģ¨": 5732,
      "Ġexerc": 5733,
      "Ġproject": 5734,
      "Ġoffer": 5735,
      "Ġboat": 5736,
      "ĠGet": 5737,
      "©Łæ¢°": 5738,
      "ķ°åŃ¦": 5739,
      "ĠçĪ¶ãģ¯": 5740,
      "ãĥľãĤ¹ãĥĪãĥ³": 5741,
      "Ġpainting": 5742,
      "æıĽ": 5743,
      "æĦŁãģĺ": 5744,
      "Ġ20": 5745,
      "Ġemploy": 5746,
      "èŃ·å£«": 5747,
      "èª¤ãĤĬ": 5748,
      "Ġrules": 5749,
      "èĭ¥": 5750,
      "ãģ®è©¦åĲĪ": 5751,
      "ãģ«ç§ģ": 5752,
      "ãģ«éĸĵãģ«åĲĪ": 5753,
      "ãĤĴãģķ": 5754,
      "ãģĮä¸Ĭæīĭ": 5755,
      "Ġmill": 5756,
      "Ġcool": 5757,
      "Ġdiv": 5758,
      "Ġå½¼ãģ¯å¤§": 5759,
      "Ġgentle": 5760,
      "ãģªãģĦãĤĪ": 5761,
      "ãģįãĤī": 5762,
      "äººãģ«": 5763,
      "Ġweak": 5764,
      "ãĤģãģ£ãģŁ": 5765,
      "ãģ«æī": 5766,
      "ãĤĴèĩª": 5767,
      "ãĤĴç¢º": 5768,
      "Ġhasn": 5769,
      "åĬ¹": 5770,
      "åĭ¤": 5771,
      "ãĤ¸ãĥ§": 5772,
      "ĠãģĿãģ®å°ĳå¹´": 5773,
      "Ġtwenty": 5774,
      "éģķãģĦ": 5775,
      "ĠãĤ¸ãĥ£": 5776,
      "ĠAny": 5777,
      "è²·ãģ£ãģŁ": 5778,
      "Ġreturned": 5779,
      "Ġearthqu": 5780,
      "èĩ´": 5781,
      "æ£Ĵ": 5782,
      "ĠãĥĪãĥłãģ¨ãĥ¡ãĤ¢ãĥªãĥ¼": 5783,
      "ners": 5784,
      "®ãģĭ": 5785,
      "çĴ": 5786,
      "Ġé£Ľè¡Įæ©Ł": 5787,
      "ĠãĤıãĤĮãĤıãĤĮ": 5788,
      "Ĭł": 5789,
      "hem": 5790,
      "ãĤĴãģ©ãģĨ": 5791,
      "ãĤĴãģĹãģ¾ãģĻ": 5792,
      "ãģĹãģķ": 5793,
      "Ġcast": 5794,
      "ç§»": 5795,
      "Ġgrew": 5796,
      "ĠHere": 5797,
      "iced": 5798,
      "ãģ¯æ°´": 5799,
      "ãģ¯æ±ºãģĹãģ¦": 5800,
      "äººãģ¨": 5801,
      "ãĤĴæ´Ĺ": 5802,
      "ãģ«æĦŁ": 5803,
      "ãģ®çĦ¡": 5804,
      "iling": 5805,
      "ãģ¯å½¼ãģ®": 5806,
      "Ġchurch": 5807,
      "Ġè¿ĳ": 5808,
      "ãģ®ãĥĨ": 5809,
      "æķµ": 5810,
      "Ġanybody": 5811,
      "å¥½ãģįãģª": 5812,
      "ãĥĲãĥ¼": 5813,
      "Ġground": 5814,
      "ãģ¨ãģĵãĤįãģ§ãģĻ": 5815,
      "ãģ«ãģªãĤĭãģłãĤįãģĨ": 5816,
      "Ġmovies": 5817,
      "Ġspecial": 5818,
      "åĩ¦": 5819,
      "ĠChinese": 5820,
      "£®": 5821,
      "§Ķ": 5822,
      "µä¾¿": 5823,
      "¹ä»ĭ": 5824,
      "»ħ": 5825,
      "Ġve": 5826,
      "Ĥ¹": 5827,
      "Ĵæ¥Ń": 5828,
      "ãĤĭãĤĪãģĨ": 5829,
      "ãģ§ä¸Ģçķª": 5830,
      "Ġbright": 5831,
      "Ġdate": 5832,
      "ãģ¯åŃĲä¾Ľ": 5833,
      "ãģ«åĥį": 5834,
      "Ġmeat": 5835,
      "ãģ°ãĤĵ": 5836,
      "eared": 5837,
      "ãģĵãģ¨ãģĮãģ§ãģįãģªãģĦ": 5838,
      "ãģªãģıãģ¦ãĤĤ": 5839,
      "Ġé¦": 5840,
      "çĽĹ": 5841,
      "¯įè¦ª": 5842,
      "ciate": 5843,
      "ľŁå®Ł": 5844,
      "å¤ĸåĽ½": 5845,
      "Ġbeauty": 5846,
      "Ġguy": 5847,
      "èª¿ãģ¹": 5848,
      "Ġentered": 5849,
      "Ġlearned": 5850,
      "ãĤĴæ¥½ãģĹãģ¿": 5851,
      "Ġcolor": 5852,
      "Ġæĺ¨å¤ľ": 5853,
      "¶£åĳ³": 5854,
      "father": 5855,
      "ugg": 5856,
      "¦ģ": 5857,
      "²»": 5858,
      "µµ": 5859,
      "æ¶Ī": 5860,
      "èĥ": 5861,
      "Ĥ©": 5862,
      "ĭ¤": 5863,
      "ĸĦ": 5864,
      "ãģģ": 5865,
      "Ġahead": 5866,
      "ãĤĴãģĦ": 5867,
      "ãĤĴãģĻ": 5868,
      "Ġå¾": 5869,
      "Ġå°ı": 5870,
      "Ġcou": 5871,
      "Ġfur": 5872,
      "Ġfil": 5873,
      "Ġdi": 5874,
      "ãĤĤãģ¡": 5875,
      "ãĤĬãģŁãģĦ": 5876,
      "ĠTheir": 5877,
      "ãģ®åħ": 5878,
      "ãģ®åł´": 5879,
      "oof": 5880,
      "Ġreached": 5881,
      "éģ¿": 5882,
      "Ġå½¼ãģ¯ä»Ĭ": 5883,
      "Ġworse": 5884,
      "ãģ»ãĤĵ": 5885,
      "ãģĦãģ¦ãĤĤ": 5886,
      "Ġloves": 5887,
      "ĹħéĻ¢": 5888,
      "ĠGood": 5889,
      "ãĤĢãģĹãĤį": 5890,
      "ãģ¯æľī": 5891,
      "Ġgroup": 5892,
      "Ġimpro": 5893,
      "Ġprevent": 5894,
      "Ġbelong": 5895,
      "ãģ«ãģĹãģ¦ãģĬ": 5896,
      "ãĤĴç«ĭãģ¦": 5897,
      "ãģĨãĤĮãģĹãģĦ": 5898,
      "iddle": 5899,
      "Ġdisappoint": 5900,
      "Ġearlier": 5901,
      "\".": 5902,
      "¨æĸĩ": 5903,
      "·¦": 5904,
      "æĤªãģĦ": 5905,
      "è¢": 5906,
      "ĥħ": 5907,
      "ãģĦãģ¾ãģĽãĤĵ": 5908,
      "Ġmouth": 5909,
      "Ġå°ĳå¹´": 5910,
      "ãģ¨ãģª": 5911,
      "ãģıãģ¤": 5912,
      "ä¸ĺ": 5913,
      "Ġfort": 5914,
      "Ġstup": 5915,
      "ä¼ģ": 5916,
      "Ġç§ģãģ¯èĩªåĪĨ": 5917,
      "ãĤ¤ãĤ¿": 5918,
      "Ġsports": 5919,
      "ãĥķãĤ£": 5920,
      "ä½ıæīĢ": 5921,
      "åĮ¹": 5922,
      "ãĤĴå¼¾": 5923,
      "ãģĹãģ°ãĤīãģı": 5924,
      "¹¸ç¦ı": 5925,
      "Ġsentence": 5926,
      "éĢĥãģĴ": 5927,
      "éĺª": 5928,
      "ãĤ·ãĥ£ãĥĦ": 5929,
      "Ġbehavior": 5930,
      "cri": 5931,
      "ives": 5932,
      "rap": 5933,
      "åī²": 5934,
      "æ¿": 5935,
      "ãģ®ãģĤ": 5936,
      "ises": 5937,
      "ĠTw": 5938,
      "ãģłãģ£ãģ¦": 5939,
      "ãģłãĤģ": 5940,
      "ãģ®æī": 5941,
      "ãģ«åĭĿ": 5942,
      "Ġæļ": 5943,
      "äººçĶŁ": 5944,
      "è¦ĭãģ¦": 5945,
      "ĠãģĤãģĦãģ¤": 5946,
      "ĠçĮ«": 5947,
      "åħĦ": 5948,
      "ãĥĥãĤ°": 5949,
      "ãģĮæĤª": 5950,
      "Ġä»Ĭåº¦": 5951,
      "åĲĪãĤıãģĽ": 5952,
      "ä¹ħ": 5953,
      "ç¤º": 5954,
      "oken": 5955,
      "æĿ±äº¬": 5956,
      "ãģ«åĩºå¸Ń": 5957,
      "Ġå½¼ãģ¯ç§ģãģ«": 5958,
      "åĸ¶": 5959,
      "éĿŀå¸¸ãģ«": 5960,
      "ãģ®çµµ": 5961,
      "ãģ®éłĥ": 5962,
      "Ġgrandm": 5963,
      "Ġfruit": 5964,
      "cing": 5965,
      "form": 5966,
      "mas": 5967,
      "over": 5968,
      "yond": 5969,
      "Ġaud": 5970,
      "ãģĮãģĭãģĭ": 5971,
      "ãģĳãģ¦ãģĦãĤĭ": 5972,
      "ãģ®æĪĲåĬŁ": 5973,
      "ãĤĴæ³": 5974,
      "Ġwealth": 5975,
      "ãģ«æĬ": 5976,
      "Ġarea": 5977,
      "Ġshut": 5978,
      "Ġãĥı": 5979,
      "Ġexcept": 5980,
      "resh": 5981,
      "ãģ«è¡Įãģįãģ¾ãģĻ": 5982,
      "Ġä»Ĭå¹´": 5983,
      "Ġquar": 5984,
      "ĠæľĿ": 5985,
      "cious": 5986,
      "éħĶ": 5987,
      "ä»£ãĤıãĤĬ": 5988,
      "ãģĹãģ¾ãģĹãģŁãģĭ": 5989,
      "ãĥĬãĥĢ": 5990,
      "Ġpictures": 5991,
      "ĠãĤ³ãĥ¼ãĥĴãĥ¼": 5992,
      "ĠåĪĹè»Ĭ": 5993,
      "Ġslowly": 5994,
      "Ļ®éĢļ": 5995,
      "æģ¯": 5996,
      "èĸ¬": 5997,
      "Ġä¸ĸçķĮ": 5998,
      "ĭĩ": 5999,
      "İ³": 6000,
      "Łº": 6001,
      "ãģ«ä¸Ģ": 6002,
      "Ġdam": 6003,
      "Ġpull": 6004,
      "ãģ¯å®Ł": 6005,
      "Ġhabit": 6006,
      "ãģ¯æĺİæĹ¥": 6007,
      "ĠæĻĤéĸĵ": 6008,
      "ĠæĿ±äº¬": 6009,
      "Ġå½¼ãģ¯ãģ¨ãģ¦ãĤĤ": 6010,
      "ãĤģãģªãģķãģĦ": 6011,
      "Ġnotice": 6012,
      "å¤ª": 6013,
      "å½¼ãģ¯ç": 6014,
      "ãĤĦãĤī": 6015,
      "Ġãĥĩ": 6016,
      "ãģĺãģ¦": 6017,
      "ãģ¯è³": 6018,
      "Ġviol": 6019,
      "ãģ¯å¤©": 6020,
      "ãģĿãĤĮãģĮ": 6021,
      "Ġå¤ĸ": 6022,
      "ãĥ³ãĤ´": 6023,
      "éģħãĤĮ": 6024,
      "ãģķãģĽãģ¦": 6025,
      "Ġwaited": 6026,
      "Ġstaying": 6027,
      "ĠChildren": 6028,
      "Ġdriver": 6029,
      "ãĤĴæĬķ": 6030,
      "ãģ®çµĮ": 6031,
      "Ġcorrect": 6032,
      "Ġclimb": 6033,
      "ĠGerman": 6034,
      "ĠChristmas": 6035,
      "more": 6036,
      "ror": 6037,
      "§Ĵ": 6038,
      "¼ãģĹ": 6039,
      "¿ħè¦ģ": 6040,
      "æ¬²": 6041,
      "ãģ¯ãģĤãĤĭ": 6042,
      "ãģ®éģĵ": 6043,
      "ãģĹãģĿãģĨ": 6044,
      "Ġbound": 6045,
      "Ġlady": 6046,
      "ases": 6047,
      "ãĤĤãģĤãĤĭ": 6048,
      "ĠæķĻ": 6049,
      "ãģĬãģĦ": 6050,
      "ters": 6051,
      "åı¸": 6052,
      "Ġintrodu": 6053,
      "éłĤ": 6054,
      "Ġpoem": 6055,
      "èªŃæĽ¸": 6056,
      "ãģ¶ãĤĬ": 6057,
      "Ġfamil": 6058,
      "ãĤĦãģ£ãģ¦ãģ¿": 6059,
      "ãģ®åıĭäºº": 6060,
      "Ġmarry": 6061,
      "ãĤĴä½¿ãģĨ": 6062,
      "é»Ĵ": 6063,
      "ĠNothing": 6064,
      "éģĬãģ³": 6065,
      "ãĥĽãĥĨãĥ«": 6066,
      "è±¡": 6067,
      "Ġanxious": 6068,
      "Ġstupid": 6069,
      "cuse": 6070,
      "£ı": 6071,
      "Ĳĳ": 6072,
      "ising": 6073,
      "Ġmess": 6074,
      "Ġhop": 6075,
      "Ġpot": 6076,
      "ãģ«å¼": 6077,
      "äººãģŁãģ¡": 6078,
      "ĠItal": 6079,
      "åı¤": 6080,
      "æĻĤè¨Ī": 6081,
      "å¹´ä¸Ĭ": 6082,
      "Ġlock": 6083,
      "Ġfair": 6084,
      "ĠãģĿãģ®çĶ·": 6085,
      "çĦ¼": 6086,
      "åįĥ": 6087,
      "ä¹ı": 6088,
      "ãģªãĤĵãģĭ": 6089,
      "èª¬å¾Ĺ": 6090,
      "ãģ®å®¶æĹı": 6091,
      "çŃĸ": 6092,
      "¯İæľĿ": 6093,
      "ãĤ¯ãĥ©ãĥĸ": 6094,
      "rupt": 6095,
      "Ġcollect": 6096,
      "ãģĭãģĮãģ§ãģĻãģĭ": 6097,
      "æĤĶ": 6098,
      "Ġmajor": 6099,
      "ĠOsaka": 6100,
      "éı¡": 6101,
      "Ġer": 6102,
      "ħ¹": 6103,
      "ĭãģŃãģŁ": 6104,
      "Ļ´": 6105,
      "ãģ¾ãģªãģĦ": 6106,
      "ãģıãģĵãģ¨": 6107,
      "Ġbeyond": 6108,
      "ayed": 6109,
      "ãģ¯æĺ": 6110,
      "Ġæĸ°": 6111,
      "Ġstar": 6112,
      "ãĤĴåĢŁãĤĬ": 6113,
      "ãĥ³ãģĮ": 6114,
      "ãģĭãĤīåĩº": 6115,
      "ãĥ¼ãĥĳ": 6116,
      "ãģ¯ç©º": 6117,
      "ãĤĴèĦ": 6118,
      "ãģ«çµĤ": 6119,
      "ĠåĲĽãģ®": 6120,
      "ãģªãģıãģª": 6121,
      "Ġå¤ľ": 6122,
      "Ġmod": 6123,
      "Ġtwice": 6124,
      "ãģĭãģĳãĤĭ": 6125,
      "éĢ±æľ«": 6126,
      "ç·´": 6127,
      "ãĥģãĥ¼ãĥł": 6128,
      "ĠãĤ¸ãĥł": 6129,
      "Ġkindness": 6130,
      "ãģĸãĤĭ": 6131,
      "Ġdecision": 6132,
      "ãģ«åıĤåĬł": 6133,
      "å·®": 6134,
      "Ġpiece": 6135,
      "ãĤĴåħ¨éĥ¨": 6136,
      "éĩ£ãĤĬ": 6137,
      "oid": 6138,
      "¸Ĭ": 6139,
      "ĮæľĽ": 6140,
      "ãģŁãģ³": 6141,
      "ãģ«ãģĻ": 6142,
      "Ġhate": 6143,
      "ãģ¨åĲĮ": 6144,
      "ancy": 6145,
      "ĠTry": 6146,
      "itc": 6147,
      "lew": 6148,
      "ãģ¯æĹ¥": 6149,
      "ãģ¾ãģĻãģ¾ãģĻ": 6150,
      "ãģĹãģ¦ãģıãĤĮãĤĭ": 6151,
      "éĢĨ": 6152,
      "olen": 6153,
      "Ġproper": 6154,
      "ãģĮèī¯ãģĦ": 6155,
      "raz": 6156,
      "ĠãģĬéĩĳ": 6157,
      "ãĤ·ãĥ§ãĥ³": 6158,
      "è²§": 6159,
      "åĢĭ": 6160,
      "è³¢": 6161,
      "Ġèª°ãģĭ": 6162,
      "Ġcommun": 6163,
      "åİŁ": 6164,
      "Ġfishing": 6165,
      "ãĤĴæŃ©": 6166,
      "ãĤ¯ãĥªãĤ¹ãĥŀ": 6167,
      "İ»å¹´": 6168,
      "Ġjudge": 6169,
      "²¾": 6170,
      "Ġtask": 6171,
      "ãģ¯ãģ¿ãĤĵãģª": 6172,
      "ãģ«ãģĦãģ¾ãģĻ": 6173,
      "ãĤĴä¸ĭ": 6174,
      "ãģ§å½¼å¥³": 6175,
      "ãģĭãĤĤ": 6176,
      "Ġfat": 6177,
      "ãģ¾ãģĹ": 6178,
      "ãģĵãģĿ": 6179,
      "ushed": 6180,
      "ĠSomet": 6181,
      "ãģ«åį": 6182,
      "Ġrice": 6183,
      "èªĮ": 6184,
      "è¡ĮçĤº": 6185,
      "ãģ°ãģĵ": 6186,
      "ãĥ¼ãĥ©": 6187,
      "ãģ«ãģªãĤīãģªãģĦ": 6188,
      "åıĭäºº": 6189,
      "ãģ¯å½¼ãģĮ": 6190,
      "ĠCom": 6191,
      "è»į": 6192,
      "Ġjoke": 6193,
      "Ġjump": 6194,
      "Ġanymore": 6195,
      "èĢħãģł": 6196,
      "igent": 6197,
      "ãģ¨ãģĦãģ£ãģŁ": 6198,
      "åľŁ": 6199,
      "åį±éĻº": 6200,
      "Ġflat": 6201,
      "ä¿¡éł¼": 6202,
      "ãĥĭãĥĥãĤ¯": 6203,
      "ãģ®å¤ı": 6204,
      "ãģĵãģĵãģ§": 6205,
      "Ġremind": 6206,
      "ãĤĴçŁ¥ãĤīãģªãģĦ": 6207,
      "æİĽ": 6208,
      "åĤ·": 6209,
      "Ġflower": 6210,
      "çĶ°èĪİ": 6211,
      "éĩįè¦ģãģª": 6212,
      "ãĤĴå°½ãģı": 6213,
      "ãģ®éĿ´": 6214,
      "åŁŁ": 6215,
      "Ġeffort": 6216,
      "Ġburst": 6217,
      "gram": 6218,
      "Ġãĥĵãĥ«": 6219,
      "Ġï¼ĳï¼Ĳ": 6220,
      "ĠãĤ¹ãĥŁãĤ¹": 6221,
      "ãģ¯ãĥĪãĥł": 6222,
      "inal": 6223,
      "ãĤĴãģ¿": 6224,
      "ãģĹãĤĤ": 6225,
      "iter": 6226,
      "ĠSorry": 6227,
      "Ġrum": 6228,
      "Ġmemb": 6229,
      "ãĤıãĤĭ": 6230,
      "ãĤģãĤĵ": 6231,
      "ãģĻãĤĭãģŁãĤģ": 6232,
      "è¡Įãģĭ": 6233,
      "ãĤĴç¿Ĵ": 6234,
      "ãģ«ãģªãģ£ãģ¦ãģĦãģŁ": 6235,
      "Ġlikely": 6236,
      "apers": 6237,
      "Ġalive": 6238,
      "å¹´ãģ«": 6239,
      "arely": 6240,
      "å¼ķãģį": 6241,
      "ãģ¨æĢĿãģ£ãģ¦ãģĦãģŁ": 6242,
      "å¯Ĵ": 6243,
      "Ġå¤ı": 6244,
      "æĦıè¦ĭ": 6245,
      "Ġhappiness": 6246,
      "ãĥŃãĥ³ãĥīãĥ³": 6247,
      "çĦ¡é§Ħ": 6248,
      "ãĥŀãĤ¤ãĥ«": 6249,
      "Ġliked": 6250,
      "medi": 6251,
      "ãģ«æ°Ĺãģ¥": 6252,
      "ãĤ³ãĥ³ãĥĶãĥ¥ãĥ¼ãĤ¿ãĥ¼": 6253,
      "Ġpleased": 6254,
      "Ġprize": 6255,
      "Ġmarket": 6256,
      "åıĹãģĳ": 6257,
      "éĢŁãģıèµ°": 6258,
      "ãĤ²ãĥ¼ãĥł": 6259,
      "Ġideas": 6260,
      "Ġduty": 6261,
      "§Ķåĵ¡": 6262,
      "æºĢ": 6263,
      "Ġir": 6264,
      "Ġä¸¡è¦ª": 6265,
      "ãģ¯ãģĿãĤĮ": 6266,
      "Ġaut": 6267,
      "ãģ®éĩĳ": 6268,
      "ãģ®ãģ¨ãģį": 6269,
      "ãģ¨ãģĹãģ¦ãģĦãĤĭ": 6270,
      "Ġdrop": 6271,
      "ency": 6272,
      "ãģ¾ãĤīãģªãģĦ": 6273,
      "ãĤīãĤĵ": 6274,
      "ãĤīãģ¬": 6275,
      "ãģĿãģĹãģ¦": 6276,
      "ãģ¯å½ĵ": 6277,
      "ĠSee": 6278,
      "Ġstolen": 6279,
      "ãģĽãĤĭ": 6280,
      "ãģĹãģ¦ãģįãģŁ": 6281,
      "Ġseason": 6282,
      "ãĤĤãģ®ãģ§ãģĻ": 6283,
      "ĠBoth": 6284,
      "ãģ¯å¤±æķĹ": 6285,
      "Ġå½¼ãģ¯åı": 6286,
      "ãģ«æĿ¥ãģ¦": 6287,
      "Ġãģ©ãģ¡ãĤī": 6288,
      "Ġlanguages": 6289,
      "ä¸ĬãģĮãģ£ãģŁ": 6290,
      "ãģ«éĸ¢ãģĻãĤĭ": 6291,
      "Ġmeaning": 6292,
      "Ġdistance": 6293,
      "Ġcooking": 6294,
      "Ġnatural": 6295,
      "Ġproduct": 6296,
      "ĠExcuse": 6297,
      "Ġcondition": 6298,
      "Ġenemy": 6299,
      "ãĤ¤ãĤ¿ãĥªãĤ¢": 6300,
      "een": 6301,
      "hy": 6302,
      "¬ī": 6303,
      "ºĬ": 6304,
      "çĸĳ": 6305,
      "Ġï¼ĵ": 6306,
      "İĭ": 6307,
      "Ŀ¡": 6308,
      "Ġtour": 6309,
      "ãģĦãģĮ": 6310,
      "ãģ®ãĤĪ": 6311,
      "ãģĮå½¼å¥³": 6312,
      "ãģĮåħ¥": 6313,
      "ãģĮãģĤãĤĬãģ¾ãģĽãĤĵ": 6314,
      "Ġmis": 6315,
      "ãģ¨ç§ģ": 6316,
      "erve": 6317,
      "Ġcause": 6318,
      "Ġda": 6319,
      "Ġisland": 6320,
      "ãģ¯æĺ¨æĹ¥": 6321,
      "ãģ¯æ¥½": 6322,
      "idence": 6323,
      "ama": 6324,
      "ĠAp": 6325,
      "ĠèĪ¹": 6326,
      "ãģ§ãģįãģ¾ãģĻãģĭ": 6327,
      "ĠãĤŃ": 6328,
      "ortun": 6329,
      "ãģ¯å¤ļ": 6330,
      "Ġclock": 6331,
      "Ġblood": 6332,
      "ĠæľĪ": 6333,
      "Ġtelling": 6334,
      "æ¸©": 6335,
      "çķªåı·": 6336,
      "ãģ«ãģĬãģĦãģ¦": 6337,
      "ãģ«ä¼ļãģĦ": 6338,
      "ı¾åľ¨": 6339,
      "Ġsinging": 6340,
      "Ġlawy": 6341,
      "Ġmagaz": 6342,
      "«ĸ": 6343,
      "¾º": 6344,
      "Ġz": 6345,
      "ıı": 6346,
      "ãģĮãĤĭ": 6347,
      "ĠåŃ¦çĶŁ": 6348,
      "atur": 6349,
      "Ġlow": 6350,
      "Ġpun": 6351,
      "Ġposition": 6352,
      "Ġnine": 6353,
      "ãģ¦ãģĦãģĦ": 6354,
      "ãģ¯æĸ°ãģĹãģĦ": 6355,
      "ãģ«å®¶": 6356,
      "ented": 6357,
      "Ġreach": 6358,
      "èªĺ": 6359,
      "uted": 6360,
      "ĠMike": 6361,
      "Ġneg": 6362,
      "Ġç´": 6363,
      "ãĤĤãģ®ãģłãģ£ãģŁ": 6364,
      "Ġfeet": 6365,
      "å¤§åŃ¦": 6366,
      "Ġä»ĬæľĿ": 6367,
      "Ġener": 6368,
      "ãģ¯æľĿ": 6369,
      "æĽ¿": 6370,
      "ãĥĳãĥª": 6371,
      "èĩªè»¢è»Ĭ": 6372,
      "ä¸»å¼µ": 6373,
      "èª¿æŁ»": 6374,
      "æ±ºå¿ĥ": 6375,
      "ãģĭãĤıãģĦãģĦ": 6376,
      "ä¼¼ãģ¦ãģĦãĤĭ": 6377,
      "Ġgreen": 6378,
      "Ġgrandmother": 6379,
      "Ġmembers": 6380,
      "be": 6381,
      "lied": 6382,
      "¡©": 6383,
      "±ļ": 6384,
      "çĭ": 6385,
      "ĮĹ": 6386,
      "ãĥ¦": 6387,
      "ãĤĴéģĭè»¢": 6388,
      "Ġfield": 6389,
      "anced": 6390,
      "ãģĨãģĿ": 6391,
      "ãĤĵãģĺãĤĥãģªãģĦ": 6392,
      "å¥®": 6393,
      "Ġwash": 6394,
      "Ġring": 6395,
      "ãĤ¹ãĤŃãĥ¼": 6396,
      "ãģ®çī©": 6397,
      "è¨ĢãģĪãģ°": 6398,
      "æĻĤãģ«è": 6399,
      "ãģ«è¡ĮãģįãģŁãģĦ": 6400,
      "ãģ®æľį": 6401,
      "Ġimmedi": 6402,
      "ãģ¯æľĪ": 6403,
      "Ġ100": 6404,
      "Ġsooner": 6405,
      "ãģ¡ãĤĥãģ£ãģŁ": 6406,
      "ãĥĹãĥ¬": 6407,
      "ĠãĤ¸ãĤ§ãĥ¼ãĥ³": 6408,
      "èģŀãģĦãģŁ": 6409,
      "å·¥": 6410,
      "æ²¹": 6411,
      "æıĲ": 6412,
      "¥½ãģįãģª": 6413,
      "Ġresults": 6414,
      "Ġgrandfather": 6415,
      "ãģĮèµ·ãģĵãģ£ãģŁ": 6416,
      "ĠãģķãģĤ": 6417,
      "ç¯Ģ": 6418,
      "ãģĶãģĸãģĦãģ¾ãģĻ": 6419,
      "Ġcouple": 6420,
      "eg": 6421,
      "like": 6422,
      "¤º": 6423,
      "Ġ8": 6424,
      "Ġï¼": 6425,
      "Ġest": 6426,
      "ĩãĤĬ": 6427,
      "ĩå®": 6428,
      "ĶçĪ¶": 6429,
      "ŁŃ": 6430,
      "ãģŁãģªãģĦ": 6431,
      "Ġmaster": 6432,
      "Ġharm": 6433,
      "ĠåĽ½": 6434,
      "Ġlar": 6435,
      "ãģ®å£°": 6436,
      "ãģ¯æµ·": 6437,
      "ãģ¯æŃ£": 6438,
      "ãģ®æīĭç´Ļ": 6439,
      "Ġstone": 6440,
      "ãģ£ãģ¦ãģŁ": 6441,
      "Ġrese": 6442,
      "ãĤĴæĬ±": 6443,
      "ãĤĴæĸŃ": 6444,
      "ãģ®çĲĨ": 6445,
      "ĠãĥĶ": 6446,
      "ä¸Ńãģ«": 6447,
      "olved": 6448,
      "oses": 6449,
      "ãģ¯å¤ĸåĽ½": 6450,
      "ãģ¨ãģĦãģĳãģªãģĦ": 6451,
      "Ġå¤ĸåĽ½": 6452,
      "åº¦ãĤĤ": 6453,
      "ãģ¨ãģĵãĤįãģł": 6454,
      "Ġcarefully": 6455,
      "ĠäººãĢħ": 6456,
      "ãĤĴãĤĦãĤģãģŁ": 6457,
      "Ġperm": 6458,
      "å¾ĹæĦı": 6459,
      "éģłãģı": 6460,
      "ãģ«åĪ°çĿĢ": 6461,
      "Ġpencil": 6462,
      "ĠThanks": 6463,
      "ĠãģŁãģ¨ãģĪ": 6464,
      "ãģ£ãģ±ãĤĬ": 6465,
      "Ġpractice": 6466,
      "ç³ĸ": 6467,
      "Ġjoin": 6468,
      "ĩå®Ļ": 6469,
      "ging": 6470,
      "ton": 6471,
      "¶ħ": 6472,
      "åģ¥åº·": 6473,
      "Ĥī": 6474,
      "Ġsort": 6475,
      "ãģ¦ãģ¯": 6476,
      "ãĤĴãģĶ": 6477,
      "Ġmur": 6478,
      "ãģ¨ãģĻãĤĭ": 6479,
      "Ġlying": 6480,
      "omach": 6481,
      "ãģįãĤĥ": 6482,
      "ows": 6483,
      "ãģ¯æļ": 6484,
      "ãģ«åĭīå¼·": 6485,
      "ãģ«æķĻ": 6486,
      "éĽ²": 6487,
      "ãģ®èĬ±": 6488,
      "ãĤĴè¡¨": 6489,
      "Ġdelic": 6490,
      "Ġcomfort": 6491,
      "åĭī": 6492,
      "çµµ": 6493,
      "ĠNever": 6494,
      "ãģ¯ãĥŃ": 6495,
      "ĠãģĵãĤĮãģĮ": 6496,
      "Ġimag": 6497,
      "Ġæľ¨": 6498,
      "é«ĺæł¡": 6499,
      "Ġthemselves": 6500,
      "Ġcrit": 6501,
      "Ġsupposed": 6502,
      "æ¬¡ç¬¬": 6503,
      "»¶æľŁ": 6504,
      "Ġaudience": 6505,
      "yle": 6506,
      "¥¿": 6507,
      "Ġ$": 6508,
      "Ġ7": 6509,
      "Ġign": 6510,
      "ĪĹè»Ĭ": 6511,
      "ļãĥ³": 6512,
      "ãģ«ãģĤãĤĬãģ¾ãģĻ": 6513,
      "Ġsoup": 6514,
      "Ġfight": 6515,
      "ä¸¦": 6516,
      "Ġstomach": 6517,
      "entist": 6518,
      "äººãģ§": 6519,
      "ãģ©ãģį": 6520,
      "ãģĻãĤĭãĤĪãģĨ": 6521,
      "æĹ¥ãģ«": 6522,
      "Ġking": 6523,
      "ãģŁãģ¡ãģĮ": 6524,
      "ãĤĴç½®": 6525,
      "anted": 6526,
      "ãĤĵãģłãĤįãģĨ": 6527,
      "ä¼ļãģĨ": 6528,
      "ãģ§ãģįãģŁ": 6529,
      "ãģ«èĪĪåĳ³": 6530,
      "Ġloc": 6531,
      "ouses": 6532,
      "èª°ãģ«ãĤĤ": 6533,
      "Ġenv": 6534,
      "ä¸įæ³¨æĦı": 6535,
      "ãģ¹ãģįãģłãģ£ãģŁ": 6536,
      "ä½ľå®¶": 6537,
      "ãģ¯ä½ķãĤĤ": 6538,
      "ä¸»ç¾©": 6539,
      "ĠStop": 6540,
      "èī¯ãģı": 6541,
      "ãģĵãĤĮä»¥ä¸Ĭ": 6542,
      "Ġinvited": 6543,
      "ãģ¾ãģĹãĤĩãģĨãģĭ": 6544,
      "Ġminute": 6545,
      "å¦¹": 6546,
      "ãĥļãĥ³": 6547,
      "è©±ãģĽãĤĭ": 6548,
      "Į¯ãĤĬ": 6549,
      "ology": 6550,
      "Ġlistening": 6551,
      "Ġholiday": 6552,
      "Ġinjured": 6553,
      "gress": 6554,
      "¨®": 6555,
      "Ġauth": 6556,
      "ãģ®ãĤ¢": 6557,
      "ãģ¨ãģªãģ£ãģŁ": 6558,
      "Ġdraw": 6559,
      "ãĤĤãģ¨": 6560,
      "ãĤĵãģĶ": 6561,
      "Ġbeat": 6562,
      "ãģ©ãģ®ãģıãĤīãģĦ": 6563,
      "å®¿é¡Į": 6564,
      "Ġsuff": 6565,
      "Ġsoci": 6566,
      "ãĥĥãĤ«ãĥ¼": 6567,
      "ãĥ«ãĥķ": 6568,
      "ãģªãĤīãģ°": 6569,
      "ãģłãģ£ãģŁãĤī": 6570,
      "ãĤĮãĤĭãģ®": 6571,
      "ãģ®ãĥī": 6572,
      "ãģ©ãģĨãģĹãģ¦": 6573,
      "åĳĤ": 6574,
      "Ġwhatever": 6575,
      "ãģĿãĤĮãģ¯": 6576,
      "els": 6577,
      "æĪ¸": 6578,
      "çĻ»": 6579,
      "ãģĹãģ¦ãģĦãģ¾ãģĻãģĭ": 6580,
      "Ġdisp": 6581,
      "Ġblame": 6582,
      "Ġplans": 6583,
      "Ġç§ģãģ¯åĲĽ": 6584,
      "ãģ«åħ¥ãģ£ãģŁ": 6585,
      "ãĥĥãĤ¯ãĤ¹": 6586,
      "å¿ħè¦ģãģ¯ãģªãģĦ": 6587,
      "Ġruns": 6588,
      "ç§ģãģŁãģ¡ãģ¯": 6589,
      "ãģ«å¤ī": 6590,
      "çĶŁãģįãģ¦ãģĦãĤĭ": 6591,
      "Ġwonderful": 6592,
      "¼Ķèª¬": 6593,
      "Ġterms": 6594,
      "Ġdetail": 6595,
      "Ġdemand": 6596,
      "itchen": 6597,
      "ires": 6598,
      "æĮĻ": 6599,
      "éª¨": 6600,
      "Ń´åı²": 6601,
      "Ġmer": 6602,
      "Ġcop": 6603,
      "ences": 6604,
      "ãģıãģ¤ãģĭ": 6605,
      "ç§ģãĤĤ": 6606,
      "ãģ¯å¾": 6607,
      "ãģ¯åŃ¦æł¡": 6608,
      "ãģ®åŃ¦æł¡": 6609,
      "ãģ®åŃ¦çĶŁ": 6610,
      "lect": 6611,
      "Ġbeach": 6612,
      "Ġevent": 6613,
      "ãģ®æºĸåĤĻ": 6614,
      "ĠSatur": 6615,
      "aded": 6616,
      "æĹ¥éĸĵ": 6617,
      "riage": 6618,
      "ãģ®çµĲæŀľ": 6619,
      "ãĤĦãģķ": 6620,
      "åı¥": 6621,
      "Ġspoken": 6622,
      "Ġplays": 6623,
      "åĽ£": 6624,
      "ãĤĵãģ§ãģĦãģ¾ãģĻ": 6625,
      "ãģ«èĲ½ãģ¡": 6626,
      "æķ£æŃ©": 6627,
      "ãģ¯èµ¤": 6628,
      "ãĤĴè¦ĭãĤĭãģ¨": 6629,
      "ãĤ¿ãĤ¯ãĤ·ãĥ¼": 6630,
      "çĽĬ": 6631,
      "ãĤ³ãĥ³ãĤµãĥ¼ãĥĪ": 6632,
      "è²ł": 6633,
      "Īĳæħ¢": 6634,
      "åĢŁãĤĬ": 6635,
      "Ġflu": 6636,
      "ãĤĴæĮģãģ£ãģ¦ãģĦ": 6637,
      "æ´Ĺ": 6638,
      "äºĮãģ¤": 6639,
      "ãģĭãģªãģĭ": 6640,
      "æļĸ": 6641,
      "ãģĿãģĵãģ§": 6642,
      "ãģĹãģŁãģĦãģ®ãģ§ãģĻãģĮ": 6643,
      "ãģĿãģ®çŁ¥ãĤīãģĽ": 6644,
      "ãĥįãĥ«": 6645,
      "Ġsweet": 6646,
      "éĥİ": 6647,
      "çĬ¶æħĭ": 6648,
      "ĺĺãĤĴãģ¤": 6649,
      "Ľ°éĽ£": 6650,
      "Ģ¤æ®µ": 6651,
      "Ġprofess": 6652,
      "Ġcirc": 6653,
      "ghed": 6654,
      "nic": 6655,
      "¡Ģ": 6656,
      "¬Ľ": 6657,
      "°ãģ¹": 6658,
      "ģµ": 6659,
      "ħåŃĲ": 6660,
      "ĨĻçľŁ": 6661,
      "ãģ«ãģı": 6662,
      "Ġwake": 6663,
      "Ġfresh": 6664,
      "Ġloud": 6665,
      "ãģķãģ¾": 6666,
      "ãģķãĤĮãģ¦": 6667,
      "ldom": 6668,
      "ãģĵãģ¨ãĤĴæ": 6669,
      "Ġwel": 6670,
      "ĠMt": 6671,
      "ãģ«æĭ": 6672,
      "Ġshirt": 6673,
      "Ġkill": 6674,
      "æĻĤåįĬ": 6675,
      "åĽ²": 6676,
      "ãĤĴè¦ĭãģĽãģ¦": 6677,
      "ä¹±": 6678,
      "pty": 6679,
      "ãĥĨãĥ¼ãĥĸãĥ«": 6680,
      "ãģ©ãģĵãģĭ": 6681,
      "æĽ²": 6682,
      "Ġuseful": 6683,
      "åħ¨éĥ¨": 6684,
      "ĠäººçĶŁ": 6685,
      "Ġguess": 6686,
      "è¦ļãģĪ": 6687,
      "éĻĲãĤīãģªãģĦ": 6688,
      "Ġobs": 6689,
      "åıĸãģ£ãģŁ": 6690,
      "ĠæĺĶ": 6691,
      "çĶ³ãģĹåĩº": 6692,
      "éģİãģĶãģĹãģŁ": 6693,
      "Ġafford": 6694,
      "Ġsatisfied": 6695,
      "ãĤ¼ãĥ³ãĥĪ": 6696,
      "éĮ²": 6697,
      "Ġmillion": 6698,
      "Ġearthquake": 6699,
      "ãĤ¯ãĥªãĤ¹ãĥŀãĤ¹": 6700,
      "uri": 6701,
      "æĤ²": 6702,
      "æģĲ": 6703,
      "Ĥ£": 6704,
      "ãģªãģ®ãģĭ": 6705,
      "itar": 6706,
      "Ġoil": 6707,
      "ãĤīãĤĮãģ¦": 6708,
      "ãĤĬãģł": 6709,
      "ãģ®æķ°": 6710,
      "Ġwaste": 6711,
      "ãĤģãģªãģĦ": 6712,
      "è¡Įãģ£ãģ¦": 6713,
      "äºĭæ¥Ń": 6714,
      "Ġself": 6715,
      "Ġkitchen": 6716,
      "Ġãĥ¡": 6717,
      "Ġusual": 6718,
      "ä¸Ńãģ§ãģĻ": 6719,
      "å±Ī": 6720,
      "çķ°": 6721,
      "ãĤ¸ãĥ¥": 6722,
      "ãĤ¸ãĤ§": 6723,
      "Ġplayer": 6724,
      "ables": 6725,
      "Ġprison": 6726,
      "ç¤¾ä¼ļ": 6727,
      "Ġdrunk": 6728,
      "æļĹ": 6729,
      "ogn": 6730,
      "Ġrecogn": 6731,
      "Ġincome": 6732,
      "overed": 6733,
      "Ġsurprise": 6734,
      "¬łçĤ¹": 6735,
      "èĢĥãģĪãĤĭ": 6736,
      "Ġãĥľãĥĸ": 6737,
      "ãģ®éĿ¢": 6738,
      "Ġinstead": 6739,
      "ãģ®åĨĻçľŁ": 6740,
      "æ³£ãģį": 6741,
      "âĢĻ": 6742,
      "Ġeducation": 6743,
      "ãĤĤãģ¡ãĤį": 6744,
      "Ġlawyer": 6745,
      "10": 6746,
      "bo": 6747,
      "±Ĭ": 6748,
      "ĳ½": 6749,
      "ãģ¯ãģĻãģ¹ãģ¦": 6750,
      "ãģ¯ä¸ĸçķĮ": 6751,
      "ãģ«ä½¿": 6752,
      "ãģªãģĬ": 6753,
      "ãĤĴãģĵ": 6754,
      "ãģ§ç§ģ": 6755,
      "ãģ¾ãĤĤãģªãģı": 6756,
      "ãģ¯åľ°": 6757,
      "Ġheat": 6758,
      "å¥ª": 6759,
      "Ġrent": 6760,
      "cture": 6761,
      "Ġseldom": 6762,
      "ãĤĴè»": 6763,
      "åıį": 6764,
      "ãģ«çĽ®": 6765,
      "ãĥ«ãĤ¯": 6766,
      "Ġmanaged": 6767,
      "Ġprogram": 6768,
      "ãĤ¿ãĥ³": 6769,
      "ãĥ¬ãĥ³ãĤ¸": 6770,
      "ãĤĤãģĨä¸Ģåº¦": 6771,
      "Ġå¤ªéĻ½": 6772,
      "ãģĤãģªãģŁãģĮ": 6773,
      "åł´åĲĪ": 6774,
      "è³ŀ": 6775,
      "ãģıãģªãģ£ãģ¦": 6776,
      "åħ¨ãģı": 6777,
      "ãĤīãģĽãģŁ": 6778,
      "ãĤĪãģĨãģ¨ãģĹãģŁ": 6779,
      "ãĥĬãĥ¼": 6780,
      "ç¨İ": 6781,
      "éĢ£ãĤĮãģ¦": 6782,
      "ãģ¯åį±éĻº": 6783,
      "ãģ¯ãģ©ãĤĵãģª": 6784,
      "çİĩ": 6785,
      "łĤç³ĸ": 6786,
      "ãĤĴæ¥½ãģĹ": 6787,
      "éĽĳèªĮ": 6788,
      "ĠFrance": 6789,
      "ãģłãģĳãģ§ãģªãģı": 6790,
      "Ġneighbor": 6791,
      "Ľ³æĽ¸é¤¨": 6792,
      "Ġexercise": 6793,
      "ĠTwo": 6794,
      "mp": 6795,
      "¿»": 6796,
      "å§ī": 6797,
      "ģ½": 6798,
      "Ħļ": 6799,
      "ãģ«ãģĵ": 6800,
      "ãĤĴãģ¾": 6801,
      "Ġhang": 6802,
      "ãģ¾ãĤĮ": 6803,
      "ãģ¯åĽ½": 6804,
      "vered": 6805,
      "ots": 6806,
      "ãģ®å½¼": 6807,
      "Ġå½¼ãģ¯ä¸Ģ": 6808,
      "Ġitself": 6809,
      "ãĥĪãĥĭ": 6810,
      "ĠAcc": 6811,
      "ä¸ĢæĿ¯": 6812,
      "ĠãĥĬ": 6813,
      "Ġsugar": 6814,
      "ãĤ¢ãĥ³": 6815,
      "ãĤĴçĲĨè§£": 6816,
      "though": 6817,
      "æ°ĹæĮģãģ¡": 6818,
      "ãģ«èĭ±èªŀ": 6819,
      "ãĤ«ãĥ¼ãĥī": 6820,
      "Ġthinks": 6821,
      "æĿ¥ãģ¦": 6822,
      "Ġsomewhere": 6823,
      "ãĥ³ãĤº": 6824,
      "è¾º": 6825,
      "Ġfeelings": 6826,
      "æĺ¼": 6827,
      "ãĤĴãģ¤ãģĭ": 6828,
      "ãģ®ãģĬéĩĳ": 6829,
      "ãģ«åıįå¯¾": 6830,
      "å§ĭãĤģ": 6831,
      "ãĤĴé£²ãģ¿": 6832,
      "Ġextrem": 6833,
      "ãĤıãģĭãĤĭ": 6834,
      "Ġbirds": 6835,
      "īĽçŃĨ": 6836,
      "Ġtaste": 6837,
      "Ġengine": 6838,
      "Ġå¤©æ°Ĺ": 6839,
      "Ġoccur": 6840,
      "Ġdirect": 6841,
      "Ġexactly": 6842,
      "¤ħåŃĲ": 6843,
      "µ®ãģĭ": 6844,
      "¸Ľ": 6845,
      "åĺ": 6846,
      "å°ĳå¥³": 6847,
      "æ¬²ãģĹãģĦ": 6848,
      "ãģ¯ãģĻãģĲ": 6849,
      "ãģ«éģ¸": 6850,
      "rel": 6851,
      "ãĤĭãģª": 6852,
      "ering": 6853,
      "ç§ĭ": 6854,
      "ãģ®æ³": 6855,
      "ãģ«å½ĵ": 6856,
      "ãģĵãģ¨ãģ§": 6857,
      "ãĤĴå£²": 6858,
      "ãĥ³ãĥģ": 6859,
      "ãĤĴæ¨ª": 6860,
      "Ġrate": 6861,
      "Ġmeal": 6862,
      "Ġå½¼ãģ¯èĭ±èªŀ": 6863,
      "è¨º": 6864,
      "tery": 6865,
      "ãĤıãģªãģĳãĤĮãģ°ãģªãĤīãģªãģĦ": 6866,
      "Ġwithin": 6867,
      "åĲ¦": 6868,
      "ä½ķæĻĤ": 6869,
      "åĪĨãģĭãģ£ãģŁ": 6870,
      "åħ±": 6871,
      "ãģĺãģ£ãģ¨": 6872,
      "èªŀãĤĴ": 6873,
      "åĽº": 6874,
      "ĠLast": 6875,
      "ãĤĭãģ®ãģĭ": 6876,
      "Ġå½¼ãĤīãģ¯ç": 6877,
      "lfriend": 6878,
      "ãĥīãĥ¬ãĤ¹": 6879,
      "ãģªãģĳãĤĮãģ°ãģĦãģĳãģªãģĦ": 6880,
      "éłĨ": 6881,
      "ãģĹãģ¾ãģĦãģ¾ãģĹãģŁ": 6882,
      "Ġschol": 6883,
      "Ġwatched": 6884,
      "ãĤŃãĥ£": 6885,
      "Ġearn": 6886,
      "å¼·ãģĦ": 6887,
      "aces": 6888,
      "Ġprin": 6889,
      "ãģ«åħ¥ãĤĮãģŁ": 6890,
      "Ġweeks": 6891,
      "Ġreply": 6892,
      "Ġguitar": 6893,
      "æŃ£çĽ´": 6894,
      "å°ıèª¬": 6895,
      "éĥ½å¸Ĥ": 6896,
      "ĭãĥ¥ãĥ¼ãĥ¨ãĥ¼ãĤ¯": 6897,
      "Ġcaused": 6898,
      "Ġconcerned": 6899,
      "Ġfigure": 6900,
      "Ġfilm": 6901,
      "ole": 6902,
      "time": 6903,
      "°å¢ĥ": 6904,
      "¸è¡ĵ": 6905,
      "¸½åŃĲ": 6906,
      "Ġess": 6907,
      "ĠçĶ·": 6908,
      "Īå¥®": 6909,
      "Ļ½": 6910,
      "Ńĺ": 6911,
      "ãĢĤãĢį": 6912,
      "Ġach": 6913,
      "ãģ«éł¼": 6914,
      "ĠInd": 6915,
      "Ġcult": 6916,
      "Ġfr": 6917,
      "Ġfond": 6918,
      "Ġfirm": 6919,
      "Ġdest": 6920,
      "ãģłãģĦ": 6921,
      "Ġnamed": 6922,
      "ãĤĬãĤĵãģĶ": 6923,
      "ä¸¸": 6924,
      "ï¼ħ": 6925,
      "ãģ®å¿ĥ": 6926,
      "ãģ®æķĻ": 6927,
      "ãĤĴæĴ": 6928,
      "Ġrise": 6929,
      "åĪ°çĿĢ": 6930,
      "è©ŀ": 6931,
      "ãĤĴèĢĥãģĪ": 6932,
      "Ġcharge": 6933,
      "Ġexist": 6934,
      "ãĥ©ãĤ¸ãĤª": 6935,
      "Ġintell": 6936,
      "ãģĶãģ¨": 6937,
      "ãģĮèĩªåĪĨ": 6938,
      "ĠãģĿãģ®ä»ķäºĭ": 6939,
      "ãģĿãģĨãģ§ãģĻ": 6940,
      "éĽ»æ°Ĺ": 6941,
      "æĻĤéĸĵãĤĤ": 6942,
      "èĪĪåĳ³": 6943,
      "ocked": 6944,
      "Ġadvant": 6945,
      "ç¶ļãģĳãģŁ": 6946,
      "èĥĮãģĮé«ĺãģĦ": 6947,
      "ãģ«åĲĮæĦı": 6948,
      "æºĲ": 6949,
      "Ġlaughed": 6950,
      "Ġauthor": 6951,
      "ĠéĽ¨ãģĮéĻį": 6952,
      "ĴéŁ³": 6953,
      "ķĳ": 6954,
      "ãģ®ãģ©": 6955,
      "ãĤĴãģ¯": 6956,
      "Ġmad": 6957,
      "ĠTurn": 6958,
      "ãģ¾ãģĹãģ¦": 6959,
      "Ġgif": 6960,
      "stem": 6961,
      "Ġash": 6962,
      "ä¼¸": 6963,
      "ãģĦãģŁãģĹãģ¾ãģĻ": 6964,
      "ãģŃãģ¦": 6965,
      "ãģļãģ«": 6966,
      "ĠãĤ¦": 6967,
      "Ġconv": 6968,
      "Ġcovered": 6969,
      "å¤§åĪĩ": 6970,
      "ãģ¨ãģĦãģ£ãģ¦": 6971,
      "Ġorig": 6972,
      "æ¥µ": 6973,
      "çĻ¾": 6974,
      "Ġwhose": 6975,
      "ãģĮå«Į": 6976,
      "Ġgirlfriend": 6977,
      "Ġadvised": 6978,
      "éĸĵéģķãģ£ãģ¦ãģĦãĤĭ": 6979,
      "è£ķ": 6980,
      "Ġterrible": 6981,
      "ãģĮå¿ħè¦ģãģł": 6982,
      "ãĤĴãģĭãģĳãģŁ": 6983,
      "Ġknife": 6984,
      "ç¸¾": 6985,
      "Ġdropped": 6986,
      "ĸ«çħĻ": 6987,
      "rat": 6988,
      "´»": 6989,
      "·¥": 6990,
      "Ġè¦ĭ": 6991,
      "ãĥĴ": 6992,
      "ãģ®ãģĨ": 6993,
      "ãģ£ãģĹãĤĩ": 6994,
      "ĠåħĦ": 6995,
      "Ġposs": 6996,
      "ãģĤãģĴãģŁ": 6997,
      "ĠHa": 6998,
      "ãģ®åħĦ": 6999,
      "ically": 7000,
      "ĠSu": 7001,
      "è¨İ": 7002,
      "ãģ«æ»ŀåľ¨": 7003,
      "ãĤĦãģ£ãģ¨": 7004,
      "ãģ®è¿ĳãģı": 7005,
      "ĠãĥĪãĥłãģ£ãģ¦": 7006,
      "æŃ¯": 7007,
      "Ġconven": 7008,
      "ç´Ģ": 7009,
      "Ġç§ģãģŁãģ¡ãģĮ": 7010,
      "Ġboard": 7011,
      "ĠHowever": 7012,
      "ĠãģĿãģ®åŃĲ": 7013,
      "ption": 7014,
      "ĭ±åĽ½": 7015,
      "å®ŁéļĽ": 7016,
      "äºĮåº¦ãģ¨": 7017,
      "æŃ©ãģĦãģŁ": 7018,
      "µĲå±Ģ": 7019,
      "ãģ«æĿ¥ãĤĭ": 7020,
      "èª¿åŃĲ": 7021,
      "ãģ®æĻĤè¨Ī": 7022,
      "Ġsalt": 7023,
      "Ġcorner": 7024,
      "å½¹ãģ«ç«ĭ": 7025,
      "İŁåĽł": 7026,
      "¤¾ä¼ļ": 7027,
      "ãĤ¹ãĥļãĤ¤ãĥ³": 7028,
      "å²¸": 7029,
      "Ġenergy": 7030,
      "£Ĭ": 7031,
      "æ¿Ģ": 7032,
      "ç¶": 7033,
      "çł´": 7034,
      "ĠãĤĪãģı": 7035,
      "ãģĦãģ¨": 7036,
      "Ġwide": 7037,
      "Ġcreat": 7038,
      "Ġthrow": 7039,
      "ç§ģãģ¯å½¼": 7040,
      "Ġç§ģãĤĤ": 7041,
      "Ġstep": 7042,
      "ãģ£ãģ¦ä¸ĭãģķãģĦ": 7043,
      "ãģ¤ãģĦãģŁ": 7044,
      "ãĤĴæıĲ": 7045,
      "ãģ«æīĭç´ĻãĤĴæĽ¸": 7046,
      "Ġneither": 7047,
      "ĠãĥĿ": 7048,
      "ãģ®è³": 7049,
      "Ġchoice": 7050,
      "ãĥ©ãĤ¦ãĥ³": 7051,
      "ãģ«èģŀ": 7052,
      "ãģ®ãĥ¡": 7053,
      "ãģ¸ãģ¨": 7054,
      "ĠBrown": 7055,
      "ĠLea": 7056,
      "ç´°": 7057,
      "Ġrose": 7058,
      "ãģĤãģªãģŁãģ®": 7059,
      "ittee": 7060,
      "ãĤĭãģ¨ãģį": 7061,
      "ãĥĳãĥ¼ãĥĪ": 7062,
      "æŃ©ãģĦãģ¦": 7063,
      "Ġremark": 7064,
      "æ¥½ãģĹãģĦ": 7065,
      "ĠãĤĤãģĨå°ĳãģĹ": 7066,
      "Ġended": 7067,
      "Ġactually": 7068,
      "Ġincl": 7069,
      "åĬ©ãģĳ": 7070,
      "æŁĵ": 7071,
      "å£°ãģ§": 7072,
      "ãģķãģĪãģĻãĤĮãģ°": 7073,
      "éĢĶä¸Ńãģ§": 7074,
      "Ġanimal": 7075,
      "Ġlaughing": 7076,
      "ãĤ¤ãĥĦèªŀ": 7077,
      "æĻ´ãĤīãģĹãģĦ": 7078,
      "æ¿¯": 7079,
      "vious": 7080,
      "¸¸": 7081,
      "éīĦ": 7082,
      "Ġãģ¨": 7083,
      "įãģ³": 7084,
      "Ġtal": 7085,
      "ãģĦãģªãģĭãģ£ãģŁ": 7086,
      "ining": 7087,
      "Ġwild": 7088,
      "Ġsens": 7089,
      "ãģªãģĭãģªãģĭ": 7090,
      "Ġmiddle": 7091,
      "Ġbes": 7092,
      "ãĤĬçī©": 7093,
      "ãģįãģ¦ãģĦãĤĭ": 7094,
      "ĠHey": 7095,
      "ĠSuch": 7096,
      "Ġãģĵãģ®éĥ¨å±ĭ": 7097,
      "ãģ«æĽ¸": 7098,
      "Ġcand": 7099,
      "Ġusing": 7100,
      "èĢħãģĮ": 7101,
      "ccer": 7102,
      "ãģªãģıãģ¨ãĤĤ": 7103,
      "ãģĮèī¯": 7104,
      "ĠãģĿãģ®å®¶": 7105,
      "ä¹Ŀ": 7106,
      "Ġsmart": 7107,
      "ãĤŃãĥ£ãĥ³": 7108,
      "ãģ«ãĤĤãģĭãģĭ": 7109,
      "Ġç§ģãģ¯å½¼ãģ«": 7110,
      "æ´ĭ": 7111,
      "ãĤĴãģ¤ãģĳãģ¦": 7112,
      "ãĤĦãģ£ãģ¦ãģįãģŁ": 7113,
      "æľĢåĪĿ": 7114,
      "é¢¨åĳĤ": 7115,
      "ãĤĴæĽ¸ãģĦãģŁ": 7116,
      "ãĤ®ãĥ¼": 7117,
      "Ġforest": 7118,
      "ä¸ĩåĨĨ": 7119,
      "Ġanger": 7120,
      "æĪĳæħ¢": 7121,
      "éľĬ": 7122,
      "ãģ«å¿ľ": 7123,
      "Ġãĥĳãĥ¼ãĥĨãĤ£ãĥ¼": 7124,
      "Ġmiles": 7125,
      "Ġacquain": 7126,
      "¿»è¨³": 7127,
      "¼»": 7128,
      "å¨": 7129,
      "æ¼": 7130,
      "ĠQ": 7131,
      "Ġãģ¤ãģĦ": 7132,
      "Īåīį": 7133,
      "ãģ®è¨Ģèĳī": 7134,
      "ãģ«ä½ķãģĭ": 7135,
      "Ġwet": 7136,
      "Ġtheory": 7137,
      "ãģ§ä½ķ": 7138,
      "ãģĮãĤĬ": 7139,
      "Ġhob": 7140,
      "Ġåģ¥åº·": 7141,
      "ãģĻãĤĬ": 7142,
      "Ġfro": 7143,
      "arp": 7144,
      "Ġgas": 7145,
      "Ġstra": 7146,
      "ãģ£ãģ¦ãģı": 7147,
      "ãģ£ãģ¦ãģıãĤĮãĤĭ": 7148,
      "ãģĵãģ¨ãģ§ãģĻ": 7149,
      "Ġrev": 7150,
      "è¡ĮãģĭãģªãģĦ": 7151,
      "ĠãĥĽ": 7152,
      "Ġçªĵ": 7153,
      "åĪĨãģĭãĤĬ": 7154,
      "ãĤĴç¤º": 7155,
      "ãĤ¤ãĥ¬": 7156,
      "ils": 7157,
      "aped": 7158,
      "ãĤ¯ãĥĭãĥĥãĤ¯": 7159,
      "ests": 7160,
      "éĻ°": 7161,
      "ãĤĵãģªãģķãģĦ": 7162,
      "ãĤĵãģ§ãĤĤ": 7163,
      "olute": 7164,
      "ãģ¯å¤ī": 7165,
      "ãģ¯ãĥĶ": 7166,
      "èª°ãģĭ": 7167,
      "ĠWhile": 7168,
      "çļĨ": 7169,
      "ãģ¯ãģĦãģıãĤī": 7170,
      "åĲĽãģ¯": 7171,
      "åħ¥ãĤĮ": 7172,
      "Ġclever": 7173,
      "Ġletters": 7174,
      "Ġshower": 7175,
      "ãģĨãģ¡ãģ«": 7176,
      "ãĤĴè¨±": 7177,
      "Ġsingle": 7178,
      "ãĤĴãģ¨ãģ£ãģŁ": 7179,
      "ival": 7180,
      "ãĤĴãĤĤãĤī": 7181,
      "Ġinfl": 7182,
      "éķ·ãģĦéĸĵ": 7183,
      "ãĤĴä¸İãģĪãģŁ": 7184,
      "ãĤĴæ¸¡": 7185,
      "Ġsystem": 7186,
      "Ġé¢¨éĤª": 7187,
      "ãĥĭãĥ¥ãĥ¼ãĥ¨ãĥ¼ãĤ¯": 7188,
      "¼ģèŃ·å£«": 7189,
      "ãģĭãģ¤ãģ¦": 7190,
      "ãĤĤãģ¡ãĤįãĤĵ": 7191,
      "ãģ«ãĤĤãģĭãģĭãĤıãĤīãģļ": 7192,
      "ding": 7193,
      "ha": 7194,
      "··": 7195,
      "Ī¸": 7196,
      "ãģ«ãģ§ãĤĤ": 7197,
      "ãĤĴä½ķ": 7198,
      "ãĤĴçĶŁ": 7199,
      "ãģĮä¸Ģ": 7200,
      "Ġhouses": 7201,
      "ãģĭãĤĵ": 7202,
      "ãģĭãĤĮãģ¦ãģĦãĤĭ": 7203,
      "ĠTony": 7204,
      "itude": 7205,
      "ãģĨãĤı": 7206,
      "Ġpic": 7207,
      "ãģ¦ãģĦãģ¾ãģĻãģĭ": 7208,
      "ãĤĪãģŃ": 7209,
      "ãģ£ãģ¦ãģıãĤĮ": 7210,
      "äººæ°Ĺ": 7211,
      "Ġrang": 7212,
      "ãģĪãģ¾ãģĹãģŁ": 7213,
      "ĠãģĿãģ®é": 7214,
      "ĠMost": 7215,
      "ãģ«æºĢè¶³": 7216,
      "ä¸ŃæŃ¢": 7217,
      "ãĥ«ãĥĪ": 7218,
      "osing": 7219,
      "Ġsave": 7220,
      "å¼ģ": 7221,
      "å¯Į": 7222,
      "ãĤĭãģ®ãģ«": 7223,
      "Ġç§ģãģ¯æĺ¨æĹ¥": 7224,
      "ãģ¨ãģĵãĤįãģłãģ£ãģŁ": 7225,
      "ãģĹãģıãģ¦": 7226,
      "ãģ¯å¤§ãģįãģª": 7227,
      "ä»¥æĿ¥": 7228,
      "ãģ£ãģ¦ãĤĤãģĦãģĦ": 7229,
      "Ġscen": 7230,
      "Ġattack": 7231,
      "Ġskin": 7232,
      "ï¼Ķï¼Ĳ": 7233,
      "å¦Ļ": 7234,
      "Ġinside": 7235,
      "ibility": 7236,
      "ç«¯": 7237,
      "ãģ®éłŃ": 7238,
      "ãģ¯å¿ħãģļ": 7239,
      "ĠChina": 7240,
      "ĠæĿ¥éĢ±": 7241,
      "Ġallowed": 7242,
      "æįķ": 7243,
      "Ġgradu": 7244,
      "Ġbreath": 7245,
      "ãĥĪãĥĭãĥ¼": 7246,
      "uji": 7247,
      "¾²": 7248,
      "çªĵ": 7249,
      "Ħ¼": 7250,
      "ĩç¬¦": 7251,
      "ĻãģĹãģĦ": 7252,
      "ãģ«è©±": 7253,
      "ãģ¦ãģ¦": 7254,
      "ãĤĴé£¼": 7255,
      "ãģĮé«ĺ": 7256,
      "Ġlaz": 7257,
      "Ġpress": 7258,
      "ãĤīãģ£ãģĹãĤĥ": 7259,
      "ãģ¯å°ı": 7260,
      "ãģ®åľ°": 7261,
      "ãģĳãģĮ": 7262,
      "iment": 7263,
      "ãģ®æĸ°ãģĹãģĦ": 7264,
      "ĠæĹħè¡Į": 7265,
      "ãĤ¹ãĥĨ": 7266,
      "ãģĹãģ¦ãģ¿": 7267,
      "cell": 7268,
      "Ġshot": 7269,
      "ãĤĴç¶ļ": 7270,
      "ãĥªãĥ³ãĤ´": 7271,
      "Ġnobody": 7272,
      "ãģ®ãĥķ": 7273,
      "Ġvict": 7274,
      "æĸ¹ãģĮãĤĪãģĦ": 7275,
      "éłĳ": 7276,
      "ãģłãģĳãģł": 7277,
      "Ġsmile": 7278,
      "ĠKate": 7279,
      "Ġflight": 7280,
      "éĥ¨åĪĨ": 7281,
      "çĶ¨æĦı": 7282,
      "ãģ®å¤¢": 7283,
      "è¨Ģãģ£ãģŁãģĵãģ¨": 7284,
      "ãģĭãģĳãģ¦": 7285,
      "Ġoper": 7286,
      "æĬĺ": 7287,
      "çµĲæŀľ": 7288,
      "Ġcheap": 7289,
      "æİĪ": 7290,
      "ãģ»ãģĨãģĮãĤĪãģĦ": 7291,
      "Ġstands": 7292,
      "ãģĮè¦ĭãģĪãģŁ": 7293,
      "å¦»": 7294,
      "æ·±ãģĦ": 7295,
      "ãģ§ãģĤãĤįãģĨ": 7296,
      "ãĤĴæĢĿãģĦåĩºãģĻ": 7297,
      "under": 7298,
      "¦Ĥ": 7299,
      "·±": 7300,
      "¿Ķ": 7301,
      "Ġtong": 7302,
      "ãģĦãģıãĤī": 7303,
      "Ġwis": 7304,
      "ãĤĴç§ģ": 7305,
      "ãĤĭãģŁãĤģ": 7306,
      "ãģ§æĽ¸": 7307,
      "Ġhig": 7308,
      "ãģĭãģªãģĳãĤĮãģ°ãģªãĤīãģªãģĦ": 7309,
      "Ġfing": 7310,
      "itive": 7311,
      "Ġlat": 7312,
      "ãĤĬãģ¾ãģĽãĤĵ": 7313,
      "ãģ®åĭīå¼·": 7314,
      "usion": 7315,
      "Ġstars": 7316,
      "ãĤĴåħ": 7317,
      "Ġrace": 7318,
      "ĠãĥĪãĥłãģķãĤĵ": 7319,
      "Ġèĭ¥ãģĦ": 7320,
      "Ġexch": 7321,
      "ãģ®ãĥĲ": 7322,
      "Ġteeth": 7323,
      "ãĤĭãģ®ãģĮ": 7324,
      "ãĤ«ãĥĬãĥĢ": 7325,
      "ãģ®ãģ§ãģĹãĤĩãģĨ": 7326,
      "ãĥķãĥ©ãĥ³ãĤ¹": 7327,
      "ãģ³ãģ£ãģıãĤĬ": 7328,
      "é£Łãģ¹ãģŁ": 7329,
      "empt": 7330,
      "ãģ¯å¤§ãģį": 7331,
      "ãĥģãĤ§": 7332,
      "Ġpersu": 7333,
      "ney": 7334,
      "æİ¢": 7335,
      "Ġcommittee": 7336,
      "ĠåŃĲä¾ĽãģŁãģ¡": 7337,
      "ãĥ¯ãĤ¤ãĥ³": 7338,
      "ãģ®æĦıåĳ³": 7339,
      "ãĥĿãĥ¼ãĥĪ": 7340,
      "ãģĤãģĴãĤĪãģĨ": 7341,
      "çĽ¸æīĭ": 7342,
      "Ġbeginning": 7343,
      "æīķãģĦ": 7344,
      "Ġpopulation": 7345,
      "èıľ": 7346,
      "Ġargument": 7347,
      "Ġservice": 7348,
      "Ġfamiliar": 7349,
      "§Ķåĵ¡ä¼ļ": 7350,
      "sh": 7351,
      "¥ãģķãĤĵ": 7352,
      "®ç¬ĳ": 7353,
      "¾©": 7354,
      "Ġãģ¼ãģı": 7355,
      "ĤĻ": 7356,
      "Łéĩĳ": 7357,
      "łª": 7358,
      "ãģ«ãģĹ": 7359,
      "ãĤĭãģ¹ãģį": 7360,
      "ãģĮãģ£ãģĭãĤĬ": 7361,
      "Ġåīį": 7362,
      "ĠTr": 7363,
      "Ġpra": 7364,
      "ç§ģãģ«ãģ¯": 7365,
      "ï¼ī": 7366,
      "å¥ı": 7367,
      "ãģ¯æīĭ": 7368,
      "ãģ®æŃ»": 7369,
      "ãģ«å§ĭ": 7370,
      "ãĤ¹ãĤ«": 7371,
      "Ġlies": 7372,
      "ĠMan": 7373,
      "ãģĻãĤĭãģ¤ãĤĤãĤĬ": 7374,
      "ãģ°ãģĭ": 7375,
      "ril": 7376,
      "rol": 7377,
      "usted": 7378,
      "ĠThough": 7379,
      "åħ«": 7380,
      "å¤§ä¸Īå¤«": 7381,
      "umb": 7382,
      "æĿ¥ãģªãģĦ": 7383,
      "Ġdishes": 7384,
      "ãģ®å¤ľ": 7385,
      "Ġtalks": 7386,
      "Ġweekend": 7387,
      "Ġãģĵãģ®åķıé¡Į": 7388,
      "Ġmarriage": 7389,
      "ãģĿãĤĵãģªãģĵãģ¨": 7390,
      "ãĤĴæĽ¸ãģį": 7391,
      "Ġcrime": 7392,
      "Ġsupper": 7393,
      "Ġdepend": 7394,
      "èħķ": 7395,
      "Ġabsolute": 7396,
      "ĠOnce": 7397,
      "ãĤĴè¦ĭãģ¤ãģĳ": 7398,
      "¬łå¸Ń": 7399,
      "Ġsalary": 7400,
      "ãģĮãģªãģĭãģ£ãģŁãĤī": 7401,
      "¼·ãģĦ": 7402,
      "ãģ«åĲĳãģĭãģ£ãģ¦": 7403,
      "Ġfoolish": 7404,
      "Ġelected": 7405,
      "ãĤĴå¤±ãģ£ãģŁ": 7406,
      "Ġrisk": 7407,
      "¤įçī©": 7408,
      "Ġappreciate": 7409,
      "Ġachie": 7410,
      "ians": 7411,
      "±ãģĨ": 7412,
      "²Ī": 7413,
      "½ãģĦãģ¤": 7414,
      "Ġéģħ": 7415,
      "ħåĬĽ": 7416,
      "Ġtie": 7417,
      "Ġtaught": 7418,
      "Ġaim": 7419,
      "ãģ®ä¸į": 7420,
      "ãģ®ä¸»": 7421,
      "ãģ«ãģµ": 7422,
      "ãģĮå®¶": 7423,
      "Ġå¥": 7424,
      "ĠåĲĮ": 7425,
      "Ġfilled": 7426,
      "iting": 7427,
      "ãģıãģĹãģŁ": 7428,
      "ãģ¯åģ¥åº·": 7429,
      "ï¼Ī": 7430,
      "oted": 7431,
      "ãĤģãģ¦ãģĦãģŁ": 7432,
      "è©°": 7433,
      "ãģ®çľŁ": 7434,
      "Ġgolf": 7435,
      "ãģ¯çĽ®": 7436,
      "ãģ¯ç¢º": 7437,
      "Ġçī©": 7438,
      "Ġç¥ŀ": 7439,
      "ĠãĥĪãĥłãģ¯è": 7440,
      "ãģ«çĻ»": 7441,
      "Ġwhom": 7442,
      "ï¼ĳï¼Ĵ": 7443,
      "Ġbutter": 7444,
      "å¯ĴãģĦ": 7445,
      "å¤§å¤ī": 7446,
      "ãģĿãģ®è¨ĪçĶ»": 7447,
      "è¿·": 7448,
      "ä½ĵéĩį": 7449,
      "ãģĿãģ®æĻĤ": 7450,
      "ĠãģĵãģĵãģĭãĤī": 7451,
      "Ġhearing": 7452,
      "Ġunderstood": 7453,
      "ĠAmericans": 7454,
      "ãģ«ç«ĭãģ¡": 7455,
      "æŁĦ": 7456,
      "Ġindust": 7457,
      "Ķ¯ä¸Ģ": 7458,
      "çĬ¯": 7459,
      "Ġ30": 7460,
      "Ġcourage": 7461,
      "Ġopportun": 7462,
      "Ġgeneral": 7463,
      "Ġrequest": 7464,
      "Ġequal": 7465,
      "Ġvalue": 7466,
      "å¤§ãģįãģĦ": 7467,
      "ãĥ¼ãĥĪãĥ«": 7468,
      "ãĥĥãĥĪãĥľãĥ¼ãĥ«": 7469,
      "ãĤĴå®Łè¡Į": 7470,
      "Ġveget": 7471,
      "ĠSaturday": 7472,
      "Ġextreme": 7473,
      "éº": 7474,
      "ĥæ°Ĺ": 7475,
      "ãģ¯ãģĵãģĵ": 7476,
      "ãĤĴãģªãģı": 7477,
      "Ġåħ¥": 7478,
      "erm": 7479,
      "Ġcamp": 7480,
      "Ġlim": 7481,
      "aring": 7482,
      "ãģ¯æŃ»": 7483,
      "ãģ®æ°´": 7484,
      "Ġstock": 7485,
      "ãģ£ãģ¦ãĤĭãģ®": 7486,
      "Ġãģĵãģ¡ãĤī": 7487,
      "ãģ«æ°´": 7488,
      "rief": 7489,
      "ĠYes": 7490,
      "Ġshy": 7491,
      "åĲ¹": 7492,
      "ãģ¯ç°¡åįĺ": 7493,
      "Ġchick": 7494,
      "åĩºãģĹ": 7495,
      "ĠFuji": 7496,
      "Ġarms": 7497,
      "Ġé«ĺ": 7498,
      "ä»ķæĸ¹": 7499,
      "ãģ«è¡Įãģ£ãģ¦": 7500,
      "Ġstudies": 7501,
      "æ³Ĭ": 7502,
      "è²¸": 7503,
      "ãĤªãĥ¼ãĤ¹ãĥĪãĥ©ãĥªãĤ¢": 7504,
      "Ġcats": 7505,
      "æľĢå¾Į": 7506,
      "Ġbrothers": 7507,
      "Ġphys": 7508,
      "ĠEverything": 7509,
      "ãģ«ãģªãĤĬãģ¾ãģĹãģŁ": 7510,
      "ãĤ½ãĥ³": 7511,
      "Ġempty": 7512,
      "Ġgives": 7513,
      "Ġè²´": 7514,
      "æĭł": 7515,
      "ãĤ¿ãĤ¤ãĥĹ": 7516,
      "ä¾¡åĢ¤ãģĮãģĤãĤĭ": 7517,
      "ķĨå£²": 7518,
      "ãģ«ä½ıãĤĵãģ§ãģĦãģ¾ãģĻ": 7519,
      "ãģ®è¨ĢãģĨãģĵãģ¨": 7520,
      "ãģĨãĤĵãģĸ": 7521,
      "engers": 7522,
      "ãģ«æ±ºãĤģãģŁ": 7523,
      "Ġä¸ĩä¸Ģ": 7524,
      "hemat": 7525,
      "Ġmagazine": 7526,
      "Ġimmediately": 7527,
      "Ġstraight": 7528,
      "No": 7529,
      "cent": 7530,
      "hod": 7531,
      "na": 7532,
      "æĲį": 7533,
      "æģ¯åŃĲ": 7534,
      "ķª": 7535,
      "ķå¾ĭ": 7536,
      "Ġsle": 7537,
      "Ġå¹´": 7538,
      "Ġcher": 7539,
      "Ġcred": 7540,
      "ãģķãģĮ": 7541,
      "ãģ¯æĺİ": 7542,
      "Ġå½¼ãģ¯ç§ģãģŁãģ¡": 7543,
      "æľª": 7544,
      "ãĤ¤ãĤ¨": 7545,
      "åıįå¯¾": 7546,
      "ãģĺãĤģ": 7547,
      "Ġdeb": 7548,
      "åĬĩ": 7549,
      "aked": 7550,
      "Ġconvers": 7551,
      "ĠBet": 7552,
      "ãģ¯ãĥĳ": 7553,
      "ãģĿãĤĮãģ¨ãĤĤ": 7554,
      "å¥½ãģįãģł": 7555,
      "èªŃãĤĢ": 7556,
      "ãģ¯æľ¨": 7557,
      "Ġhappens": 7558,
      "Ġears": 7559,
      "éļ£": 7560,
      "ãĤĴæĮģãģ£ãģ¦ãģĦãģ¾ãģĻ": 7561,
      "Ġadvance": 7562,
      "ä»ĸäºº": 7563,
      "ãģµãĤĬ": 7564,
      "Ġdifficulty": 7565,
      "éģ¸æĮĻ": 7566,
      "Ġperform": 7567,
      "æľĿé£Ł": 7568,
      "ĠãģĿãģ®èĢģ": 7569,
      "Ġhealthy": 7570,
      "»ºãģ¦": 7571,
      "å¹¸ç¦ı": 7572,
      "Ġnature": 7573,
      "ãģ¨åĲĮãģĺãģıãĤīãģĦ": 7574,
      "Ġtyph": 7575,
      "Ġglasses": 7576,
      "Ġtype": 7577,
      "èĻ«": 7578,
      "ãģ®å¿łåĳĬ": 7579,
      "Ġordered": 7580,
      "Ġparticular": 7581,
      "ĲĳãģĵãģĨ": 7582,
      "Ġsociety": 7583,
      "Ġpicnic": 7584,
      "What": 7585,
      "com": 7586,
      "to": 7587,
      "·»": 7588,
      "å¬ī": 7589,
      "Ġä¸į": 7590,
      "ĿãĤĭ": 7591,
      "ãĤĴè¡Į": 7592,
      "Ġå¿": 7593,
      "Ġfash": 7594,
      "ãģĤãģ¨": 7595,
      "Ġbell": 7596,
      "å¥ĩ": 7597,
      "Ġride": 7598,
      "ãĤ¹ãĥ¼ãĥĦ": 7599,
      "ĠMake": 7600,
      "ãģĻãĤĭãĤĪ": 7601,
      "å¤ķé£Ł": 7602,
      "ãĥ¼ãĥĲ": 7603,
      "Ġç§ģãģ¯ãģĿãģ®å": 7604,
      "ĠCl": 7605,
      "ä¸Ńãģł": 7606,
      "å¿«": 7607,
      "Ġjoy": 7608,
      "Ġgoods": 7609,
      "Ġä»ĬæĻ©": 7610,
      "ãģ¨ãģĦãģĨãģ®": 7611,
      "useum": 7612,
      "ãĤĤãģĹãĤįãģĦ": 7613,
      "æĽ¸ãģį": 7614,
      "éļĬ": 7615,
      "åĮ»": 7616,
      "Ġmethod": 7617,
      "çµĤãĤıãģ£ãģŁ": 7618,
      "ãģ¨ãģ¯éĻĲãĤīãģªãģĦ": 7619,
      "å°İ": 7620,
      "ãĤĴé£Łãģ¹ãģŁ": 7621,
      "Ġpainted": 7622,
      "ãģ®æĸ¹ãģĮ": 7623,
      "Ġrefused": 7624,
      "ãĤĴæīĵ": 7625,
      "ãĤĴé£²ãĤĢ": 7626,
      "æ··": 7627,
      "ãģ«è¦ĭãģĪãĤĭ": 7628,
      "èĢĥãģĪãģŁ": 7629,
      "ãģ«è¿·": 7630,
      "Ġintern": 7631,
      "Ġsweater": 7632,
      "ãĤĪãģĭãģ£ãģŁãģ®ãģ«": 7633,
      "ãģ®è²¬ä»»": 7634,
      "ç¨®é¡ŀ": 7635,
      "Ġcentury": 7636,
      "Ġsilent": 7637,
      "ãģĦãģıãģ¤ãģĭ": 7638,
      "ãĤĴæĦŁãģĺ": 7639,
      "ãģ®ãĥģãĥ¼ãĥł": 7640,
      "Ġadvantage": 7641,
      "Ġashamed": 7642,
      "Ġtongue": 7643,
      "Yes": 7644,
      "ipped": 7645,
      "ºåĪ¥": 7646,
      "çį": 7647,
      "ç±³": 7648,
      "Ġä¸Ĭ": 7649,
      "ĠãģĦãģ¤ãĤĤ": 7650,
      "ģīå¤§ãģª": 7651,
      "łå®Ł": 7652,
      "Ġaunt": 7653,
      "ãģ§éģĬ": 7654,
      "ãģĮãģªãģĳãĤĮãģ°": 7655,
      "Ġmap": 7656,
      "Ġpond": 7657,
      "ãĢģãĢĮ": 7658,
      "Ġgen": 7659,
      "ician": 7660,
      "ĠæĤª": 7661,
      "Ġæ®ĭå¿µ": 7662,
      "Ġstamp": 7663,
      "ãģ¤ãģ¤": 7664,
      "ãĤĴå°ĳãģĹ": 7665,
      "ãģĹãģ¦ãģ¯ãģĦãģĳãģªãģĦ": 7666,
      "ĠMar": 7667,
      "ãģĻãĤĭãģĵãģ¨ãģĮ": 7668,
      "ĠãģĵãģĨ": 7669,
      "Ġãģĵãģ®é": 7670,
      "ãģ®ç·": 7671,
      "Ġsharp": 7672,
      "Ġç§ģãģ¯ãĤĤãģĨ": 7673,
      "ï¼ŁãĢį": 7674,
      "ãģ¯çĪ¶": 7675,
      "Ġworried": 7676,
      "Ġsoccer": 7677,
      "ĠçŁ¥": 7678,
      "Ġå½¼å¥³ãģ¯ãģĦãģ¤ãĤĤ": 7679,
      "ãĤ¯ãĤ¿ãĤ¤": 7680,
      "åĩºãģĭãģĳ": 7681,
      "ãģĮæĪĲåĬŁ": 7682,
      "ãģĦãģ¦ãģıãģłãģķãģĦ": 7683,
      "éģĶãģ¯": 7684,
      "åŃ¦èĢħ": 7685,
      "ç´ļ": 7686,
      "ä¸ĸç´Ģ": 7687,
      "ãģĮå¥½ãģįãģ§ãģĻãģĭ": 7688,
      "æ¸Ľ": 7689,
      "ãģ«ãģ¯åı": 7690,
      "ãģ«ãģĬéĩĳ": 7691,
      "Ġstranger": 7692,
      "éģİåİ»": 7693,
      "ä¼ĳãĤĵãģł": 7694,
      "ãģ«åıĸãĤĬ": 7695,
      "ãĤĴèªŃãĤĵãģł": 7696,
      "åĥįãģĦãģŁ": 7697,
      "æĽľæĹ¥ãģ«": 7698,
      "Ġentire": 7699,
      "å£«å±±": 7700,
      "éł¼ãĤĵãģł": 7701,
      "Ġdepends": 7702,
      "è¿Ķäºĭ": 7703,
      "å¹³åĴĮ": 7704,
      "Ġgiving": 7705,
      "Ġbegins": 7706,
      "çµĮæ¸Ī": 7707,
      "ç«¶": 7708,
      "ãĤĪãģĨãģ«æĢĿ": 7709,
      "ç®±": 7710,
      "Ġexcited": 7711,
      "ãģ®ä¸Ģãģ¤": 7712,
      "äº¡ãģıãģªãģ£ãģŁ": 7713,
      "Ġavoid": 7714,
      "ŀľãģŁ": 7715,
      "Ġapologize": 7716,
      "ĠAccording": 7717,
      "aim": 7718,
      "gan": 7719,
      "oom": 7720,
      "uly": 7721,
      "µĦ": 7722,
      "·®": 7723,
      "ºãģ®ä¸Ĭ": 7724,
      "å³¶": 7725,
      "èµ·ãģįãģŁ": 7726,
      "Ġï¼ĸ": 7727,
      "ĠèĢģ": 7728,
      "į·çī©": 7729,
      "ãģ®è¦ĭ": 7730,
      "ãģ«ãģŁ": 7731,
      "ãģ«éĢļ": 7732,
      "ãģ«ãģĹãģ¦ãģĦãģ¾ãģĻ": 7733,
      "ãĤĭãģ§ãģĹãĤĩãģĨ": 7734,
      "ĠåĬ": 7735,
      "Ġå¾Į": 7736,
      "ãģĻãģ£ãģĭãĤĬ": 7737,
      "ãģĻãģ°ãĤīãģĹãģĦ": 7738,
      "anish": 7739,
      "ãģ®æİ": 7740,
      "ãĥĪãĤ¤ãĥ¬": 7741,
      "ãģ©ãģĬãĤĬ": 7742,
      "Ġmeals": 7743,
      "ãģ«æĺ": 7744,
      "ãĥ¼ãĥĢ": 7745,
      "Ġç§ģãģ¯ãģĵ": 7746,
      "ãĤĦãģĭ": 7747,
      "Ġkiss": 7748,
      "ĠãĥĢ": 7749,
      "éĩĪ": 7750,
      "å¾¡": 7751,
      "ĠEach": 7752,
      "ãģ®ãĥĹ": 7753,
      "ãģ®ãĥĲãĤ¹": 7754,
      "Ġworkers": 7755,
      "ãģ¯å¤ķé£Ł": 7756,
      "å¼¾": 7757,
      "ĠFrom": 7758,
      "ãģ£ãģ¦ãģĦãģĦ": 7759,
      "ãģªãģıãģ¡ãĤĥ": 7760,
      "ĠãģĿãģ®äºĭæķħ": 7761,
      "Ġdise": 7762,
      "Ġmath": 7763,
      "Ġprices": 7764,
      "ĠCanada": 7765,
      "ission": 7766,
      "åģ¶çĦ¶": 7767,
      "Ġcute": 7768,
      "ä¾¿ãĤĬ": 7769,
      "ĠåĪĿ": 7770,
      "ç¿Ĵæħ£": 7771,
      "åĪ¤æĸŃ": 7772,
      "Ġspeed": 7773,
      "ãģĮãģĤãĤĮãģ°": 7774,
      "æĶ¿æ²»": 7775,
      "Ġscience": 7776,
      "ãĤĴèĢĥæħ®": 7777,
      "¥ĸçĪ¶": 7778,
      "¬ãĤ¹ãĥĪãĥ©ãĥ³": 7779,
      "ĠéłŃ": 7780,
      "Ġappointment": 7781,
      "book": 7782,
      "´åĥį": 7783,
      "»ĥ": 7784,
      "ãģ¯ãĤ¢": 7785,
      "ãģ«ãģŁãģıãģķãĤĵ": 7786,
      "Ġsqu": 7787,
      "ãģ¦ãģĹãģ¾ãģ£ãģŁ": 7788,
      "ãĤĴãģŁãģıãģķãĤĵ": 7789,
      "ãģĮãģĦãģ¾ãģĻ": 7790,
      "Ġdan": 7791,
      "Ġlab": 7792,
      "Ġliter": 7793,
      "Ġiss": 7794,
      "Ġgra": 7795,
      "ãģĿãģ°": 7796,
      "ãĤĴåĽŀ": 7797,
      "éģĤ": 7798,
      "èªĩãĤĬ": 7799,
      "Ġlift": 7800,
      "ãģĻãĤĭãģĵãģ¨ãģ¯": 7801,
      "Ġç§ģãģ¯ãģĿãĤĮ": 7802,
      "Ġsoft": 7803,
      "ãĤĴçł´": 7804,
      "ãĤ¤ãĥ¤": 7805,
      "Ġdeg": 7806,
      "ãģ«çĽ´": 7807,
      "ãģĹãģ¦ãģĦãĤĭãģ®": 7808,
      "Ġcondu": 7809,
      "ãģ®éķ·": 7810,
      "ãģ©ãģĨãģŀ": 7811,
      "è»Ĭãģ§": 7812,
      "Ġcompet": 7813,
      "Ġsomebody": 7814,
      "Ġgrass": 7815,
      "Ġaware": 7816,
      "è¡Ģ": 7817,
      "è¨ĢãģĨãģ¾ãģ§": 7818,
      "Ġdecl": 7819,
      "Ġdecide": 7820,
      "Ġaction": 7821,
      "ãĤĴå¾Į": 7822,
      "ãĥĪãĥ©ãĥĥãĤ¯": 7823,
      "ãĤĴãģĬé¡ĺãģĦãģĹãģ¾ãģĻ": 7824,
      "ãģķãĤĮãģ¦ãģĦãģŁ": 7825,
      "ĠSomeone": 7826,
      "ç¦ģ": 7827,
      "Ġpromised": 7828,
      "æľ¬å½ĵãģ«": 7829,
      "æĪ¦äºī": 7830,
      "Į¯ãĤĭ": 7831,
      "Ġcapital": 7832,
      "ãģ«å¤§ãģįãģª": 7833,
      "éĥµä¾¿": 7834,
      "Ġaccepted": 7835,
      "ãģ®åĬĽ": 7836,
      "ãĤĴæľĽ": 7837,
      "Ġtastes": 7838,
      "ãģĮãģŁãģıãģķãĤĵãģĤãĤĭ": 7839,
      "ãģ¯ãĥĨãĥ¬ãĥĵ": 7840,
      "Ġpleasure": 7841,
      "Ġflying": 7842,
      "µ¶å¯¾": 7843,
      "ĠãĤ¸ãĥ£ãĥĥãĤ¯": 7844,
      "Ġdisappointed": 7845,
      "Ġrumor": 7846,
      "ĠApril": 7847,
      "Ġcritic": 7848,
      "mark": 7849,
      "çĨ": 7850,
      "ãĤħ": 7851,
      "ãģ®çĶŁå¾Ĵ": 7852,
      "ãģ®èªķçĶŁæĹ¥": 7853,
      "ãģ§ãģ¯å": 7854,
      "ãģĮåĩºæĿ¥": 7855,
      "Ġmuseum": 7856,
      "ãģĭãĤĮãĤĭ": 7857,
      "Ġtot": 7858,
      "ãģĻãģª": 7859,
      "Ġyouth": 7860,
      "ãģĤãĤĮãģ°": 7861,
      "Ġhall": 7862,
      "Ġemb": 7863,
      "ãģ¯æ¯İæĹ¥": 7864,
      "ĠWar": 7865,
      "key": 7866,
      "Ġforced": 7867,
      "ãĤĴæ±º": 7868,
      "ãĤĴæĮĩ": 7869,
      "Ġroof": 7870,
      "Ġur": 7871,
      "Ġgold": 7872,
      "ãģ¿ãģĮ": 7873,
      "ãĥªãĤ¹ãĥĪ": 7874,
      "ãĤ¤ãĤª": 7875,
      "Ġspread": 7876,
      "Ġnoon": 7877,
      "ãģ«èĭ¦": 7878,
      "ãģ§ãģĤãĤĭãģ¨": 7879,
      "ãģĶãģĦ": 7880,
      "ãģĶãĤīãĤĵ": 7881,
      "Ġç§ģãģŁãģ¡ãģ¯å½¼": 7882,
      "ãģ¨ãģĦãģĨãĤĤãģ®": 7883,
      "Ġpock": 7884,
      "ĺ¨å¤ľ": 7885,
      "ãĥĵãĥ«": 7886,
      "Ġfeels": 7887,
      "Ġkinds": 7888,
      "Ġpolicy": 7889,
      "ä»ĺãģĳãģŁ": 7890,
      "ĠãĤĤãģĨä¸Ģåº¦": 7891,
      "ãģ«å¤ļãģı": 7892,
      "åĲįãģª": 7893,
      "ãĤ¦ãĤ§": 7894,
      "ĭ¥èĢħ": 7895,
      "è¿ĳãģı": 7896,
      "ãĤĴå¼·": 7897,
      "Ġsisters": 7898,
      "Ġinvest": 7899,
      "éĿŀéĽ£": 7900,
      "ãĤĴåĪ©çĶ¨": 7901,
      "Ġheadache": 7902,
      "ŃĮæīĭ": 7903,
      "Ġabsence": 7904,
      "å½¼ãĤīãģ¯": 7905,
      "appy": 7906,
      "Ġsales": 7907,
      "Ġtraveling": 7908,
      "Ġwriter": 7909,
      "Ġfaults": 7910,
      "Ġeconomy": 7911,
      "Ġavail": 7912,
      "äººãĤĤãģĦãĤĭ": 7913,
      "Ġbottle": 7914,
      "ãģĳãĤĮãģ©ãĤĤ": 7915,
      "Ġskiing": 7916,
      "Ġtyphoon": 7917,
      "friend": 7918,
      "uge": 7919,
      "val": 7920,
      "çĻĤ": 7921,
      "Ĭ¶": 7922,
      "Ĳº": 7923,
      "ãģĦãĤı": 7924,
      "ãģ®ä¼ļç¤¾": 7925,
      "ãĤĴãģıãģłãģķãģĦ": 7926,
      "ãĤĴéĽ¢": 7927,
      "ãģ§ãģĦãģ£ãģ±ãģĦ": 7928,
      "Ġpale": 7929,
      "ãģ£ãģŁãģĵãģ¨": 7930,
      "Ġthief": 7931,
      "ãģĤãģŁãĤĬ": 7932,
      "ãĥ¼ãĤ¿": 7933,
      "ãģ¤ãģ®": 7934,
      "ãĤĴåĨ": 7935,
      "Ġå½¼ãģ¯ä½ķ": 7936,
      "ãģĬãģį": 7937,
      "å¤ı": 7938,
      "Ġneck": 7939,
      "ĠãģĤãģ¾ãĤĬ": 7940,
      "ãĤĴèĲ½": 7941,
      "ãģĦãģŁãģł": 7942,
      "Ġå½¼å¥³ãģ¯ãģ¨ãģ¦ãĤĤ": 7943,
      "Ġmanager": 7944,
      "ĠPres": 7945,
      "çīĪ": 7946,
      "isted": 7947,
      "Ġfever": 7948,
      "Ġprogress": 7949,
      "ãģ¯ãĥī": 7950,
      "ĠéŁ³": 7951,
      "acket": 7952,
      "ĠãģĿãģ®ä¼ļç¤¾": 7953,
      "å®¶ãģ«å¸°": 7954,
      "ãģłãģĳãģ©": 7955,
      "ãĤ·ãĥ¥": 7956,
      "è²¬ä»»": 7957,
      "Ġcalls": 7958,
      "å¾Įãģ«": 7959,
      "ãĥ©ãĥ³ãĥī": 7960,
      "Ġasking": 7961,
      "ãģ«åħ¥ãĤĮ": 7962,
      "ä¼ĿãģĪ": 7963,
      "åħ¨ãģ¦": 7964,
      "Ġsched": 7965,
      "Ġbadly": 7966,
      "Ġpassengers": 7967,
      "ä¸¡æĸ¹": 7968,
      "wered": 7969,
      "Ġslight": 7970,
      "Ġentr": 7971,
      "Ġanswered": 7972,
      "ãĤ°ãĥ«": 7973,
      "ãģ¯åįģåĪĨ": 7974,
      "ç©į": 7975,
      "ãĤĴéĸĭãģĳ": 7976,
      "ãĤĴå¾ĹãģŁ": 7977,
      "äºĪå®ļãģ§ãģĻ": 7978,
      "å¿ĺãĤĮ": 7979,
      "ãģĮå¤§å¥½ãģįãģ§ãģĻ": 7980,
      "è¾ŀæĽ¸": 7981,
      "´ĪãĤĬçī©": 7982,
      "Ġprotect": 7983,
      "Ġvarious": 7984,
      "Ġinnocent": 7985,
      "ĥħåł±": 7986,
      "ãģ®æīĢ": 7987,
      "Ġcommunic": 7988,
      "Ġdelicious": 7989,
      "lies": 7990,
      "oll": 7991,
      "«¶": 7992,
      "°é¢¨": 7993,
      "±ł": 7994,
      "æ¤ľ": 7995,
      "çªģ": 7996,
      "ç°¡åįĺ": 7997,
      "Ġé£Ł": 7998,
      "ĠãĤ¤ãĥ³": 7999,
      "Ľº": 8000,
      "Ńļ": 8001,
      "ãģ¯ãģĵãģ®": 8002,
      "ãģ®ãģ¨": 8003,
      "Ġmention": 8004,
      "ãģ¨å½¼": 8005,
      "ãģ¨è©±": 8006,
      "ãģ¾ãģ£ãģ¦ãģĦãĤĭ": 8007,
      "Ġå½¼ãģ®ç": 8008,
      "let": 8009,
      "ãĥ¼ãģ¯": 8010,
      "Ġstories": 8011,
      "ä¸ĢæĹ¥": 8012,
      "Ġkil": 8013,
      "ĠçªģçĦ¶": 8014,
      "ified": 8015,
      "Ġtruck": 8016,
      "åħļ": 8017,
      "ãģļãģ¤": 8018,
      "Ġanywhere": 8019,
      "Ġvol": 8020,
      "ference": 8021,
      "éģĶãģĹãģŁ": 8022,
      "ãĤĭãģ®ãģ§ãģĻãģĭ": 8023,
      "ounded": 8024,
      "Ġagreed": 8025,
      "Ġå½¼ãģ¯åį": 8026,
      "Ġgotten": 8027,
      "ãĥķãĥ¬": 8028,
      "Ġaccustom": 8029,
      "é£Łãģ¹ãĤĭ": 8030,
      "ãĤŃãĤ¹": 8031,
      "ãĤŃãĥŃ": 8032,
      "ãĤĭãģ¨ãģĵãĤį": 8033,
      "ãģ®ä¸Ńãģ«": 8034,
      "ãģ«åħ¥ãĤĭ": 8035,
      "ãģ¨ãģįãģ©ãģį": 8036,
      "ä¹Ĺå®¢": 8037,
      "æĺĩ": 8038,
      "Ġcontact": 8039,
      "ograp": 8040,
      "ãģ«ä½ıãĤĢ": 8041,
      "èĢĥãģĪãģ¦ãģĦãĤĭ": 8042,
      "Ġairpl": 8043,
      "éĢŁãģĦ": 8044,
      "ĠæľĢåĪĿ": 8045,
      "æ¨ª": 8046,
      "ĠæĺłçĶ»": 8047,
      "çĶ³ãģĹè¨³": 8048,
      "ãĤĦãĤĬæĸ¹": 8049,
      "ãģ²ãģ¨ãĤĬãģ§": 8050,
      "æĸ¹ãģĮãģĦãģĦãĤĪ": 8051,
      "ĠãĤ±ãĥ³": 8052,
      "Ġmemory": 8053,
      "ervation": 8054,
      "ãĤĴåŃ¦ãģ¶": 8055,
      "æļ®ãĤīãģĹ": 8056,
      "Ġexplan": 8057,
      "Ġappearance": 8058,
      "åħ¬åľĴ": 8059,
      "ķħéļľ": 8060,
      "æ»ħ": 8061,
      "İåħ¥": 8062,
      "ãģ¯ãģ¿ãģª": 8063,
      "ãģ«ä¸į": 8064,
      "Ġways": 8065,
      "ãģªãģĭ": 8066,
      "ãĤĴéģĭ": 8067,
      "ãĤĴä¿®çĲĨ": 8068,
      "ãģĹãĤī": 8069,
      "onment": 8070,
      "Ġbask": 8071,
      "Ġhid": 8072,
      "ãģĭãģĽ": 8073,
      "Ġcried": 8074,
      "Ġden": 8075,
      "Ġdance": 8076,
      "eds": 8077,
      "ãģĨãĤĭ": 8078,
      "arr": 8079,
      "Ġgate": 8080,
      "ãģ®å°": 8081,
      "å¥´": 8082,
      "Ġæģ¯åŃĲ": 8083,
      "ĠæĶ¿åºľ": 8084,
      "Ġå½¼ãģ¯ãģĤ": 8085,
      "ãģ«æĸ°ãģĹãģĦ": 8086,
      "ãĤĴçĬ¯": 8087,
      "ãģ«çŁ¥": 8088,
      "ãģ®é«ª": 8089,
      "ãģ®ãĥ¬": 8090,
      "ä¾Ŀ": 8091,
      "ãģ¯å¤ı": 8092,
      "åīįãģ§": 8093,
      "Ġå½¼ãĤīãģĮ": 8094,
      "ãģıãģłãģķ": 8095,
      "ĠãģĿãĤĮãģĮ": 8096,
      "ãģ®ä¸Ńãģ«ãģ¯": 8097,
      "Ġmathemat": 8098,
      "ľŁåľ°": 8099,
      "ãģ¯ä½ķæĻĤ": 8100,
      "æĿĳ": 8101,
      "ãģĵãģĵãģ¸": 8102,
      "ãģ«åĩºãģĭãģĳ": 8103,
      "ç«ĭãģ¤": 8104,
      "Ġscold": 8105,
      "èģŀãģĵ": 8106,
      "Ġfarm": 8107,
      "Ġdrinks": 8108,
      "Ġexample": 8109,
      "Ġsleepy": 8110,
      "ãĤ®ãĤ¿ãĥ¼": 8111,
      "ãĥľãĥ¼ãĥ«": 8112,
      "Ĭ©è¨Ģ": 8113,
      "ruct": 8114,
      "Ġfactory": 8115,
      "ãĥ¯ãĥ¼": 8116,
      "Ġãĥ¡ãĤ¢ãĥªãĥ¼ãģ¯": 8117,
      "ãģ¯ãģ©ãĤĮ": 8118,
      "èªįãĤģ": 8119,
      "çµĮé¨ĵ": 8120,
      "ĠSpanish": 8121,
      "ãģ¯åĪ¥": 8122,
      "ç²¾": 8123,
      "Ġcrowded": 8124,
      "iko": 8125,
      "ãĤĴå§ĭãĤģãģŁ": 8126,
      "èĶµ": 8127,
      "Ġteaching": 8128,
      "Ġéķ·ãģĦ": 8129,
      "Ġfifty": 8130,
      "Ġgentleman": 8131,
      "Ġprevented": 8132,
      "ĠLeave": 8133,
      "men": 8134,
      "ule": 8135,
      "uff": 8136,
      "¢«": 8137,
      "å¢Ĺ": 8138,
      "çħ": 8139,
      "èĹ": 8140,
      "ĵ¶": 8141,
      "Ġast": 8142,
      "ãģ®ãģłãĤįãģĨ": 8143,
      "ãģ®ãģĵãĤį": 8144,
      "ãģªãģ®ãģł": 8145,
      "ãĤĴãģĹãģªãģĦ": 8146,
      "ãĤĴãģıãĤĮãģŁ": 8147,
      "Ġtheater": 8148,
      "ãģ£ãģĭ": 8149,
      "Ġfit": 8150,
      "ãģ¾ãģ£ãģ¦": 8151,
      "Ġlaid": 8152,
      "oms": 8153,
      "ãĤĬãģ¨": 8154,
      "ãģ¯åħĪ": 8155,
      "Ġç§ģãģ®è": 8156,
      "Ġease": 8157,
      "ãģ«åĪĨ": 8158,
      "ãģ«å½¹": 8159,
      "ĠæĻĤ": 8160,
      "Ġæĺİ": 8161,
      "äººãĤĴ": 8162,
      "amm": 8163,
      "ironment": 8164,
      "ãģ«æİ": 8165,
      "ãģ°ãģĤ": 8166,
      "ĠYesterday": 8167,
      "Ġç§ģãģ¯ãģĵãģ®": 8168,
      "ãģ«ãģ¯ãģŁãģıãģķãĤĵ": 8169,
      "ĠèĬ±": 8170,
      "Ġspir": 8171,
      "Ġspite": 8172,
      "çī²": 8173,
      "ãģ«è¿ĳãģ¥": 8174,
      "Ġamb": 8175,
      "ãģªãģıãģªãĤĭ": 8176,
      "ãģ«è¡ĮãģĭãģªãģĦ": 8177,
      "å¥½ãģįãģ§ãģĻ": 8178,
      "Ġmoder": 8179,
      "èªŃãĤĵãģł": 8180,
      "ãĤĮãģ¦ãģįãģŁ": 8181,
      "åĨ¬": 8182,
      "ãĤĴæĮģãģ¡": 8183,
      "åĲĽãģĮ": 8184,
      "ãģĿãģĵãģ¸è¡Į": 8185,
      "Ġbelieved": 8186,
      "è£ľ": 8187,
      "ãģ¨ãģĨãģ¨ãģĨ": 8188,
      "ãģĵãĤĮãĤī": 8189,
      "éĩİèıľ": 8190,
      "ãĤĴè¨ªåķı": 8191,
      "¿Ĵæħ£": 8192,
      "å¸°å®ħ": 8193,
      "è·¡": 8194,
      "æħĭåº¦": 8195,
      "ãģ¯ãģļãģĮãģªãģĦ": 8196,
      "ãģ«è¿Ķ": 8197,
      "Ġclimate": 8198,
      "éĢĢå±Ī": 8199,
      "è¼ª": 8200,
      "ĠAlthough": 8201,
      "æĨ¶": 8202,
      "Ġhobby": 8203,
      "Ġfashion": 8204,
      "Į¯ãĤĭèĪŀ": 8205,
      "rict": 8206,
      "son": 8207,
      "®®": 8208,
      "³å£«": 8209,
      "´¹ä»ĭ": 8210,
      "µå£«": 8211,
      "çĩ": 8212,
      "Ġéģĵ": 8213,
      "Ġãģ»ãģ¨ãĤĵãģ©": 8214,
      "ĭŃãģĦ": 8215,
      "ĳç´Ħ": 8216,
      "Ķ¹": 8217,
      "Łå¾ħ": 8218,
      "Ń¢": 8219,
      "ãģ®éģĭè»¢": 8220,
      "Ġwed": 8221,
      "ãģªãģįãĤĥ": 8222,
      "ãĤĴè¨Ģãģ£ãģŁ": 8223,
      "ãģ§ãģıãģłãģķãģĦ": 8224,
      "ãģ§æ³³": 8225,
      "Ġå±±": 8226,
      "ãģĭçŁ¥": 8227,
      "Ġfurn": 8228,
      "Ġdil": 8229,
      "orge": 8230,
      "ãĤīãģªãģĳãĤĮãģ°ãģªãĤīãģªãģĦ": 8231,
      "Ġthird": 8232,
      "ãģ¦ãģĦãģ£ãģŁ": 8233,
      "ãģ¦ãģĦãģ¾ãģĹãģŁ": 8234,
      "ãģ¯åĲĮ": 8235,
      "ĠWas": 8236,
      "ãģ®æĮģãģ¡": 8237,
      "Ġstick": 8238,
      "chn": 8239,
      "Ġnoticed": 8240,
      "åĪĨãģĳ": 8241,
      "ĠJune": 8242,
      "ãģ«èĩªåĪĨ": 8243,
      "ãģĿãĤĮãĤĴãĤĦ": 8244,
      "Ġlecture": 8245,
      "è²´": 8246,
      "Ĺ¥æľ¬èªŀ": 8247,
      "éķ·ãģı": 8248,
      "ãģ¨ãģĵãĤįãģ§": 8249,
      "Ġresign": 8250,
      "ķĻå®Ī": 8251,
      "ãĥĵãĥ¼ãĥ«": 8252,
      "Ġattract": 8253,
      "ãĤĴè²·ãģ£ãģ¦": 8254,
      "Ġbuying": 8255,
      "å·±": 8256,
      "Ġdifficulties": 8257,
      "ãģªãģıãģ¦ãģ¯": 8258,
      "Ġrelax": 8259,
      "æĥħåł±": 8260,
      "å°ıãģķãģª": 8261,
      "ãĤĴãĤĤãģŁãĤī": 8262,
      "ł±åĳĬ": 8263,
      "ãģ²ãģ¨ãĤĬ": 8264,
      "Ġtaller": 8265,
      "ĠãĥŀãĤ¤ãĤ¯": 8266,
      "ãģĭãģĹãĤī": 8267,
      "ãĤ´ãĥ«ãĥķ": 8268,
      "ä¸ĢçĶŁæĩ¸åĳ½åĭīå¼·": 8269,
      "ãģ®åĬªåĬĽ": 8270,
      "Ġelectric": 8271,
      "ãĤĪãĤįãģĹãģĦãģ§ãģĻãģĭ": 8272,
      "Ġraised": 8273,
      "æīĭä¼ĿãģĦ": 8274,
      "Ġfortune": 8275,
      "Ġwelcome": 8276,
      "·¥åł´": 8277,
      "Ġscene": 8278,
      "Ġlazy": 8279,
      "Ġconversation": 8280,
      "Ġexplanation": 8281,
      "ius": 8282,
      "light": 8283,
      "¨ĴéŁ³": 8284,
      "æºĢè¶³": 8285,
      "Ġä¼ļèŃ°": 8286,
      "ģ¶çĦ¶": 8287,
      "ĺèªŀ": 8288,
      "Ļ©": 8289,
      "Ļ½ãģĦ": 8290,
      "ãĥ¨ãĥ¼ãĥŃãĥĥãĥĳ": 8291,
      "ãģ®ä½ľ": 8292,
      "Ġåķıé¡Į": 8293,
      "Ġcraz": 8294,
      "Ġdry": 8295,
      "enced": 8296,
      "Ġgun": 8297,
      "ãģ¯å°ĳ": 8298,
      "ãģ®å¹´": 8299,
      "ãģĳãĤĵ": 8300,
      "ãģ¯æĸ°": 8301,
      "ãģ®æıĲæ¡Ī": 8302,
      "ãĤĴå¿ħè¦ģ": 8303,
      "ãĤĴæıı": 8304,
      "èªī": 8305,
      "ãģĽãĤĪ": 8306,
      "ãĤıãģĮ": 8307,
      "ãĤıãģĽãģŁ": 8308,
      "äºĭåĭĻæīĢ": 8309,
      "Ġç·": 8310,
      "ãĤĴçµĮ": 8311,
      "ilar": 8312,
      "åı«": 8313,
      "åı¤ãģĦ": 8314,
      "ãģ«ãģ¯ä½ķ": 8315,
      "Ġå½¼å¥³ãģ¯ãģĿãģ®": 8316,
      "ĠèŃ¦å®ĺ": 8317,
      "aps": 8318,
      "Ġhadn": 8319,
      "ãĥĥãĤŃãĥ¼": 8320,
      "ãģŃãģĪ": 8321,
      "å¿Ĺ": 8322,
      "åĬ£": 8323,
      "īįèĥ½": 8324,
      "åĭĩ": 8325,
      "ãĤĤãģ®ãģ§ãģĤãĤĭ": 8326,
      "ounds": 8327,
      "ãģĴãĤĭ": 8328,
      "ä»ķäºĭãĤĴ": 8329,
      "ãģĤãģªãģŁãģ¯": 8330,
      "ãĤĪãģĨãģ«ãģĹãģªãģķãģĦ": 8331,
      "ãģ®äººçĶŁ": 8332,
      "åĨĻçľŁ": 8333,
      "Ġrainy": 8334,
      "Ġrained": 8335,
      "Ġlots": 8336,
      "åĪĩãĤĬ": 8337,
      "è¡Ĺ": 8338,
      "Ġç§ģãģ¯åı": 8339,
      "ãģ®å¤©": 8340,
      "çĦ¶ãģł": 8341,
      "Ġremained": 8342,
      "ĠRead": 8343,
      "Ġattempt": 8344,
      "Ġcontr": 8345,
      "Ġmatters": 8346,
      "¯İå¹´": 8347,
      "ãĤĴåĩºãģĹãģŁ": 8348,
      "è¨ĺæĨ¶": 8349,
      "æĸ°èģŀ": 8350,
      "åģľ": 8351,
      "ãĤ»ãĥ¼ãĤ¿ãĥ¼": 8352,
      "ãĥ¯ãĤ¤": 8353,
      "æ°ĹãģĮãģĻãĤĭ": 8354,
      "Ġdressed": 8355,
      "Ġnearly": 8356,
      "Ġnative": 8357,
      "ĠãĤ¸ãĥ§ãĥ³ãģ¯": 8358,
      "ĠãĥľãĤ¹ãĥĪãĥ³": 8359,
      "ãĤĴãģĭãģĳãģ¦": 8360,
      "ãĤĴä¸İãģĪãĤĭ": 8361,
      "Ġwallet": 8362,
      "ãģ®åĳ¨": 8363,
      "Ġtreated": 8364,
      "Ġannoun": 8365,
      "ãģ®ãģĬãģĭãģĴãģ§": 8366,
      "ãģ«ãģ¡ãģĮãģĦãģªãģĦ": 8367,
      "ĠItaly": 8368,
      "Ġscholar": 8369,
      "ĠPresident": 8370,
      "Ġbasket": 8371,
      "It": 8372,
      "de": 8373,
      "ium": 8374,
      "ls": 8375,
      "´ç¿Ĵ": 8376,
      "¾¤": 8377,
      "ħī": 8378,
      "ãģ´": 8379,
      "ãģ¯ãģĹãģªãģĦ": 8380,
      "Ġwit": 8381,
      "ãĤĴéĽĨ": 8382,
      "Ġcrop": 8383,
      "ĠTan": 8384,
      "ãģĨãģĵãģ¨": 8385,
      "Ġnation": 8386,
      "ĠSw": 8387,
      "ĠæĹ©": 8388,
      "ĠæŃ¯": 8389,
      "ãģ¤ãģĦãģ¦": 8390,
      "ãģ¤ãģ¥": 8391,
      "ãĤ¹ãĥĪãĥ": 8392,
      "ãģĭãģ£ãģŁãģ®ãģ§": 8393,
      "é£½ãģį": 8394,
      "ãģ¯çĹħæ°Ĺ": 8395,
      "ãģ®è³ªåķı": 8396,
      "Ġexcell": 8397,
      "ãģ®ãĥĳ": 8398,
      "ãģ©ãģĨãģĹãģ¦ãĤĤ": 8399,
      "ĠBrit": 8400,
      "å¸½åŃĲ": 8401,
      "ĠNe": 8402,
      "Ġéļ": 8403,
      "Ġå½¼ãģ¯å®¶": 8404,
      "ãģ®äººåı£": 8405,
      "Ġgranted": 8406,
      "cip": 8407,
      "ãģĮç©º": 8408,
      "æĮģãģ£ãģ¦ãģĦãĤĭ": 8409,
      "æ¸ī": 8410,
      "ãģ®ãģĬæ¯įãģķãĤĵ": 8411,
      "ãĤ±ãĥ¼ãĤ¹": 8412,
      "åħ¨çĦ¶": 8413,
      "åħ¨åĵ¡": 8414,
      "ãĥĸãĥ«": 8415,
      "èĩªåĭķè»Ĭ": 8416,
      "Ġcontrol": 8417,
      "ãģĹãģĭãģªãģĦ": 8418,
      "Ġclassroom": 8419,
      "ãģ«åıĹ": 8420,
      "Ġåı£": 8421,
      "Ġincident": 8422,
      "Ġdepart": 8423,
      "ãģĵãģ®åķıé¡Į": 8424,
      "ï¼Ĳï¼Ĳï¼Ĳ": 8425,
      "æ·±ãģı": 8426,
      "ãģ«å¿ħè¦ģ": 8427,
      "ãĤĴå¿ĺãĤĮãģŁ": 8428,
      "ĠåĨ¬": 8429,
      "çĸ²ãĤĮ": 8430,
      "Ġdelight": 8431,
      "Ġãģ¾ãģļ": 8432,
      "ãĤĴå®ĪãĤĭ": 8433,
      "å«ĮãģĦ": 8434,
      "Ġcurrent": 8435,
      "¹³åĴĮ": 8436,
      "atoeb": 8437,
      "æĢĿãģĦåĩº": 8438,
      "ĠGerm": 8439,
      "ãĤĴæĦŁãģĺãģŁ": 8440,
      "Ġpleasant": 8441,
      "ãģĹãĤĥãģ¹ãĤĬ": 8442,
      "èĶĳ": 8443,
      "ãģĳãĤĮãģ©": 8444,
      "Ġbecoming": 8445,
      "Ġfurther": 8446,
      "Ńĺåľ¨": 8447,
      "Ġcredit": 8448,
      "èĹ¤": 8449,
      "Ġcrazy": 8450,
      "host": 8451,
      "½Ķ": 8452,
      "Ġï¼ķ": 8453,
      "ĠãģªãĤĵãģ¦": 8454,
      "ħèĮ¶": 8455,
      "ĭèŃ·": 8456,
      "ĮºåĪ¥": 8457,
      "ãģ¯ä¸į": 8458,
      "ãĥĺ": 8459,
      "ãģŁãģ°ãģĵ": 8460,
      "ãģ«ãģĿãģ®": 8461,
      "Ġsand": 8462,
      "ãģ¦ãģªãģĦ": 8463,
      "ãģ§è¡Į": 8464,
      "Ġå¸Ĥ": 8465,
      "ãģ¨ãĤĬ": 8466,
      "ãģ¨ãģªãĤĭ": 8467,
      "ery": 8468,
      "Ġdrew": 8469,
      "Ġå½¼ãĤĴ": 8470,
      "ãģłãģª": 8471,
      "arrow": 8472,
      "Ġthrew": 8473,
      "Ġnur": 8474,
      "ãĤĬè¿Ķ": 8475,
      "ä¸ĥ": 8476,
      "ãģ®åĬ©ãģĳ": 8477,
      "ãģķãģªãģĳãĤĮãģ°ãģªãĤīãģªãģĦ": 8478,
      "ãģ®æĺ": 8479,
      "ãģ®æĶ¯": 8480,
      "Ġæĸ°èģŀ": 8481,
      "ãĤĴæµģ": 8482,
      "ãĤ¹ãĤ¿": 8483,
      "åĪĳ": 8484,
      "Ġmys": 8485,
      "äºĭæħĭ": 8486,
      "ĠãĥŁ": 8487,
      "Ġsocial": 8488,
      "ãĤĴçīĩ": 8489,
      "Ġplenty": 8490,
      "ãģĤãĤĬãģ¾ãģĹãģŁ": 8491,
      "Ľ¸é¡ŀ": 8492,
      "Ġarr": 8493,
      "ãģ¨ãģĦãģĨãģ®ãģ¯": 8494,
      "ãģ«ãģ¤ãģĦãģŁ": 8495,
      "ãģĮç«ĭ": 8496,
      "ãģ¨ãģįãģ«": 8497,
      "æĺ¼é£Ł": 8498,
      "ãĤĴãģ¤ãģĳãģŁ": 8499,
      "ãģ§ãģĹãģŁãģĭ": 8500,
      "æ¥½ãģĹ": 8501,
      "æľĢé«ĺ": 8502,
      "çĪ¶è¦ª": 8503,
      "ãģľãģ²": 8504,
      "ãģ«å¯Ŀ": 8505,
      "å·ŀ": 8506,
      "åĤ¾": 8507,
      "ãĤĴæĽ¸ãģı": 8508,
      "Ġhurried": 8509,
      "Ġconcl": 8510,
      "ĠãģĿãĤĵãģªãģĵãģ¨": 8511,
      "ãĤĴæĬ¼": 8512,
      "Ġæĺ¥": 8513,
      "Ġfollowing": 8514,
      "Ġapartment": 8515,
      "Ġå®¿é¡Į": 8516,
      "ãĤĴè¨ªãĤĮãģŁ": 8517,
      "Ġlegs": 8518,
      "ä»²éĸĵ": 8519,
      "ãģįãĤĮãģĦ": 8520,
      "Ġdeeply": 8521,
      "Ġsimilar": 8522,
      "Ń°è«ĸ": 8523,
      "Ġé¦¬": 8524,
      "ĠComp": 8525,
      "ãĥĹãĥ¬ãĤ¼ãĥ³ãĥĪ": 8526,
      "æıĲæ¡Ī": 8527,
      "Ġcomfortable": 8528,
      "ĠHaving": 8529,
      "Ġextremely": 8530,
      "Ġaccustomed": 8531,
      "gest": 8532,
      "çłĶç©¶": 8533,
      "Ģ§": 8534,
      "ĤéĸĢ": 8535,
      "ĵè¿İ": 8536,
      "hered": 8537,
      "ãģ®ä¼ļ": 8538,
      "ãģªãģ®ãģ§ãģĻ": 8539,
      "ãģĹãģĮ": 8540,
      "ãģĮãģĿãģ®": 8541,
      "itation": 8542,
      "ãģ®åĭķçī©": 8543,
      "Ġç§ģãģ®å®¶": 8544,
      "ãģ®æĮĩ": 8545,
      "Ġwashing": 8546,
      "ãģ«åĨ": 8547,
      "Ġæ¯İæĹ¥": 8548,
      "ĠæĪ¦äºī": 8549,
      "ãģ¡ãģ°ãĤĵ": 8550,
      "ãĤĴåī²": 8551,
      "Ġrude": 8552,
      "ãģĻãĤĭãģŁãĤģãģ«": 8553,
      "ãģ«æĤªãģĦ": 8554,
      "Ġshout": 8555,
      "ãģ¯ç´": 8556,
      "ãĤĴèģ´": 8557,
      "ending": 8558,
      "ĠEar": 8559,
      "ãģ«èĩª": 8560,
      "ãĤĤãģ®ãģ¨": 8561,
      "Ġsaved": 8562,
      "Ġtext": 8563,
      "ãĤĤãģĨå°ĳãģĹ": 8564,
      "èª°ãģ§ãĤĤ": 8565,
      "ĠãģĿãģ®è¨ĪçĶ»": 8566,
      "ĠãģĿãģ®åĽ½": 8567,
      "ãĥĨãĥ³": 8568,
      "Ġappeared": 8569,
      "Ġneeded": 8570,
      "ãģªãĤĵãģ¨": 8571,
      "ãĤªãĥ¬ãĥ³ãĤ¸": 8572,
      "éĸ¢å¿ĥ": 8573,
      "ãĤµãĥĥãĤ«ãĥ¼": 8574,
      "Ġå½¼ãģ®è©±": 8575,
      "èŃ°è«ĸ": 8576,
      "ä¾¡æł¼": 8577,
      "Ġimportance": 8578,
      "ãģ¯ãģ©ãģĨãģ§ãģĻãģĭ": 8579,
      "ĠOnly": 8580,
      "ç©ºæ¸¯": 8581,
      "pected": 8582,
      "ãģ«è¿½ãģĦãģ¤": 8583,
      "ç«ł": 8584,
      "ãĤĴæ±ĤãĤģãģŁ": 8585,
      "Ġpriv": 8586,
      "Ġpicked": 8587,
      "ãģ®éŁ³æ¥½": 8588,
      "ãģ©ãĤĮãģıãĤīãģĦ": 8589,
      "éģħãģıãģ¾ãģ§": 8590,
      "Ġenvironment": 8591,
      "Ġgift": 8592,
      "Ġopportunity": 8593,
      "ãĤĴå¾ĮæĤĶ": 8594,
      "Ġairplane": 8595,
      "Ġwedding": 8596,
      "atoeba": 8597,
      "iod": 8598,
      "uel": 8599,
      "³ãģİ": 8600,
      "¸Ń": 8601,
      "Ġè¦ª": 8602,
      "Ġé£Łäºĭ": 8603,
      "Ģĸ": 8604,
      "ãģ«ãģĶ": 8605,
      "Ġsour": 8606,
      "ãģªãĤĪ": 8607,
      "ãĤĴãģĹãģ¦ãģĦãģ¾ãģĻ": 8608,
      "ãģ§å¯Ŀ": 8609,
      "ãģĮçµĤãĤı": 8610,
      "Ġbas": 8611,
      "Ġbother": 8612,
      "ãģĭãģŃ": 8613,
      "ãģ¨åĲį": 8614,
      "ata": 8615,
      "Ġfaster": 8616,
      "ãģ¾ãģĹãģĦ": 8617,
      "ãģĵãģ¡ãĤī": 8618,
      "Ġpapers": 8619,
      "omm": 8620,
      "Ġgar": 8621,
      "ĠHaw": 8622,
      "äºķ": 8623,
      "ãģ®å¾": 8624,
      "ãģ¯æĪĲåĬŁ": 8625,
      "uses": 8626,
      "vert": 8627,
      "ãģ£ãģ¦ãģĭãĤī": 8628,
      "ãģĽãģĦ": 8629,
      "ãģ®çĤ¹": 8630,
      "å½¼ãģ¨": 8631,
      "ãĥĪãĥłãģ¯": 8632,
      "ãĥ¼ãĥĬ": 8633,
      "ãĤĪãģĨãģ«å": 8634,
      "Ġãĥ¬": 8635,
      "åıĤ": 8636,
      "Ġmanners": 8637,
      "udd": 8638,
      "ãģ®ãĥľ": 8639,
      "å±Ĭ": 8640,
      "ãĢħãģ¨": 8641,
      "ãģ¯ç§ģéģĶ": 8642,
      "Ġcompan": 8643,
      "åį°": 8644,
      "åįĶ": 8645,
      "ä¹¾": 8646,
      "ĠãģĿãĤĮãĤī": 8647,
      "çļĦãģł": 8648,
      "éģħãĤĮãĤĭ": 8649,
      "Ġ18": 8650,
      "Ġboyfriend": 8651,
      "izz": 8652,
      "æĬķ": 8653,
      "ãĤĤãģ£ãģ¨ãĤĤ": 8654,
      "Ġrepair": 8655,
      "Ġfinding": 8656,
      "åĥįãģı": 8657,
      "Ġdesign": 8658,
      "ç¨ĭåº¦": 8659,
      "ãĤĴé£Łãģ¹ãĤĭ": 8660,
      "Ġrelations": 8661,
      "è²·ãģĦçī©": 8662,
      "Ġfacts": 8663,
      "ãĥĻãĥ«": 8664,
      "éģłæħ®": 8665,
      "ãĤ½ãĤ³ãĥ³": 8666,
      "Ģ¥ãģĦãģ§": 8667,
      "Ġmissing": 8668,
      "Ġartic": 8669,
      "é£²ãģ¿çī©": 8670,
      "ãĤĴæĢĿãģĦåĩº": 8671,
      "æ´¾ãģª": 8672,
      "ä»ĺãģįåĲĪ": 8673,
      "Ġclouds": 8674,
      "ãģ®é«ĺãģĦ": 8675,
      "ãģĮèģŀãģĵãģĪãģŁ": 8676,
      "ĠSomething": 8677,
      "Ĥ£èĢħ": 8678,
      "ãĤĴè»½": 8679,
      "Ĳºå¸¯": 8680,
      "You": 8681,
      "co": 8682,
      "¥²": 8683,
      "±ç¤¼": 8684,
      "µ´": 8685,
      "·¨": 8686,
      "»ĳ": 8687,
      "Ġäºĭæķħ": 8688,
      "Ġ...": 8689,
      "Ĳè»Ĭ": 8690,
      "ĳĺ": 8691,
      "Ĵ²": 8692,
      "ļãģĦ": 8693,
      "Ġtend": 8694,
      "ãĤĴãģį": 8695,
      "ãģ§è¦ĭ": 8696,
      "ãģĮä»Ĭ": 8697,
      "Ġbike": 8698,
      "Ġcig": 8699,
      "Ġcream": 8700,
      "Ġdra": 8701,
      "Ġdiet": 8702,
      "ãģłãĤĵãģł": 8703,
      "Ġpu": 8704,
      "Ġthick": 8705,
      "Ġthreat": 8706,
      "Ġgames": 8707,
      "Ġghost": 8708,
      "ĠHas": 8709,
      "ĠThen": 8710,
      "ãģ®å¦¹": 8711,
      "ãĥ¼ãĥ³ãĤº": 8712,
      "owed": 8713,
      "ãģ®æİĪæ¥Ń": 8714,
      "ĠæŃ£": 8715,
      "Ġsteal": 8716,
      "ãĤĴæŀľãģŁ": 8717,
      "éģº": 8718,
      "Ġrap": 8719,
      "ãģĪãĤīãĤĮãģªãģĦ": 8720,
      "ãģĬäºĴãģĦ": 8721,
      "ĠãģĿãģĹãģ¦": 8722,
      "Ġå½¼å¥³ãģ®æ": 8723,
      "ãĤģãĤĵãģªãģķãģĦ": 8724,
      "ãģ«æĪĲåĬŁ": 8725,
      "Ġcancer": 8726,
      "ãĥĪãĥłãģĮ": 8727,
      "ãģ®èµ¤": 8728,
      "ĠçĹħæ°Ĺ": 8729,
      "Ġçĸ²": 8730,
      "ãĤĴè¾ŀ": 8731,
      "å¹´ãĤĤ": 8732,
      "æĢĿèŃ°": 8733,
      "ãģķãĤĵãģĮ": 8734,
      "osh": 8735,
      "ãģ§ãģĤãĤĭãģĵãģ¨": 8736,
      "ãģ©ãģĨãĤĦãģ£ãģ¦": 8737,
      "ãģ£ãģ¦ãģĦãģªãģĭãģ£ãģŁ": 8738,
      "Ġarrest": 8739,
      "Ġå½¼ãĤīãģ¯å½¼": 8740,
      "ãĥ¬ãĥ³": 8741,
      "éłĲ": 8742,
      "ãĤ¸ãĤ§ãĥ¼ãĥ³": 8743,
      "å®¶ãģł": 8744,
      "åįµ": 8745,
      "ãģ£ãģ¦ãģĦãģŁãĤī": 8746,
      "idered": 8747,
      "ãĤ·ãĤ¢": 8748,
      "Ġspeaker": 8749,
      "Ġunable": 8750,
      "Ġunless": 8751,
      "ãģ®äººãģŁãģ¡": 8752,
      "ãģ¶ãģ®": 8753,
      "ľŁæĽľæĹ¥": 8754,
      "æĮģãģ£ãģ¦": 8755,
      "é¨Ĵ": 8756,
      "ãģĮå¢Ĺ": 8757,
      "ãģĵãģĵãģ«": 8758,
      "å¤ĸåĩº": 8759,
      "Ġãģ©ãģĨãģĭ": 8760,
      "è¾¼ãĤĢ": 8761,
      "Ħıåĳ³": 8762,
      "ãĤĴåıĹãģĳãĤĭ": 8763,
      "ĠãģĿãģ®çŁ¥ãĤīãģĽ": 8764,
      "ãģĵãģĨãģ¨": 8765,
      "Ġobey": 8766,
      "Ġabsor": 8767,
      "åĲĳãģį": 8768,
      "ãĤĴä½ľãģ£ãģŁ": 8769,
      "éĢĶä¸Ń": 8770,
      "è¨ĢãĤıãģªãģĭãģ£ãģŁ": 8771,
      "Ġdeterm": 8772,
      "è¡ĨåĽ½": 8773,
      "Ġsimple": 8774,
      "Ġtemperature": 8775,
      "Ġwoods": 8776,
      "Ġcalm": 8777,
      "ãģĮçĹĽãģĦ": 8778,
      "Ġbecomes": 8779,
      "Ġdiary": 8780,
      "ãģ®åł´åĲĪ": 8781,
      "Ġmodel": 8782,
      "Ġinflu": 8783,
      "Ġmathematics": 8784,
      "ait": 8785,
      "rain": 8786,
      "£½": 8787,
      "¦æĸĻ": 8788,
      "ªæĪĳ": 8789,
      "½±éŁ¿": 8790,
      "½éľĬ": 8791,
      "é®®": 8792,
      "Ġ9": 8793,
      "Ġãģĭ": 8794,
      "Ġãģ²": 8795,
      "ĠéĽ»è»Ĭ": 8796,
      "Į»": 8797,
      "ãģŁãĤĵ": 8798,
      "inary": 8799,
      "rees": 8800,
      "ãĤĴèª¬æĺİ": 8801,
      "ãĤĴå¥ª": 8802,
      "ãģĹãģ¾ãģĽãĤĵ": 8803,
      "ãģ§ãģĤãĤĬ": 8804,
      "ãģĮãģį": 8805,
      "Ġdrow": 8806,
      "ãģłãģ¨æĢĿ": 8807,
      "ãģıãģªãģĭãģ£ãģŁ": 8808,
      "Ġnarrow": 8809,
      "vere": 8810,
      "Ġemer": 8811,
      "è¦Ĩ": 8812,
      "ãģĵãģ¨ãģĤãĤĭ": 8813,
      "ãģĵãģ¨ãģ«ãģ¤ãģĦãģ¦": 8814,
      "ãĥ³ãĤ·ãĥ¼": 8815,
      "ãĤĴæģĲ": 8816,
      "ãģĬé¡ĺãģĦãģĹãģ¾ãģĻ": 8817,
      "åĪĹ": 8818,
      "ãģĭãĤīè¦ĭ": 8819,
      "ĠWere": 8820,
      "ĠãģĤãĤĵãģª": 8821,
      "ĠçĦ¡": 8822,
      "åı³": 8823,
      "Ġå½¼å¥³ãģ¯ä»Ĭ": 8824,
      "ãģ«çŃĶ": 8825,
      "ï¼ĳï¼ķ": 8826,
      "å¹´ãģ«ãģªãĤĭ": 8827,
      "çīĽ": 8828,
      "å±ķ": 8829,
      "ãģ¾ãģ§ãĤĤ": 8830,
      "Ġé»": 8831,
      "ãģĦãģ¤ãģ§ãĤĤ": 8832,
      "Ġoffic": 8833,
      "ãĥ¡ãĥ¼ãĥĪãĥ«": 8834,
      "ĠWhose": 8835,
      "Ġbrave": 8836,
      "ãĥĨãĤ¹ãĥĪ": 8837,
      "ãģ«ãĤĤãģ£ãģ¨": 8838,
      "oko": 8839,
      "ãģ©ãģĵãģ§": 8840,
      "©Łä¼ļ": 8841,
      "ãģ«åħ¥ãĤĮãĤĭ": 8842,
      "ãģŁãģıãģªãģĦ": 8843,
      "ãģĮå§ĭ": 8844,
      "èģŀãģĦãģ¦": 8845,
      "Ġcontract": 8846,
      "Ġclassm": 8847,
      "Ġguests": 8848,
      "Ġacted": 8849,
      "ãĤĴãĤĦãĤģ": 8850,
      "Ġperiod": 8851,
      "ãģ«ãģĦãĤĭãģ®": 8852,
      "ĠãģĿãģ®çĬ¬": 8853,
      "ç¥Ń": 8854,
      "ivid": 8855,
      "ä¸Ĭæīĭãģ«": 8856,
      "ĠShall": 8857,
      "ãģ¡ãĤĥãĤĵãģ¨": 8858,
      "Ġfallen": 8859,
      "Ġexperiment": 8860,
      "ãĤĴè¿Ķ": 8861,
      "è¨ĢãĤıãĤĮãģŁ": 8862,
      "ç§ĺæĽ¸": 8863,
      "ĠãĤ±ãĤ¤ãĥĪ": 8864,
      "éĿĻãģĭ": 8865,
      "åı¯èĥ½æĢ§": 8866,
      "īĽä¹³": 8867,
      "Ġleader": 8868,
      "Ġassist": 8869,
      "ãĤĴæįķ": 8870,
      "åŃĺåľ¨": 8871,
      "Ġcards": 8872,
      "ãģ®æ°ĹæĮģãģ¡": 8873,
      "åĪĨãģĭãĤĭ": 8874,
      "éĽªãģĮéĻį": 8875,
      "ãĤĴèĩªæħ¢": 8876,
      "ãĥ¼ãĥĳãĥ¼": 8877,
      "Ġconduct": 8878,
      "Ġexcellent": 8879,
      "coh": 8880,
      "zen": 8881,
      "¨©": 8882,
      "¬ãģĹ": 8883,
      "Ġãģ»": 8884,
      "ĥ³": 8885,
      "ĩ¦": 8886,
      "ãģ¯ãĤ¢ãĥ¡ãĥªãĤ«": 8887,
      "ãģ«éģ©": 8888,
      "Ġsize": 8889,
      "ãĤĭãģĦ": 8890,
      "ãģĮãģ§ãģįãĤĭ": 8891,
      "ãģĭãģĹãģŁ": 8892,
      "ãģĭãģĽãģŁ": 8893,
      "ãģ¨ãģĦãģĦ": 8894,
      "Ġlines": 8895,
      "ãģ¯å¹´": 8896,
      "ãģķãģªãģĭãģ£ãģŁ": 8897,
      "ãģ¯æķĻ": 8898,
      "ãģ®æĤª": 8899,
      "ĠæĹ©ãģı": 8900,
      "Ġstyle": 8901,
      "Ġmeas": 8902,
      "Ġå½¼ãģ¯ãģĿãģ®æ": 8903,
      "ãģĹãģ¦ãĤĭãģ®": 8904,
      "ãģĹãģ¦ãģıãĤĮãģ¾ãģĽãĤĵãģĭ": 8905,
      "ãĤįãģĹãģĦ": 8906,
      "Ġshare": 8907,
      "åĲ¸": 8908,
      "ãģ¯çµĤ": 8909,
      "ify": 8910,
      "ãĤĴç¥": 8911,
      "Ġspace": 8912,
      "æķ¢": 8913,
      "ãģĦãģĦãģ®ãģ«": 8914,
      "ĠNancy": 8915,
      "ume": 8916,
      "ĠOf": 8917,
      "ĠWhite": 8918,
      "ĠGe": 8919,
      "Ġapplic": 8920,
      "ãģĮçĹħæ°Ĺ": 8921,
      "éģĭåĳ½": 8922,
      "ãģªãĤĵãģ§ãģĻ": 8923,
      "ãģ¯å¤§åŃ¦": 8924,
      "ãģ£ãģ¦ãĤĤãģĦãģĦãģ§ãģĻãģĭ": 8925,
      "Ġlately": 8926,
      "Ġå½¼å¥³ãģ¯åŃĲä¾Ľ": 8927,
      "Ġcontent": 8928,
      "çµĲå±Ģ": 8929,
      "ãģ«å¯Ħ": 8930,
      "æĶ»": 8931,
      "Ġdesp": 8932,
      "Ġinvolved": 8933,
      "éĢ²æŃ©": 8934,
      "ãĤĴãģ¨ãĤĭ": 8935,
      "ãģ£ãģ¦ãĤĭãĤĪ": 8936,
      "ãĤĴæİĥéĻ¤": 8937,
      "ĠãģĦãģ£ãģŁ": 8938,
      "æ¨¡": 8939,
      "ãģĭãĤıãģĭãĤīãģªãģĦ": 8940,
      "ãģ²ãģ¨ãģ¤": 8941,
      "ãģ¯èª°ãģ§ãģĻãģĭ": 8942,
      "éĥ·": 8943,
      "ãģĬãģĨãģ¨": 8944,
      "Ġseriously": 8945,
      "ãģĭãģĭãĤĬãģ¾ãģĻãģĭ": 8946,
      "Ġcherry": 8947,
      "ĠGermany": 8948,
      "åĤ¾åĲĳ": 8949,
      "cohol": 8950,
      "20": 8951,
      "case": 8952,
      "hib": 8953,
      "¬ĳãģĦ": 8954,
      "°¸": 8955,
      "æ¯İæĹ¥": 8956,
      "èŃ¦å¯Ł": 8957,
      "ĠéĽ¨ãģĮ": 8958,
      "ĬĢè¡Į": 8959,
      "ĳĹ": 8960,
      "ãģĦãĤĦ": 8961,
      "ãĤĴãģĤãģĴ": 8962,
      "ãģ£è¶Ĭ": 8963,
      "ãģĮãģĹãģŁ": 8964,
      "ãģĮãģ»ãģĹãģĦ": 8965,
      "Ġbud": 8966,
      "Ġå¥³": 8967,
      "Ġå°ĳå¥³": 8968,
      "oring": 8969,
      "Ġlone": 8970,
      "ãģłãģ¨ãģĦãģĨ": 8971,
      "Ġpe": 8972,
      "ara": 8973,
      "ãģĤãĤīãĤĨãĤĭ": 8974,
      "ãģ®å¨ĺ": 8975,
      "ãģ®å½¹": 8976,
      "ãģ®æ¯Ľ": 8977,
      "ãģ«åħ¨": 8978,
      "ãĤĴæŃĮ": 8979,
      "Ġmeant": 8980,
      "ãģĪãĤīãĤĮãģŁ": 8981,
      "ãĤ¹ãĤ¯": 8982,
      "ãĤ¹ãĤ³": 8983,
      "ãĤ¹ãĤ±": 8984,
      "ãĤıãģĽãģ¦": 8985,
      "ãĤģãģ°": 8986,
      "Ġç§ģãģ¯èĭ±èªŀ": 8987,
      "çīĩ": 8988,
      "ãģ¯èī¯ãģĦ": 8989,
      "ãģĦãģĦãģĭ": 8990,
      "ãģĦãģĦãĤĪ": 8991,
      "aret": 8992,
      "umi": 8993,
      "Ġcomposition": 8994,
      "ĠãģĵãĤĮãģ¯ç§ģ": 8995,
      "ãĥķãĤ©": 8996,
      "Ġpoll": 8997,
      "Ġaccused": 8998,
      "Ġapply": 8999,
      "Ġplanning": 9000,
      "ãĥŃãĥ³": 9001,
      "åĮĹ": 9002,
      "ĠåĥķãĤī": 9003,
      "Ġturns": 9004,
      "éĩįãģĦ": 9005,
      "ãģ¤ãĤĤãĤĬãģ§ãģĻãģĭ": 9006,
      "ãĥĸãĥ©": 9007,
      "çĿĢãģĦãģŁ": 9008,
      "Ġlovely": 9009,
      "Ġphot": 9010,
      "çµĤãĤıãĤĬ": 9011,
      "ãģ»ãģĨãģĮ": 9012,
      "ãģ«ä¹Ĺãģ£ãģŁ": 9013,
      "Ġconsidered": 9014,
      "awa": 9015,
      "éŃħåĬĽ": 9016,
      "Ġãģĵãģ®è»Ĭ": 9017,
      "ãģĮè¦ĭãģĪãĤĭ": 9018,
      "Ġpoints": 9019,
      "aido": 9020,
      "ãģ«ãģĭãģı": 9021,
      "èĢĥãģĪãģ¦": 9022,
      "Ġ50": 9023,
      "ģ´è¡Ĩ": 9024,
      "ãĤĴæķĻãģĪãģ¦ãģıãģłãģķãģĦ": 9025,
      "Ġengaged": 9026,
      "å¯ĦãĤĬ": 9027,
      "çŃĶãģĪ": 9028,
      "´łæĻ´ãĤīãģĹãģĦ": 9029,
      "Ķ¿æ²»å®¶": 9030,
      "Ġsuggested": 9031,
      "Ġescaped": 9032,
      "Ġmessage": 9033,
      "Ġconvenient": 9034,
      "Ġbeside": 9035,
      "ãģĨãĤıãģķ": 9036,
      "Ġabsolutely": 9037,
      "Ġentrance": 9038,
      "lished": 9039,
      "overy": 9040,
      "sy": 9041,
      "¸ı": 9042,
      "¼¸": 9043,
      "½è»Ĭ": 9044,
      "çĮ": 9045,
      "è§Ĵ": 9046,
      "Ġä½ĵ": 9047,
      "Īª": 9048,
      "ĮæĪĲ": 9049,
      "įè¨±": 9050,
      "ıį": 9051,
      "ĵģ": 9052,
      "ãģ¯éĿŀå¸¸": 9053,
      "Ġactor": 9054,
      "ãģ®éĽ»è©±": 9055,
      "ãģĮä½ķ": 9056,
      "Ġmir": 9057,
      "Ġhar": 9058,
      "Ġhole": 9059,
      "atch": 9060,
      "Ġpack": 9061,
      "omen": 9062,
      "arily": 9063,
      "äºĨ": 9064,
      "Ġforty": 9065,
      "Ġå½¼ãģ¯ãģĿãģ®ç": 9066,
      "ĠMin": 9067,
      "Ġcance": 9068,
      "ãĤĪãģĨãģłãģ£ãģŁ": 9069,
      "ãĤĴèĩªåĪĨ": 9070,
      "ãĤĴçĽ®": 9071,
      "ãĤĴçĽ´": 9072,
      "Ġtrade": 9073,
      "æīĵ": 9074,
      "Ġplants": 9075,
      "ãģ«çµĲå©ļ": 9076,
      "astic": 9077,
      "ï¼ĳï¼ĺ": 9078,
      "Ġwhenever": 9079,
      "ŃĲãģ©ãĤĤ": 9080,
      "Ġå¤ļ": 9081,
      "å½¼å¥³ãģĮ": 9082,
      "ãģ¯ãģĦãģĭãģĮãģ§ãģĻãģĭ": 9083,
      "ï¼ģãĢį": 9084,
      "okes": 9085,
      "Ġblind": 9086,
      "åĪĩãĤĮ": 9087,
      "åħ¥ãĤĬ": 9088,
      "æĺ¥": 9089,
      "ãģ®ãģĬçĪ¶ãģķãĤĵ": 9090,
      "ãģ¨æĢĿãģĨãĤĪ": 9091,
      "å¾ħãģŁ": 9092,
      "ĠRome": 9093,
      "ä»ĺãģĦãģŁ": 9094,
      "Ġscared": 9095,
      "Ġattended": 9096,
      "èģŀãģį": 9097,
      "ãģ«å¤¢": 9098,
      "åľ°çĲĥ": 9099,
      "ãģ£ãģ½": 9100,
      "ãģ«ãĤĪãĤĭ": 9101,
      "æİĪæ¥Ń": 9102,
      "æ¯įè¦ª": 9103,
      "ä¿¡ãģĺãģ¦ãģĦãĤĭ": 9104,
      "Ġhurts": 9105,
      "Ġregular": 9106,
      "å¸°ãģ£ãģ¦": 9107,
      "ãģķãĤĮãģ¾ãģĹãģŁ": 9108,
      "Ġãģĵãģ®èĸ¬": 9109,
      "ï½ŀ": 9110,
      "é§ħãģ¾ãģ§": 9111,
      "å®īãģĦ": 9112,
      "Ġcaptain": 9113,
      "åĩºçĻºãģĹãģŁ": 9114,
      "è©©äºº": 9115,
      "ãģ¨ä¸Ģç·Ĵãģ«": 9116,
      "ä½Ļè£ķ": 9117,
      "ĠãģĿãģĨãģĦãģĨ": 9118,
      "ĠSpeak": 9119,
      "bye": 9120,
      "ç¯ī": 9121,
      "Ġapproach": 9122,
      "Ġsupermark": 9123,
      "ãĤĴåįĴæ¥Ń": 9124,
      "Ġfixed": 9125,
      "ãģ¯ãĥķãĥ©ãĥ³ãĤ¹èªŀ": 9126,
      "ãĤįãģĦãĤįãģª": 9127,
      "Ġresponsible": 9128,
      "Ġsusp": 9129,
      "ãģ®é¦ĸ": 9130,
      "ãģ«éĸĵãģ«åĲĪãģĨ": 9131,
      "Ġmurder": 9132,
      "Ġexchange": 9133,
      "Ġdisease": 9134,
      "Ġrapid": 9135,
      "ĠGeorge": 9136,
      "gage": 9137,
      "set": 9138,
      "tled": 9139,
      "¨İ": 9140,
      "®æįķ": 9141,
      "±ĭ": 9142,
      "³ãģĲ": 9143,
      "¿æĺĵ": 9144,
      "è§¦": 9145,
      "é¼»": 9146,
      "Ġãģ¤": 9147,
      "Ġè©¦é¨ĵ": 9148,
      "ĢŁéĩĳ": 9149,
      "ĥ¸": 9150,
      "Ġtight": 9151,
      "ãģ®ãģ§ãģĤãĤĭ": 9152,
      "ãģ®ãģ§ãģ¯ãģªãģĦ": 9153,
      "ãģ«ãĤ¢": 9154,
      "ãģ«è©±ãģĹ": 9155,
      "reen": 9156,
[...]
