{
  "version": "1.0",
  "truncation": null,
  "padding": null,
  "added_tokens": [
    {
      "id": 0,
      "content": "\n",
      "single_word": false,
      "lstrip": false,
      "rstrip": false,
      "normalized": false,
      "special": true
    },
    {
      "id": 1,
      "content": "[UNK]",
      "single_word": false,
      "lstrip": false,
      "rstrip": false,
      "normalized": false,
      "special": true
    },
    {
      "id": 2,
      "content": "[BOS]",
      "single_word": false,
      "lstrip": false,
      "rstrip": false,
      "normalized": false,
      "special": true
    },
    {
      "id": 3,
      "content": "[EOS]",
      "single_word": false,
      "lstrip": false,
      "rstrip": false,
      "normalized": false,
      "special": true
    },
    {
      "id": 4,
      "content": "[PAD]",
      "single_word": false,
      "lstrip": false,
      "rstrip": false,
      "normalized": false,
      "special": true
    }
  ],
  "normalizer": null,
  "pre_tokenizer": {
    "type": "ByteLevel",
    "add_prefix_space": true,
    "trim_offsets": true,
    "use_regex": true
  },
  "post_processor": {
    "type": "ByteLevel",
    "add_prefix_space": true,
    "trim_offsets": true,
    "use_regex": true
  },
  "decoder": {
    "type": "ByteLevel",
    "add_prefix_space": true,
    "trim_offsets": true,
    "use_regex": true
  },
  "model": {
    "type": "BPE",
    "dropout": null,
    "unk_token": null,
    "continuing_subword_prefix": null,
    "end_of_word_suffix": null,
    "fuse_unk": false,
    "byte_fallback": false,
    "ignore_merges": false,
    "vocab": {
      "\n": 0,
      "[UNK]": 1,
      "[BOS]": 2,
      "[EOS]": 3,
      "[PAD]": 4,
      "!": 5,
      "\"": 6,
      "#": 7,
      "$": 8,
      "%": 9,
      "&": 10,
      "'": 11,
      "(": 12,
      ")": 13,
      "*": 14,
      "+": 15,
      ",": 16,
      "-": 17,
      ".": 18,
      "/": 19,
      "0": 20,
      "1": 21,
      "2": 22,
      "3": 23,
      "4": 24,
      "5": 25,
      "6": 26,
      "7": 27,
      "8": 28,
      "9": 29,
      ":": 30,
      ";": 31,
      "<": 32,
      "=": 33,
      ">": 34,
      "?": 35,
      "@": 36,
      "A": 37,
      "B": 38,
      "C": 39,
      "D": 40,
      "E": 41,
      "F": 42,
      "G": 43,
      "H": 44,
      "I": 45,
      "J": 46,
      "K": 47,
      "L": 48,
      "M": 49,
      "N": 50,
      "O": 51,
      "P": 52,
      "Q": 53,
      "R": 54,
      "S": 55,
      "T": 56,
      "U": 57,
      "V": 58,
      "W": 59,
      "X": 60,
      "Y": 61,
      "Z": 62,
      "[": 63,
      "\\": 64,
      "]": 65,
      "^": 66,
      "_": 67,
      "`": 68,
      "a": 69,
      "b": 70,
      "c": 71,
      "d": 72,
      "e": 73,
      "f": 74,
      "g": 75,
      "h": 76,
      "i": 77,
      "j": 78,
      "k": 79,
      "l": 80,
      "m": 81,
      "n": 82,
      "o": 83,
      "p": 84,
      "q": 85,
      "r": 86,
      "s": 87,
      "t": 88,
      "u": 89,
      "v": 90,
      "w": 91,
      "x": 92,
      "y": 93,
      "z": 94,
      "{": 95,
      "|": 96,
      "}": 97,
      "~": 98,
      "¡": 99,
      "¢": 100,
      "£": 101,
      "¤": 102,
      "¥": 103,
      "¦": 104,
      "§": 105,
      "¨": 106,
      "©": 107,
      "ª": 108,
      "«": 109,
      "¬": 110,
      "®": 111,
      "¯": 112,
      "°": 113,
      "±": 114,
      "²": 115,
      "³": 116,
      "´": 117,
      "µ": 118,
      "¶": 119,
      "·": 120,
      "¸": 121,
      "¹": 122,
      "º": 123,
      "»": 124,
      "¼": 125,
      "½": 126,
      "¾": 127,
      "¿": 128,
      "À": 129,
      "Á": 130,
      "Â": 131,
      "Ã": 132,
      "Ä": 133,
      "Å": 134,
      "Æ": 135,
      "Ç": 136,
      "È": 137,
      "É": 138,
      "Ê": 139,
      "Ë": 140,
      "Ì": 141,
      "Í": 142,
      "Î": 143,
      "Ï": 144,
      "Ð": 145,
      "Ñ": 146,
      "Ò": 147,
      "Ó": 148,
      "Ô": 149,
      "Õ": 150,
      "Ö": 151,
      "×": 152,
      "Ø": 153,
      "Ù": 154,
      "Ú": 155,
      "Û": 156,
      "Ü": 157,
      "Ý": 158,
      "Þ": 159,
      "ß": 160,
      "à": 161,
      "á": 162,
      "â": 163,
      "ã": 164,
      "ä": 165,
      "å": 166,
      "æ": 167,
      "ç": 168,
      "è": 169,
      "é": 170,
      "ê": 171,
      "ë": 172,
      "ì": 173,
      "í": 174,
      "î": 175,
      "ï": 176,
      "ð": 177,
      "ñ": 178,
      "ò": 179,
      "ó": 180,
      "ô": 181,
      "õ": 182,
      "ö": 183,
      "÷": 184,
      "ø": 185,
      "ù": 186,
      "ú": 187,
      "û": 188,
      "ü": 189,
      "ý": 190,
      "þ": 191,
      "ÿ": 192,
      "Ā": 193,
      "ā": 194,
      "Ă": 195,
      "ă": 196,
      "Ą": 197,
      "ą": 198,
      "Ć": 199,
      "ć": 200,
      "Ĉ": 201,
      "ĉ": 202,
      "Ċ": 203,
      "ċ": 204,
      "Č": 205,
      "č": 206,
      "Ď": 207,
      "ď": 208,
      "Đ": 209,
      "đ": 210,
      "Ē": 211,
      "ē": 212,
      "Ĕ": 213,
      "ĕ": 214,
      "Ė": 215,
      "ė": 216,
      "Ę": 217,
      "ę": 218,
      "Ě": 219,
      "ě": 220,
      "Ĝ": 221,
      "ĝ": 222,
      "Ğ": 223,
      "ğ": 224,
      "Ġ": 225,
      "ġ": 226,
      "Ģ": 227,
      "ģ": 228,
      "Ĥ": 229,
      "ĥ": 230,
      "Ħ": 231,
      "ħ": 232,
      "Ĩ": 233,
      "ĩ": 234,
      "Ī": 235,
      "ī": 236,
      "Ĭ": 237,
      "ĭ": 238,
      "Į": 239,
      "į": 240,
      "İ": 241,
      "ı": 242,
      "Ĳ": 243,
      "ĳ": 244,
      "Ĵ": 245,
      "ĵ": 246,
      "Ķ": 247,
      "ķ": 248,
      "ĸ": 249,
      "Ĺ": 250,
      "ĺ": 251,
      "Ļ": 252,
      "ļ": 253,
      "Ľ": 254,
      "ľ": 255,
      "Ŀ": 256,
      "ŀ": 257,
      "Ł": 258,
      "ł": 259,
      "Ń": 260,
      "ãģ": 261,
      "ãĤ": 262,
      "ãĢ": 263,
      "ãĢĤ": 264,
      "ãģ¯": 265,
      "Ġd": 266,
      "ãģĦ": 267,
      "Ġp": 268,
      "es": 269,
      "ãĥ": 270,
      "Ã©": 271,
      "Ġl": 272,
      "ai": 273,
      "en": 274,
      "ãģ®": 275,
      "ãģŁ": 276,
      "on": 277,
      "ou": 278,
      "Ġs": 279,
      "ãģ«": 280,
      "Ġa": 281,
      "re": 282,
      "Ġc": 283,
      "ãģª": 284,
      "ãĤĴ": 285,
      "ãģ¦": 286,
      "ãģĹ": 287,
      "Ġm": 288,
      "er": 289,
      "ãģ§": 290,
      "ãĤĭ": 291,
      "Ġde": 292,
      "Ġå": 293,
      "an": 294,
      "ãģ£": 295,
      "Ġt": 296,
      "qu": 297,
      "ãģĻ": 298,
      "ãģĮ": 299,
      "½¼": 300,
      "ãģĭ": 301,
      "ãģ¨": 302,
      "le": 303,
      "Ġv": 304,
      "ne": 305,
      "ĠJ": 306,
      "ãģ¾": 307,
      "ent": 308,
      "Ġpa": 309,
      "Ġå½¼": 310,
      "est": 311,
      "oi": 312,
      "Ġqu": 313,
      "Ġf": 314,
      "ĠÃ": 315,
      "ãģĵ": 316,
      "eu": 317,
      "ç§": 318,
      "ãģł": 319,
      "ç§ģ": 320,
      "ãĤĮ": 321,
      "ãģĨ": 322,
      "Ġu": 323,
      "ĠI": 324,
      "Ġla": 325,
      "is": 326,
      "ais": 327,
      "ãģı": 328,
      "ãĤī": 329,
      "ĠIl": 330,
      "ãĤĤ": 331,
      "te": 332,
      "il": 333,
      "ï¼": 334,
      "ãĤĵ": 335,
      "ãģ£ãģŁ": 336,
      "our": 337,
      "ãĢģ": 338,
      "ĠÃł": 339,
      "Ġn": 340,
      "ãģĤ": 341,
      "ãģ¦ãģĦ": 342,
      "om": 343,
      "ĠJe": 344,
      "Ġj": 345,
      "Ã¨": 346,
      "Ġle": 347,
      "Ġb": 348,
      "ãĤĬ": 349,
      "Ġpas": 350,
      "äº": 351,
      "ãģ¯å": 352,
      "Ġest": 353,
      "ous": 354,
      "ä¸": 355,
      "ãģį": 356,
      "Ġr": 357,
      "ãģªãģĦ": 358,
      "Ġç§ģ": 359,
      "ait": 360,
      "Ġ?": 361,
      "in": 362,
      "it": 363,
      "ãģĿ": 364,
      "Ġque": 365,
      "et": 366,
      "å¥": 367,
      "lle": 368,
      "ar": 369,
      "ãģĹãģŁ": 370,
      "us": 371,
      "ãģķ": 372,
      "or": 373,
      "ãģ§ãģĻ": 374,
      "Ġen": 375,
      "ãĤĪ": 376,
      "Ġå½¼ãģ¯": 377,
      "ĠL": 378,
      "ãģ®å": 379,
      "Ã©t": 380,
      "ãĥ¼": 381,
      "Ġun": 382,
      "au": 383,
      "Ġpr": 384,
      "ãģ¾ãģĻ": 385,
      "ãģĳ": 386,
      "å¥³": 387,
      "ĠC": 388,
      "me": 389,
      "Ġsu": 390,
      "æľ": 391,
      "Ġtr": 392,
      "æĹ": 393,
      "ant": 394,
      "at": 395,
      "se": 396,
      "ãģ¦ãģĦãĤĭ": 397,
      "Ġne": 398,
      "Ġch": 399,
      "Ġpar": 400,
      "ve": 401,
      "Ġau": 402,
      "ment": 403,
      "tre": 404,
      "ĠE": 405,
      "ãĤĴè": 406,
      "ion": 407,
      "ãģ«å": 408,
      "ch": 409,
      "ä½": 410,
      "ĠT": 411,
      "Ġg": 412,
      "Ġpl": 413,
      "çĶ": 414,
      "ä»": 415,
      "Ġune": 416,
      "ie": 417,
      "äºº": 418,
      "ãģ£ãģ¦": 419,
      "ãģ©": 420,
      "ãģ¤": 421,
      "Ġles": 422,
      "ãĥ³": 423,
      "ãģĵãģ¨": 424,
      "æĹ¥": 425,
      "ãģĪ": 426,
      "ce": 427,
      "Ġç§ģãģ¯": 428,
      "ãĤĴå": 429,
      "ien": 430,
      "ãĤĴæ": 431,
      "ans": 432,
      "Ġpour": 433,
      "Ġæ": 434,
      "éģ": 435,
      "ĠÃ©t": 436,
      "ãģĬ": 437,
      "ont": 438,
      "èª": 439,
      "Ġå½¼å¥³": 440,
      "ãģ¡": 441,
      "ãĤ¹": 442,
      "Ġce": 443,
      "Ġh": 444,
      "ãģĽ": 445,
      "ãģ®æ": 446,
      "de": 447,
      "al": 448,
      "Ã¨re": 449,
      "Ġãĥ": 450,
      "¡Į": 451,
      "end": 452,
      "mp": 453,
      "ag": 454,
      "ĠM": 455,
      "è¨": 456,
      "eur": 457,
      "ï¼Ł": 458,
      "åĪ": 459,
      "Ãª": 460,
      "ãģĹãģ¦": 461,
      "ci": 462,
      "ir": 463,
      "eux": 464,
      "ãģ¯æ": 465,
      "Ġdans": 466,
      "as": 467,
      "ãĤı": 468,
      "ap": 469,
      "Ġdes": 470,
      "av": 471,
      "ĢĻ": 472,
      "ain": 473,
      "å¤": 474,
      "è¦": 475,
      "ĠElle": 476,
      "ri": 477,
      "ãĤģ": 478,
      "âĢĻ": 479,
      "è¡Į": 480,
      "que": 481,
      "Ġje": 482,
      "ois": 483,
      "Ġse": 484,
      "ãģĻãĤĭ": 485,
      "Ã©e": 486,
      "ui": 487,
      "tu": 488,
      "ĠN": 489,
      "ãģĤãĤĭ": 490,
      "Ġre": 491,
      "Ġcom": 492,
      "éĸ": 493,
      "ll": 494,
      "Ġdu": 495,
      "oir": 496,
      "ĠS": 497,
      "ĠP": 498,
      "ãģ«æ": 499,
      "ãģĭãĤī": 500,
      "ĠãģĿ": 501,
      "Ġme": 502,
      "Ġãģĵ": 503,
      "ĠdÃ©": 504,
      "ãģ°": 505,
      "res": 506,
      "ãģķãģĦ": 507,
      "Ġte": 508,
      "ãĥ¼ãĥ": 509,
      "ons": 510,
      "Ġet": 511,
      "and": 512,
      "Ġvous": 513,
      "Ġsuis": 514,
      "ĠÂ": 515,
      "è©": 516,
      "aire": 517,
      "Ġmon": 518,
      "Ã¨s": 519,
      "Ġplus": 520,
      "ĠA": 521,
      "ang": 522,
      "æľ¬": 523,
      "é£": 524,
      "ä½ķ": 525,
      "ä¼": 526,
      "Ġtou": 527,
      "Ġav": 528,
      "ãģĭãģ£ãģŁ": 529,
      "am": 530,
      "äºĭ": 531,
      "ãģ®ç": 532,
      "ãĤį": 533,
      "ĻĤ": 534,
      "éĽ": 535,
      "os": 536,
      "ä¸Ģ": 537,
      "Ġç": 538,
      "ĠÃ©": 539,
      "éĢ": 540,
      "Ġson": 541,
      "pr": 542,
      "elle": 543,
      "iv": 544,
      "Ġå½¼å¥³ãģ¯": 545,
      "ãģªãģŁ": 546,
      "çĶŁ": 547,
      "è¨Ģ": 548,
      "ãģĹãģĦ": 549,
      "ãģĤãģªãģŁ": 550,
      "ĠrÃ©": 551,
      "ort": 552,
      "ĩº": 553,
      "å®": 554,
      "å½¼": 555,
      "Ġpro": 556,
      "åŃ": 557,
      "åĲ": 558,
      "ãĤ¢": 559,
      "ier": 560,
      "ol": 561,
      "ĠLe": 562,
      "ãĤĴç": 563,
      "ãĤĪãģĨ": 564,
      "ãĤĮãģŁ": 565,
      "ãģ§ãģĻãģĭ": 566,
      "ãĤ¤": 567,
      "ab": 568,
      "Īãĥ": 569,
      "æĢ": 570,
      "è©±": 571,
      "éĸĵ": 572,
      "Ġcon": 573,
      "ãģ¿": 574,
      "Ġdi": 575,
      "ue": 576,
      "ãģ£ãģ¦ãģĦãĤĭ": 577,
      "åĪĨ": 578,
      "ãģ¾ãģĽ": 579,
      "vous": 580,
      "è»": 581,
      "ãĤĦ": 582,
      "ette": 583,
      "éĩ": 584,
      "ur": 585,
      "ãĥª": 586,
      "ãĢĮ": 587,
      "ãĢį": 588,
      "ãģ¾ãģĽãĤĵ": 589,
      "Ġtu": 590,
      "eau": 591,
      "ãģ¾ãģĹãģŁ": 592,
      "Ġil": 593,
      "ers": 594,
      "ãģ¯ç": 595,
      "èªŀ": 596,
      "ãģ¹": 597,
      "æī": 598,
      "Ġave": 599,
      "Ġsur": 600,
      "ille": 601,
      "æ°": 602,
      "Ġfait": 603,
      "ãģ¾ãģĻãģĭ": 604,
      "un": 605,
      "Ġi": 606,
      "ä»Ĭ": 607,
      "æĻĤ": 608,
      "Ġsa": 609,
      "ãģĦãģŁ": 610,
      "ouv": 611,
      "èĢ": 612,
      "èĩ": 613,
      "Ġan": 614,
      "å¹": 615,
      "Ã©s": 616,
      "åı": 617,
      "Ġmais": 618,
      "æĸ": 619,
      "ĠQ": 620,
      "ãģ¯å½¼": 621,
      "Ġin": 622,
      "æŃ": 623,
      "ãģ£ãģ¦ãģĦ": 624,
      "ff": 625,
      "æĿ": 626,
      "ï¼ĳ": 627,
      "Ġpeu": 628,
      "ĠD": 629,
      "oup": 630,
      "ãģĺ": 631,
      "ens": 632,
      "ãģ«ãģª": 633,
      "ig": 634,
      "ãģªãģĭãģ£ãģŁ": 635,
      "èĩª": 636,
      "Ġ!": 637,
      "Ġy": 638,
      "Ġavec": 639,
      "ãĤĵãģł": 640,
      "Ł¥": 641,
      "ãĥ©": 642,
      "åħ": 643,
      "çī": 644,
      "ĠLes": 645,
      "Ã©r": 646,
      "½ãģį": 647,
      "mps": 648,
      "ãģ§ãģ¯": 649,
      "Ãł": 650,
      "ä¸Ń": 651,
      "ĠLa": 652,
      "ĠÃ©tait": 653,
      "ãģĤãĤĬ": 654,
      "ĠãĤ": 655,
      "Ġqui": 656,
      "ot": 657,
      "ãģ«ãģ¯": 658,
      "ess": 659,
      "Ġgr": 660,
      "é£Ł": 661,
      "ãģ§ãģį": 662,
      "di": 663,
      "ãģ«ç": 664,
      "Ġe": 665,
      "ãģ®è": 666,
      "ut": 667,
      "å¾": 668,
      "ac": 669,
      "ours": 670,
      "che": 671,
      "ä¼ļ": 672,
      "si": 673,
      "onn": 674,
      "Ġlui": 675,
      "ãĥ«": 676,
      "ãģĹãģ¦ãģĦãĤĭ": 677,
      "Ġfr": 678,
      "Ġfaire": 679,
      "ĠU": 680,
      "ä¸Ĭ": 681,
      "ãģŁãģ¡": 682,
      "ard": 683,
      "ãģŃ": 684,
      "ux": 685,
      "lÃ©": 686,
      "Īãĥł": 687,
      "oin": 688,
      "op": 689,
      "Ġar": 690,
      "ãĤĴè¦": 691,
      "å¹´": 692,
      "æ°Ĺ": 693,
      "Ġsont": 694,
      "ãĤĵãģ§": 695,
      "onne": 696,
      "è¦ĭ": 697,
      "è»Ĭ": 698,
      "åĩº": 699,
      "Ġtout": 700,
      "Ġall": 701,
      "Ġsi": 702,
      "uis": 703,
      "ĠÂ«": 704,
      "å¿": 705,
      "otre": 706,
      "çī©": 707,
      "Ġè": 708,
      "ãģ®é": 709,
      "ĠãģĤãģªãģŁ": 710,
      "ãĤĵãģª": 711,
      "ãĤ¯": 712,
      "ouve": 713,
      "age": 714,
      "æĢĿ": 715,
      "bl": 716,
      "īį": 717,
      "ĠTom": 718,
      "ãģ¸": 719,
      "ãģķãĤĵ": 720,
      "åĽ": 721,
      "ĠO": 722,
      "ãģļ": 723,
      "å¥½ãģį": 724,
      "ation": 725,
      "Ã®": 726,
      "æķ": 727,
      "ãĥĥ": 728,
      "Ġtrav": 729,
      "Ġdem": 730,
      "Ġcette": 731,
      "Ã´": 732,
      "ãģ¦ãĤĤ": 733,
      "ãĤĩ": 734,
      "ãĤĮãĤĭ": 735,
      "ãģ»": 736,
      "ĠTu": 737,
      "ãģ«è": 738,
      "Ã§": 739,
      "Ġdev": 740,
      "ĠÂ»": 741,
      "æĺ": 742,
      "Ġbeau": 743,
      "åº": 744,
      "co": 745,
      "ãģ©ãģĨ": 746,
      "mi": 747,
      "ĠtrÃ¨s": 748,
      "éĻ": 749,
      "ãĤĮãģ°": 750,
      "Ġnous": 751,
      "ãģĦãģĦ": 752,
      "ãģĵãģ¨ãģĮ": 753,
      "Ġai": 754,
      "Ġbien": 755,
      "ãģ§ãģĤãĤĭ": 756,
      "ãĤĴè¦ĭ": 757,
      "ï¼Ĳ": 758,
      "tÃ©": 759,
      "ãģĶ": 760,
      "Įģ": 761,
      "Ġo": 762,
      "ãģĦãģ¦": 763,
      "åĬ": 764,
      "endre": 765,
      "ure": 766,
      "ãĥĪ": 767,
      "éĩĳ": 768,
      "Ġé": 769,
      "ill": 770,
      "ãģĿãģ®": 771,
      "oy": 772,
      "Ġtemps": 773,
      "Ġå½¼ãģ¯å": 774,
      "ãģłãģ£ãģŁ": 775,
      "mes": 776,
      "å±": 777,
      "Ľ¸": 778,
      "ãĤīãģªãģĦ": 779,
      "Ġtravai": 780,
      "ĠÃ©tÃ©": 781,
      "ct": 782,
      "ãĤĤãģ®": 783,
      "Ġpart": 784,
      "å¸": 785,
      "ĠV": 786,
      "Ġquel": 787,
      "ĠãĥĪãĥł": 788,
      "æīĭ": 789,
      "ä¿": 790,
      "ãĥ¬": 791,
      "æĿ¥": 792,
      "Ġma": 793,
      "ãģĦãĤĭ": 794,
      "rai": 795,
      "åĭ": 796,
      "ç´": 797,
      "coup": 798,
      "ãĤįãģĨ": 799,
      "ä¾": 800,
      "ĲĽ": 801,
      "ãģıãģł": 802,
      "uit": 803,
      "ãĤ«": 804,
      "out": 805,
      "Ġap": 806,
      "omb": 807,
      "ĠCe": 808,
      "ler": 809,
      "ãģĴ": 810,
      "åĳ": 811,
      "omme": 812,
      "apon": 813,
      "åīį": 814,
      "cu": 815,
      "ãĥī": 816,
      "ĠNe": 817,
      "èĢħ": 818,
      "Ġas": 819,
      "æĹ¥æľ¬": 820,
      "ãģĹãģ¦ãģĦ": 821,
      "oit": 822,
      "ãģªãģķãģĦ": 823,
      "ble": 824,
      "å¼": 825,
      "ãģĦãģ¤": 826,
      "ãģ¨æĢĿ": 827,
      "åŃ¦": 828,
      "tt": 829,
      "ãĤ¿": 830,
      "ez": 831,
      "çµ": 832,
      "ĠÃª": 833,
      "ãģıãģłãģķãģĦ": 834,
      "ãĤĩãģĨ": 835,
      "Ġpeux": 836,
      "ãģŁãģĦ": 837,
      "itÃ©": 838,
      "Ī¶": 839,
      "ĠMon": 840,
      "aÃ®": 841,
      "ĠãĢĮ": 842,
      "orte": 843,
      "å¤§": 844,
      "ãģ¯ãĥ": 845,
      "able": 846,
      "ä¸ĭ": 847,
      "Ġä»Ĭ": 848,
      "Ġdit": 849,
      "ãģ«è¡Į": 850,
      "Ġbeaucoup": 851,
      "pe": 852,
      "Ġmoi": 853,
      "ãĤĭãģ®": 854,
      "ter": 855,
      "ãģ£ãģ¨": 856,
      "ãĤĪãĤĬ": 857,
      "µ·": 858,
      "ãģĿãĤĮ": 859,
      "åŃĲ": 860,
      "ite": 861,
      "lais": 862,
      "ãĤĤãģĨ": 863,
      "ãĤĥ": 864,
      "ãģĮæ": 865,
      "ique": 866,
      "Ġmar": 867,
      "ãģªãģı": 868,
      "ĠNous": 869,
      "ĠQu": 870,
      "Ġcr": 871,
      "æĦ": 872,
      "Ġliv": 873,
      "éĥ": 874,
      "ĠUn": 875,
      "ãģ¯è": 876,
      "ãģĻãģ": 877,
      "¤§": 878,
      "ãģ¨ãģ¦ãĤĤ": 879,
      "Ġent": 880,
      "ãĤ³": 881,
      "ãģ¾ãģ§": 882,
      "éĽ»": 883,
      "Ġex": 884,
      "ãĢħ": 885,
      "å¯": 886,
      "moi": 887,
      "çķ": 888,
      "ussi": 889,
      "çĲ": 890,
      "Ġvoi": 891,
      "eure": 892,
      "èª°": 893,
      "ose": 894,
      "°ĳ": 895,
      "å½": 896,
      "Ġpeut": 897,
      "Ġjour": 898,
      "iÃ¨re": 899,
      "ģŀ": 900,
      "éģĶ": 901,
      "èĩªåĪĨ": 902,
      "ï¼ģ": 903,
      "Ġæĺ": 904,
      "æł": 905,
      "Ġmal": 906,
      "ĠB": 907,
      "ãĥĨ": 908,
      "ĠãģĬ": 909,
      "Ġdis": 910,
      "ãģĮå¥½ãģį": 911,
      "aime": 912,
      "Ġses": 913,
      "aÃ®t": 914,
      "Ġç§ģãģ¯å": 915,
      "Ġser": 916,
      "ĠåĲĽ": 917,
      "ãĥ¡": 918,
      "ture": 919,
      "åľ": 920,
      "ï¼Ĵ": 921,
      "ãģĹãĤĩãģĨ": 922,
      "ãģ¨ãģĦ": 923,
      "Ġcomp": 924,
      "mer": 925,
      "ĥķ": 926,
      "Ġdeux": 927,
      "ond": 928,
      "Ãªme": 929,
      "é£Łãģ¹": 930,
      "ĠÃªtre": 931,
      "em": 932,
      "ge": 933,
      "æ¥": 934,
      "ĭ±": 935,
      "ãĤ¸": 936,
      "Ġvotre": 937,
      "rais": 938,
      "çŁ¥": 939,
      "æĪ": 940,
      "Ġca": 941,
      "ic": 942,
      "aut": 943,
      "ãģ¯ãģĦ": 944,
      "riv": 945,
      "ãģĿãģĨ": 946,
      "ä¹": 947,
      "Ġvie": 948,
      "çĽ": 949,
      "ä»ķ": 950,
      "ãĤ¹ãĥ": 951,
      "ĠÃ§": 952,
      "Ń¦": 953,
      "la": 954,
      "ãģ§ãĤĤ": 955,
      "ance": 956,
      "ĠÃ§a": 957,
      "ine": 958,
      "ĠãģĤ": 959,
      "®¶": 960,
      "ors": 961,
      "prÃ¨s": 962,
      "Ġnouve": 963,
      "ĠprÃ©": 964,
      "Åĵ": 965,
      "çĦ": 966,
      "ãģ¯ç§ģ": 967,
      "ãģĳãĤĮãģ°": 968,
      "Ã¹": 969,
      "ŃĲ": 970,
      "ions": 971,
      "Ġpers": 972,
      "ãģŁãĤģ": 973,
      "Ãªte": 974,
      "Ã»": 975,
      "Ġelle": 976,
      "éł": 977,
      "ãģłãĤįãģĨ": 978,
      "are": 979,
      "mÃ©": 980,
      "æ³": 981,
      "ãĥķ": 982,
      "éĿ": 983,
      "Ġou": 984,
      "ãģ®ãģ§": 985,
      "Ġcomme": 986,
      "aine": 987,
      "Ġveux": 988,
      "ĠÃ©c": 989,
      "ãģĦãģ¾ãģĻ": 990,
      "Ġjou": 991,
      "Ġva": 992,
      "enc": 993,
      "Ġper": 994,
      "Ġjam": 995,
      "Ġmaison": 996,
      "ĿĢ": 997,
      "Ġfois": 998,
      "ants": 999,
      "ĠOn": 1000,
      "tes": 1001,
      "īĭ": 1002,
      "ãģłãģĳ": 1003,
      "st": 1004,
      "Ã¢": 1005,
      "Ġont": 1006,
      "ãģĹãģ¾": 1007,
      "ãģĮãģĤãĤĭ": 1008,
      "Ġãģĵãģ®": 1009,
      "İæĹ¥": 1010,
      "Ġaussi": 1011,
      "ãĢįãĢĮ": 1012,
      "æĸ¹": 1013,
      "ãĥĲ": 1014,
      "ħ¥": 1015,
      "ãģĪãĤĭ": 1016,
      "ĠãģĿãĤĮ": 1017,
      "jours": 1018,
      "ra": 1019,
      "ķı": 1020,
      "ãģĳãģŁ": 1021,
      "ĠdÃ©j": 1022,
      "Ġtoujours": 1023,
      "ĭ±èªŀ": 1024,
      "ient": 1025,
      "ĠpÃ¨re": 1026,
      "im": 1027,
      "ãĤĮãģªãģĦ": 1028,
      "vez": 1029,
      "å½¼å¥³": 1030,
      "ä»ķäºĭ": 1031,
      "ãģįãģŁ": 1032,
      "ĠplaÃ®t": 1033,
      "gent": 1034,
      "åį": 1035,
      "åĲĪ": 1036,
      "æľĢ": 1037,
      "ĠãģĿãģ®": 1038,
      "bre": 1039,
      "çļ": 1040,
      "erre": 1041,
      "ner": 1042,
      "¯į": 1043,
      "ãĤ·": 1044,
      "Ġgrand": 1045,
      "ãģªãģĳãĤĮãģ°": 1046,
      "Ġmat": 1047,
      "Ġmang": 1048,
      "ãĤĮãģ¦ãģĦãĤĭ": 1049,
      "åĽ½": 1050,
      "çĻ": 1051,
      "è¦ģ": 1052,
      "ãģĮè": 1053,
      "Ġç§ģãģ¯å½¼": 1054,
      "Ġici": 1055,
      "Ġsem": 1056,
      "å®¶": 1057,
      "ãģ§ãģ¯ãģªãģĦ": 1058,
      "å±ĭ": 1059,
      "ad": 1060,
      "Ġder": 1061,
      "Ġquand": 1062,
      "Ġchose": 1063,
      "Ġä½ķ": 1064,
      "Ġatt": 1065,
      "è¦ª": 1066,
      "²·": 1067,
      "Ãªtre": 1068,
      "ĠQue": 1069,
      "ãĤĢ": 1070,
      "ense": 1071,
      "ong": 1072,
      "ãĤĪãģı": 1073,
      "ici": 1074,
      "Ġ\"": 1075,
      "Ã©lÃ©": 1076,
      "Ġvrai": 1077,
      "éĢļ": 1078,
      "ale": 1079,
      "Ġå¤": 1080,
      "jour": 1081,
      "ĠF": 1082,
      "ãģĹãģ¾ãģĻ": 1083,
      "ques": 1084,
      "Ġenf": 1085,
      "«ĭ": 1086,
      "Ġjus": 1087,
      "Ġdire": 1088,
      "Ġarriv": 1089,
      "ĠJapon": 1090,
      "cher": 1091,
      "eures": 1092,
      "Ġmonde": 1093,
      "Ġjamais": 1094,
      "Ġ1": 1095,
      "Ĥª": 1096,
      "Ġli": 1097,
      "par": 1098,
      "ãģĵãĤį": 1099,
      "Ġbon": 1100,
      "Ġans": 1101,
      "rÃ©": 1102,
      "Ġå½¼ãĤī": 1103,
      "ĠPour": 1104,
      "çĲĨ": 1105,
      "enir": 1106,
      "Ġmain": 1107,
      "anc": 1108,
      "ande": 1109,
      "ä½ı": 1110,
      "ĠMa": 1111,
      "ãģ£ãģ¦ãģĦãģŁ": 1112,
      "è¿": 1113,
      "Ġvoir": 1114,
      "ĠÃ©tu": 1115,
      "Ġheures": 1116,
      "ãģĭãĤĬ": 1117,
      "Ġret": 1118,
      "ãĤĪãģĨãģ«": 1119,
      "Ł³": 1120,
      "Ġpet": 1121,
      "ĠtÃ©lÃ©": 1122,
      "Ġaux": 1123,
      "ãĥ©ãĥ³": 1124,
      "Ġlivre": 1125,
      "Ġvoiture": 1126,
      "Ġtrain": 1127,
      "ãĤĴèª": 1128,
      "Ġavait": 1129,
      "ante": 1130,
      "une": 1131,
      "ãģ³": 1132,
      "Ġfin": 1133,
      "Ã´t": 1134,
      "æł¡": 1135,
      "ãĥĭ": 1136,
      "Ġseu": 1137,
      "Ġbr": 1138,
      "ord": 1139,
      "éģķ": 1140,
      "Ġdern": 1141,
      "dent": 1142,
      "ĠR": 1143,
      "ãĤŃ": 1144,
      "Ġtous": 1145,
      "ãģ²": 1146,
      "ãģ¦ãģĦãģŁ": 1147,
      "Ġaller": 1148,
      "ert": 1149,
      "Ġdiff": 1150,
      "æĽ¸": 1151,
      "Ġimp": 1152,
      "Ġaut": 1153,
      "cole": 1154,
      "Ġton": 1155,
      "Ġpass": 1156,
      "Ġparler": 1157,
      "çļĦ": 1158,
      "ãģ®äºº": 1159,
      "Ġac": 1160,
      "Ġtrop": 1161,
      "åº¦": 1162,
      "ä¿¡": 1163,
      "å½ĵ": 1164,
      "éĽ»è©±": 1165,
      "ĠdÃ©jÃł": 1166,
      "é«": 1167,
      "ence": 1168,
      "ieux": 1169,
      "ķ·": 1170,
      "ãģªãĤī": 1171,
      "use": 1172,
      "ä¾Ľ": 1173,
      "æĦı": 1174,
      "é¡Į": 1175,
      "ãĤĮãģ¦": 1176,
      "ãģĪãģ¦": 1177,
      "eurs": 1178,
      "nÃ©e": 1179,
      "argent": 1180,
      "chet": 1181,
      "ãģĪãģŁ": 1182,
      "Ġtravail": 1183,
      "ul": 1184,
      "°ı": 1185,
      "ãĥĵ": 1186,
      "Ġfer": 1187,
      "ĠÃĢ": 1188,
      "ãģ¨ãģĦãģĨ": 1189,
      "iÃ¨": 1190,
      "Ġç§ģãģŁãģ¡": 1191,
      "Ġparle": 1192,
      "ãĤĴåı": 1193,
      "Ġon": 1194,
      "ãģ®ãģĭ": 1195,
      "Ġcont": 1196,
      "ãģªãĤīãģªãģĦ": 1197,
      "oire": 1198,
      "ãĤĴæĮģ": 1199,
      "éĥ¨": 1200,
      "å£": 1201,
      "æľĪ": 1202,
      "ãģ©ãģĵ": 1203,
      "ĠrÃ©p": 1204,
      "ãģĮç": 1205,
      "aux": 1206,
      "Ġreg": 1207,
      "ä¸ĭãģķãģĦ": 1208,
      "ãģĻãģĲ": 1209,
      "aient": 1210,
      "ãģ«ãģ¤": 1211,
      "Ã©tait": 1212,
      "Ġconn": 1213,
      "ï¼ĵ": 1214,
      "Ġrien": 1215,
      "asse": 1216,
      "Ġcomm": 1217,
      "core": 1218,
      "ĠIls": 1219,
      "ils": 1220,
      "å¼·": 1221,
      "Ġple": 1222,
      "ãĤĭãģ¨": 1223,
      "ĠEn": 1224,
      "éģħ": 1225,
      "Ġavoir": 1226,
      "je": 1227,
      "æĮģ": 1228,
      "Ġsais": 1229,
      "iez": 1230,
      "Ġheure": 1231,
      "Ġlong": 1232,
      "Ġmes": 1233,
      "ĠmÃ©": 1234,
      "ãĤĤãģĹ": 1235,
      "å¾Į": 1236,
      "ãģıãĤī": 1237,
      "ãĤĴè¨": 1238,
      "iens": 1239,
      "æĻĤéĸĵ": 1240,
      "rit": 1241,
      "Ŀ¥": 1242,
      "Ġcl": 1243,
      "éĽ¨": 1244,
      "Ġes": 1245,
      "ĠaprÃ¨s": 1246,
      "Ġvou": 1247,
      "Ġencore": 1248,
      "ãģĦãģ¤ãĤĤ": 1249,
      "if": 1250,
      "ãģ®ä¸Ń": 1251,
      "ãĤĴãģĹãģŁ": 1252,
      "Ġvais": 1253,
      "nÃ©": 1254,
      "ľŁ": 1255,
      "ãĥĳ": 1256,
      "Ġsans": 1257,
      "endant": 1258,
      "hui": 1259,
      "ī¯": 1260,
      "ĠTout": 1261,
      "é¡": 1262,
      "ł´": 1263,
      "Ġrest": 1264,
      "ãĤģãģŁ": 1265,
      "ãģ¸è¡Į": 1266,
      "Ġcour": 1267,
      "Ġtoi": 1268,
      "ĠSon": 1269,
      "Ġquelque": 1270,
      "Ġpense": 1271,
      "Ġjeu": 1272,
      "ãģ«åħ¥": 1273,
      "çĶ»": 1274,
      "åĪĩ": 1275,
      "Ġprof": 1276,
      "Ġdemand": 1277,
      "jourd": 1278,
      "ãģ¯ä½ķ": 1279,
      "Ġåĥķ": 1280,
      "ents": 1281,
      "ķĻ": 1282,
      "Ã©c": 1283,
      "enu": 1284,
      "ãģıãģª": 1285,
      "æľĿ": 1286,
      "èĢĥ": 1287,
      "Ġdemain": 1288,
      "ãģ¶": 1289,
      "ĠUne": 1290,
      "ãĥ©ãĥ³ãĤ¹": 1291,
      "Ġå½¼ãģ¯ç§ģ": 1292,
      "ass": 1293,
      "ãĤ£": 1294,
      "ãģĭãģĳ": 1295,
      "ãģĿãģ®å": 1296,
      "ä»¥": 1297,
      "ãģ®æĸ": 1298,
      "ĠãģĵãĤĮ": 1299,
      "rang": 1300,
      "tr": 1301,
      "ise": 1302,
      "Åĵur": 1303,
      "§ĭ": 1304,
      "ãģ®ãģĵãģ¨": 1305,
      "ĠmÃ¨re": 1306,
      "ommes": 1307,
      "ãĥģ": 1308,
      "Ġam": 1309,
      "Ġcons": 1310,
      "ends": 1311,
      "ex": 1312,
      "©ļ": 1313,
      "esse": 1314,
      "ĠoÃ¹": 1315,
      "åĬĽ": 1316,
      "±º": 1317,
      "ãĥ¥": 1318,
      "éģĭ": 1319,
      "lles": 1320,
      "è»¢": 1321,
      "ãĥ£": 1322,
      "ãĥ§": 1323,
      "ãģŁãģı": 1324,
      "ãģªãĤĵ": 1325,
      "ãģ¨ãģĵãĤį": 1326,
      "ãĤĴçŁ¥": 1327,
      "ay": 1328,
      "ãģıãĤĮ": 1329,
      "ä¸į": 1330,
      "Ġenv": 1331,
      "æĽ": 1332,
      "è¡": 1333,
      "ĺãģĦ": 1334,
      "ĠEst": 1335,
      "è¨Ī": 1336,
      "éķ·": 1337,
      "Ġpos": 1338,
      "ä¸ĸ": 1339,
      "åĭķ": 1340,
      "ãĤĴãģĻãĤĭ": 1341,
      "ĠCom": 1342,
      "sez": 1343,
      "ï¼ĳï¼Ĳ": 1344,
      "ç´Ļ": 1345,
      "īå¼·": 1346,
      "Ġsouv": 1347,
      "ãģ«ãĤĤ": 1348,
      "ãģ¨ãģį": 1349,
      "çĶ¨": 1350,
      "éģĵ": 1351,
      "Ġfa": 1352,
      "Ġbl": 1353,
      "les": 1354,
      "ph": 1355,
      "um": 1356,
      "åĨ": 1357,
      "Ġta": 1358,
      "oc": 1359,
      "ãģ®ãģ§ãģĻ": 1360,
      "ãĥªãĥ¼": 1361,
      "ãĥŃ": 1362,
      "æĹ©": 1363,
      "du": 1364,
      "éħ": 1365,
      "Ã©cole": 1366,
      "Ġvis": 1367,
      "Ġpay": 1368,
      "ĠCette": 1369,
      "ä½ľ": 1370,
      "éĢ±": 1371,
      "ä¹Ĺ": 1372,
      "ãģĵãģĵ": 1373,
      "ãģĵãģ¨ãģ¯": 1374,
      "ĠSa": 1375,
      "ok": 1376,
      "Ġeu": 1377,
      "Ġsort": 1378,
      "çĶ·": 1379,
      "ĠæĹ¥æľ¬": 1380,
      "Ĭ¬": 1381,
      "Ġdonn": 1382,
      "ãģ«ä¼ļ": 1383,
      "è¨Ģãģ£ãģŁ": 1384,
      "¢¨": 1385,
      "ç¤": 1386,
      "Ġvu": 1387,
      "aiss": 1388,
      "æīĢ": 1389,
      "Ġfran": 1390,
      "©º": 1391,
      "ĠlÃł": 1392,
      "Ġfais": 1393,
      "ãģıãĤĮãģŁ": 1394,
      "ãĤĪãģĦ": 1395,
      "ãģ£ãģ¦ãĤĤ": 1396,
      "åħ¥": 1397,
      "ä½ıãĤĵãģ§": 1398,
      "éļ": 1399,
      "ħè¦ģ": 1400,
      "ãģ®ãģ¯": 1401,
      "ãģªãģĦãģ§": 1402,
      "Ġå½¼å¥³ãģ¯å": 1403,
      "æĺİ": 1404,
      "åĳ³": 1405,
      "èĥ": 1406,
      "ãģ«ãģ¯å": 1407,
      "app": 1408,
      "ĠSi": 1409,
      "ction": 1410,
      "Ġpetit": 1411,
      "åĵ": 1412,
      "ĠK": 1413,
      "ħ¨": 1414,
      "ĠmÃªme": 1415,
      "éĻį": 1416,
      "Ġmatin": 1417,
      "åķı": 1418,
      "ĠH": 1419,
      "enant": 1420,
      "ãģ®ãģĬ": 1421,
      "ãĥ¼ãĥĪ": 1422,
      "ãģ§ãģįãĤĭ": 1423,
      "dre": 1424,
      "æ´": 1425,
      "ä½¿": 1426,
      "é£²": 1427,
      "Ġavant": 1428,
      "çķª": 1429,
      "uv": 1430,
      "ãĤª": 1431,
      "Ġcou": 1432,
      "ist": 1433,
      "Ġgar": 1434,
      "Ġhomme": 1435,
      "avoir": 1436,
      "ĠãĤ¸": 1437,
      "ä¼Ŀ": 1438,
      "ob": 1439,
      "¨æĹ¥": 1440,
      "quoi": 1441,
      "ï¼ķ": 1442,
      "Ġrenc": 1443,
      "itu": 1444,
      "ãģ«ãģªãĤĭ": 1445,
      "Ã§ais": 1446,
      "çĦ¶": 1447,
      "Ġpersonne": 1448,
      "åĮ": 1449,
      "ente": 1450,
      "ãģĹãģ¦ãģĦãģŁ": 1451,
      "puis": 1452,
      "rait": 1453,
      "Ġachet": 1454,
      "avais": 1455,
      "ĠVous": 1456,
      "Ġph": 1457,
      "Ġpu": 1458,
      "ãģĤãģ£ãģŁ": 1459,
      "ãģ«ãģªãģ£ãģŁ": 1460,
      "æ¥½": 1461,
      "ļãģı": 1462,
      "ãĤµ": 1463,
      "Ġpre": 1464,
      "Ġpens": 1465,
      "ä½ĵ": 1466,
      "å¿ĥ": 1467,
      "dÃ©": 1468,
      "ħĪ": 1469,
      "Ĺħ": 1470,
      "ãģ¾ãģł": 1471,
      "ãģ¾ãĤĬ": 1472,
      "Ġtrois": 1473,
      "nis": 1474,
      "°Ĺ": 1475,
      "æ¸": 1476,
      "Ġab": 1477,
      "Ġmieux": 1478,
      "Ġjapon": 1479,
      "ãģ®åŃĲ": 1480,
      "æľ¬å½ĵ": 1481,
      "ĠComment": 1482,
      "Ġjaponais": 1483,
      "©Ł": 1484,
      "¾İ": 1485,
      "ãģĮå": 1486,
      "åĲĮ": 1487,
      "ĠfranÃ§ais": 1488,
      "li": 1489,
      "ãģĸ": 1490,
      "rer": 1491,
      "Ġaujourd": 1492,
      "ãģĤãĤĬãģ¾ãģĻãģĭ": 1493,
      "§£": 1494,
      "ĩa": 1495,
      "ãģİ": 1496,
      "temps": 1497,
      "äºĮ": 1498,
      "ãģĳãģªãģĦ": 1499,
      "ãģĤãĤĬãģ¾ãģĻ": 1500,
      "ãģ«ãģ¤ãģĦãģ¦": 1501,
      "iÃ©": 1502,
      "æħ": 1503,
      "ãģ®ãģ§ãģĻãģĭ": 1504,
      "Ġmus": 1505,
      "Ġhier": 1506,
      "ĠMar": 1507,
      "ãĥ¼ãĥ«": 1508,
      "å®Ł": 1509,
      "çĽ®": 1510,
      "¶³": 1511,
      "º«": 1512,
      "è²": 1513,
      "èģŀ": 1514,
      "Ġfem": 1515,
      "ĠÃĩa": 1516,
      "äº¬": 1517,
      "Ġcompr": 1518,
      "åĲĽ": 1519,
      "åĢ": 1520,
      "çĪ¶": 1521,
      "Ġpendant": 1522,
      "ãģĹãģı": 1523,
      "Ã©tais": 1524,
      "å¤ĸ": 1525,
      "ãģĤãĤĬãģ¾ãģĽãĤĵ": 1526,
      "Ġä»ĬæĹ¥": 1527,
      "æĥ": 1528,
      "è³": 1529,
      "Ġvoy": 1530,
      "ãģŁãģıãģķãĤĵ": 1531,
      "ãĤ±": 1532,
      "Ġpouv": 1533,
      "Ġsou": 1534,
      "Ġå½¼ãģĮ": 1535,
      "ãģ¤ãĤĤ": 1536,
      "Ġãģĵãģ®å": 1537,
      "00": 1538,
      "glais": 1539,
      "Ġdois": 1540,
      "ãĥ»": 1541,
      "leur": 1542,
      "endu": 1543,
      "Ġrev": 1544,
      "anglais": 1545,
      "ãģ»ãģ©": 1546,
      "ãĥĹ": 1547,
      "Ġco": 1548,
      "Ġcoup": 1549,
      "Ã¨me": 1550,
      "Ãªt": 1551,
      "ĠallÃ©": 1552,
      "Ġappr": 1553,
      "Ġregard": 1554,
      "tenant": 1555,
      "ĥį": 1556,
      "Ĳį": 1557,
      "ç§ģãģ¯": 1558,
      "ãģĳãģ¦": 1559,
      "ãĤĴè²·": 1560,
      "ĠAs": 1561,
      "ãģ£ãģ¦ãģĦãģ¾ãģĻ": 1562,
      "ãģ§ãģįãģªãģĦ": 1563,
      "æķħ": 1564,
      "ãģªãģĳãĤĮãģ°ãģªãĤīãģªãģĦ": 1565,
      "der": 1566,
      "lÃ¨": 1567,
      "Ġporte": 1568,
      "Ġman": 1569,
      "Ġviv": 1570,
      "Ġå½¼ãģ®": 1571,
      "Ġri": 1572,
      "ãĥªãĤ«": 1573,
      "ãģ¾ãģĹãģŁãģĭ": 1574,
      "ãģ¨æĢĿãģĨ": 1575,
      "ĢĿ": 1576,
      "Ã©ri": 1577,
      "ãģ«ä½ıãĤĵãģ§": 1578,
      "tement": 1579,
      "int": 1580,
      "Ġpris": 1581,
      "éĩį": 1582,
      "ãģĹãģ¾ãģ£ãģŁ": 1583,
      "èŃ": 1584,
      "ıĭ": 1585,
      "Ġmot": 1586,
      "lement": 1587,
      "Ġcha": 1588,
      "ĠãģĿãģ®å": 1589,
      "Ġavons": 1590,
      "Ġprobl": 1591,
      "çĻº": 1592,
      "Īĳ": 1593,
      "ãģ®ãģŁãĤģ": 1594,
      "ãĤĴãģ¤": 1595,
      "èª¬": 1596,
      "all": 1597,
      "ĠrÃ©s": 1598,
      "æŃ©": 1599,
      "æĽľ": 1600,
      "aimer": 1601,
      "ãģĻãģ¹": 1602,
      "Ġfor": 1603,
      "Ġprop": 1604,
      "Ġanglais": 1605,
      "ãģ¯å½¼å¥³": 1606,
      "è¾": 1607,
      "ãģĵãģ®": 1608,
      "Ġnom": 1609,
      "°ĳãģĹ": 1610,
      "ĠÃ©tudi": 1611,
      "ãģıãĤīãģĦ": 1612,
      "Ġprofess": 1613,
      "oute": 1614,
      "ĠAvez": 1615,
      "æĢ§": 1616,
      "ãģ¤ãĤĤãĤĬ": 1617,
      "èĭ±èªŀ": 1618,
      "Ġfille": 1619,
      "ats": 1620,
      "agne": 1621,
      "ãĥĥãĤ¯": 1622,
      "ãĤ¿ãĥ¼": 1623,
      "ĠQuel": 1624,
      "phon": 1625,
      "Ġcar": 1626,
      "Ġjours": 1627,
      "ãģķãĤĮãģŁ": 1628,
      "ĠprÃ©s": 1629,
      "Ġprendre": 1630,
      "Ġchien": 1631,
      "è¨ĢãģĨ": 1632,
      "åĲį": 1633,
      "Ġenfants": 1634,
      "°ãģĹãģĦ": 1635,
      "åł´": 1636,
      "air": 1637,
      "ention": 1638,
      "Ġquoi": 1639,
      "ãģ«åĩº": 1640,
      "ä»£": 1641,
      "cident": 1642,
      "éĸĭ": 1643,
      "ress": 1644,
      "ãĤ¢ãĥ¡": 1645,
      "å¾ħ": 1646,
      "Ã§on": 1647,
      "auv": 1648,
      "ãģ«åĲ": 1649,
      "ager": 1650,
      "ãĤģãģ¦": 1651,
      "ãĤ¤ãĥ³": 1652,
      "æ¥Ń": 1653,
      "ãĤĴèªŃ": 1654,
      "ãĤ¢ãĥ¡ãĥªãĤ«": 1655,
      "éŁ³": 1656,
      "ī²": 1657,
      "esoin": 1658,
      "Ġcet": 1659,
      "ãģ§ãģĹãĤĩãģĨ": 1660,
      "Ġnuit": 1661,
      "Ġbesoin": 1662,
      "ĠçĪ¶": 1663,
      "Ġvraiment": 1664,
      "å©ļ": 1665,
      "ãĤ°": 1666,
      "ãĥŀ": 1667,
      "ãģ®å®¶": 1668,
      "chÃ©": 1669,
      "ãģĽãģ¦": 1670,
      "ãģ¯æĺ": 1671,
      "ĠPar": 1672,
      "é£Ľ": 1673,
      "ãĥ©ãĥ³ãĤ¹èªŀ": 1674,
      "ç·": 1675,
      "é§": 1676,
      "Ġmont": 1677,
      "Ġgens": 1678,
      "æŃ»": 1679,
      "ĠDe": 1680,
      "ãģĺãĤĥ": 1681,
      "ĠCh": 1682,
      "Ġtrouv": 1683,
      "cup": 1684,
      "¥ãģĦ": 1685,
      "°´": 1686,
      "Ĥ²": 1687,
      "Ġleur": 1688,
      "Ġsoir": 1689,
      "Ġcin": 1690,
      "Ġtomb": 1691,
      "ãģĭãģª": 1692,
      "Ġquest": 1693,
      "Ġcela": 1694,
      "ãģĹãģ¦ãĤĤ": 1695,
      "ĠãģĤãģªãģŁãģ¯": 1696,
      "ouvez": 1697,
      "illes": 1698,
      "é¨": 1699,
      "ãģ®å¤": 1700,
      "Ġãģĵãģĵ": 1701,
      "æĪĲ": 1702,
      "Ġmaintenant": 1703,
      "æļ": 1704,
      "æ©Ł": 1705,
      "ĠãĤĤãģĨ": 1706,
      "Ġces": 1707,
      "Ġmin": 1708,
      "Ġdepuis": 1709,
      "æĹħ": 1710,
      "Ġhab": 1711,
      "ãĤ¢ãĥªãĥ¼": 1712,
      "onnes": 1713,
      "ombre": 1714,
      "ãģĻãģİ": 1715,
      "aimerais": 1716,
      "ģ¯": 1717,
      "ide": 1718,
      "èĪ": 1719,
      "ĠsÅĵur": 1720,
      "å¤ī": 1721,
      "ãģ®çµ": 1722,
      "æķĻ": 1723,
      "æ®": 1724,
      "çĿĢ": 1725,
      "é¤": 1726,
      "ĠG": 1727,
      "Ġess": 1728,
      "Ľ®": 1729,
      "ãģĹãģĭ": 1730,
      "ãģ¨ãģĨ": 1731,
      "Ġtoute": 1732,
      "æĸĻ": 1733,
      "ign": 1734,
      "å¿ħè¦ģ": 1735,
      "Ġsouvent": 1736,
      "ãģ¯å¤": 1737,
      "ãĤĴè©": 1738,
      "ãģ«æĿ¥": 1739,
      "ĠtÃ©lÃ©phon": 1740,
      "ãģ¡ãĤĥ": 1741,
      "Ġcond": 1742,
      "æĽľæĹ¥": 1743,
      "è«": 1744,
      "ãĥĬ": 1745,
      "Ã©n": 1746,
      "Ġmoin": 1747,
      "Ġfaut": 1748,
      "ãģĿãĤĵãģª": 1749,
      "éģİ": 1750,
      "äºĭæķħ": 1751,
      "ĠæĺİæĹ¥": 1752,
      "Ġjusqu": 1753,
      "Ġäºº": 1754,
      "Ġä¸Ģ": 1755,
      "ģ¥": 1756,
      "ãģŀ": 1757,
      "Ġdo": 1758,
      "Ġmort": 1759,
      "ãģĮãģªãģĦ": 1760,
      "Ġbonne": 1761,
      "æŃ³": 1762,
      "Ġfemme": 1763,
      "Ġèª°": 1764,
      "ãģĲ": 1765,
      "ãģ§ãģĹãģŁ": 1766,
      "Ġchez": 1767,
      "ãĥĥãĥĪ": 1768,
      "æĹ©ãģı": 1769,
      "ole": 1770,
      "ãĤ®": 1771,
      "ãĥĸ": 1772,
      "ãĤĴãģĹ": 1773,
      "Ġnotre": 1774,
      "omp": 1775,
      "èªŃ": 1776,
      "Ġsemaine": 1777,
      "ĠderniÃ¨re": 1778,
      "èĢĥãģĪ": 1779,
      "iques": 1780,
      "µ¤": 1781,
      "ãģ¯ãģ¨ãģ¦ãĤĤ": 1782,
      "Ġami": 1783,
      "ãĤĴãĤĦ": 1784,
      "iste": 1785,
      "uss": 1786,
      "ãģ£ãģ¦ãĤĭ": 1787,
      "ãģĬéĩĳ": 1788,
      "éĸĵéģķ": 1789,
      "ombien": 1790,
      "ãģĹãģ¦ãģĦãģ¾ãģĻ": 1791,
      "æŀ": 1792,
      "æ¯į": 1793,
      "çŃ": 1794,
      "ĥ¨": 1795,
      "ãģ®ãģ«": 1796,
      "ãģ©ãģ®": 1797,
      "ĠdÃ©p": 1798,
      "Ġãģ©ãģĨ": 1799,
      "Ġvol": 1800,
      "ĠÃī": 1801,
      "iss": 1802,
      "ãģĿãģĵ": 1803,
      "Ġche": 1804,
      "ãĤ¹ãĥĪ": 1805,
      "å¤ľ": 1806,
      "Ġpays": 1807,
      "èº«": 1808,
      "é¢¨": 1809,
      "ĭīå¼·": 1810,
      "Ġpoin": 1811,
      "esp": 1812,
      "oid": 1813,
      "éĸ¢": 1814,
      "Ġproch": 1815,
      "ãģ¾ãģĽãĤĵãģĭ": 1816,
      "Ġtravaill": 1817,
      "è¿ĳ": 1818,
      "id": 1819,
      "ttre": 1820,
      "Ħ¡": 1821,
      "Ĳå©ļ": 1822,
      "ãĤ§": 1823,
      "ãĤ¨": 1824,
      "ãĥĶ": 1825,
      "Ġlettre": 1826,
      "Ġcham": 1827,
      "ãģ®æĻĤ": 1828,
      "åħ¨": 1829,
      "ĠfrÃ¨re": 1830,
      "Ġexp": 1831,
      "ãģĮå¥½ãģįãģł": 1832,
      "ä¿¡ãģĺ": 1833,
      "Ġprofesseur": 1834,
      "ç¬": 1835,
      "Ġlu": 1836,
      "ĠCombien": 1837,
      "ĠAu": 1838,
      "ä¼ĳ": 1839,
      "Ġoc": 1840,
      "Ġjouer": 1841,
      "Ġmanger": 1842,
      "ãĤ¦": 1843,
      "Ġad": 1844,
      "ãģłãĤĪ": 1845,
      "ãĤĬãģ¾ãģĻ": 1846,
      "ãģįãģ¾ãģĻ": 1847,
      "ãģĳãĤĭ": 1848,
      "ature": 1849,
      "åı£": 1850,
      "miÃ¨re": 1851,
      "Ġaime": 1852,
      "çķĮ": 1853,
      "Ń¦æł¡": 1854,
      "Ġnouvelle": 1855,
      "ĠprÃ©f": 1856,
      "ŃĲä¾Ľ": 1857,
      "jet": 1858,
      "og": 1859,
      "ç«ĭ": 1860,
      "ãģ«ä¹Ĺ": 1861,
      "orm": 1862,
      "ĠdÃ©s": 1863,
      "è©¦": 1864,
      "ĥ¨å±ĭ": 1865,
      "æĻ": 1866,
      "ĠY": 1867,
      "Ġport": 1868,
      "Ġsoit": 1869,
      "éĽ£": 1870,
      "ãĥ¬ãĥĵ": 1871,
      "ĠproblÃ¨me": 1872,
      "nes": 1873,
      "æ¬": 1874,
      "ãģ«å¯": 1875,
      "ĠPuis": 1876,
      "Ġdix": 1877,
      "åľ°": 1878,
      "ĪĳãĢħ": 1879,
      "ãĤĴè©±": 1880,
      "yo": 1881,
      "¢º": 1882,
      "±ãģĦ": 1883,
      "ĠpiÃ¨": 1884,
      "Ġfut": 1885,
      "ãģłãģ¨": 1886,
      "att": 1887,
      "ĠTok": 1888,
      "ãģ¡ãĤī": 1889,
      "ĠdÃ©c": 1890,
      "Ġjeune": 1891,
      "ade": 1892,
      "èµ·": 1893,
      "Ã©es": 1894,
      "aires": 1895,
      "Ġmom": 1896,
      "Ġten": 1897,
      "ãģ¾ãģŁ": 1898,
      "arr": 1899,
      "Ġgare": 1900,
      "ãĤĴè¦ĭãģŁ": 1901,
      "ç´Ħ": 1902,
      "éĿ¢": 1903,
      "Ġretard": 1904,
      "Ġchambre": 1905,
      "hÃ©": 1906,
      "uie": 1907,
      "«Į": 1908,
      "±äº¬": 1909,
      "Ġcor": 1910,
      "Ġter": 1911,
      "ä¸¡": 1912,
      "Ġç§ģãģ®": 1913,
      "oses": 1914,
      "å½¼ãģ¯": 1915,
      "Ġemp": 1916,
      "ãģĴãģŁ": 1917,
      "ĠTokyo": 1918,
      "Ġmoment": 1919,
      "¿ĥ": 1920,
      "ãģĦãģ¦ãģĦãĤĭ": 1921,
      "ãĥĦ": 1922,
      "ãĥŁ": 1923,
      "Ġsens": 1924,
      "ãģıãģªãģĦ": 1925,
      "Ġnombre": 1926,
      "Ġrap": 1927,
      "ĤªãģĦ": 1928,
      "¥½": 1929,
      "µ°": 1930,
      "åĥį": 1931,
      "Ĭ±": 1932,
      "ãĤº": 1933,
      "ĠdÃ©t": 1934,
      "Ġrent": 1935,
      "ãģĮå¥½ãģįãģ§ãģĻ": 1936,
      "auvais": 1937,
      "Ġmoins": 1938,
      "Ĳ½": 1939,
      "Ġpeur": 1940,
      "Ġpol": 1941,
      "Ġmauvais": 1942,
      "ãģ¨ãģĹãģ¦": 1943,
      "Ġut": 1944,
      "æľī": 1945,
      "ãĤĪãģĨãģª": 1946,
      "æĮģãģ¡": 1947,
      "ĠachetÃ©": 1948,
      "é¨ĵ": 1949,
      "heure": 1950,
      "mier": 1951,
      "mble": 1952,
      "vent": 1953,
      "ĠãĤı": 1954,
      "ãĥĪãĥł": 1955,
      "ãģĹãģªãģĦ": 1956,
      "ãĤĵãģ©": 1957,
      "äºĪ": 1958,
      "Ġlivres": 1959,
      "ãģªãĤĵãģ¦": 1960,
      "»èĢħ": 1961,
      "èī¯": 1962,
      "éŃ": 1963,
      "ĴãģĦ": 1964,
      "Ã©g": 1965,
      "Ġsait": 1966,
      "ãģĮãģĦ": 1967,
      "ãģ¨ãģ¯": 1968,
      "ãģįãģª": 1969,
      "ãģĳãģ©": 1970,
      "Ġchau": 1971,
      "Ġconf": 1972,
      "Ġentre": 1973,
      "ĠarrivÃ©": 1974,
      "cle": 1975,
      "pp": 1976,
      "uÃ©": 1977,
      "åĤ": 1978,
      "Ġst": 1979,
      "ãģ«ãģĬ": 1980,
      "Ġville": 1981,
      "Ġfai": 1982,
      "ĠComme": 1983,
      "ãģ«åı": 1984,
      "ä»ĺ": 1985,
      "ä¸Ģäºº": 1986,
      "çĦ¡": 1987,
      "Ġpersonnes": 1988,
      "ãģĻãģ¹ãģ¦": 1989,
      "ix": 1990,
      "rent": 1991,
      "å·": 1992,
      "è¶³": 1993,
      "ı¾": 1994,
      "Ġvit": 1995,
      "ãĤīãĤĮãģŁ": 1996,
      "ãģ¦ãģĦãģ¾ãģĻ": 1997,
      "ãĤĴèģŀ": 1998,
      "ãģ«å½¼": 1999,
      "ãĤĴæĽ¸": 2000,
      "Īãĥ©": 2001,
      "ãģ»ãģ¨": 2002,
      "ãĥ§ãĥ³": 2003,
      "èĥ½": 2004,
      "Ĺħæ°Ĺ": 2005,
      "Ġsent": 2006,
      "Ġsommes": 2007,
      "ãģĮãģĦãģĦ": 2008,
      "ãģ¨ãĤĤ": 2009,
      "ing": 2010,
      "arde": 2011,
      "ä»ĸ": 2012,
      "éģ¸": 2013,
      "cul": 2014,
      "Ġmari": 2015,
      "Ġperdu": 2016,
      "īĭç´Ļ": 2017,
      "Ġseul": 2018,
      "Ġpoint": 2019,
      "ªåķı": 2020,
      "¶Ī": 2021,
      "ãģ¯ãģªãģĦ": 2022,
      "Ġdou": 2023,
      "Ġpe": 2024,
      "ãĥĢ": 2025,
      "ãģŁãģĹ": 2026,
      "ãĤĴãģĬ": 2027,
      "ãģĵãĤĮ": 2028,
      "æŃ£": 2029,
      "ige": 2030,
      "ĠrÃ©pond": 2031,
      "Ġlongtemps": 2032,
      "ä¸ĸçķĮ": 2033,
      "çĤ": 2034,
      "ãģ¼": 2035,
      "Ġlang": 2036,
      "Ġvite": 2037,
      "Ġfils": 2038,
      "ãģıãĤĮãĤĭ": 2039,
      "ï¼Ķ": 2040,
      "Ġba": 2041,
      "ãĤĴå¼": 2042,
      "ãĤģãĤĭ": 2043,
      "ãģ¹ãģį": 2044,
      "Ġappe": 2045,
      "Ġjuste": 2046,
      "ĠPourquoi": 2047,
      "Ġdernier": 2048,
      "Ġrencont": 2049,
      "pt": 2050,
      "vÃ©": 2051,
      "ver": 2052,
      "æĬ": 2053,
      "ĹĽ": 2054,
      "Ġaff": 2055,
      "ãģ¨åĲĮ": 2056,
      "Ġvi": 2057,
      "Ġfu": 2058,
      "ï¼ĸ": 2059,
      "Ġbus": 2060,
      "æľ¨": 2061,
      "ments": 2062,
      "ãĥ³ãĥī": 2063,
      "Ġå½¼å¥³ãģ¯æ": 2064,
      "ãģĭãĤīãģªãģĦ": 2065,
      "Ġmontre": 2066,
      "Ġavez": 2067,
      "mÃ©ri": 2068,
      "ķıé¡Į": 2069,
      "alement": 2070,
      "ä»¥ä¸Ĭ": 2071,
      "ç¤¾": 2072,
      "istoire": 2073,
      "æĹħè¡Į": 2074,
      "ĠtÃ©lÃ©phone": 2075,
      "Ġchev": 2076,
      "Ġoccup": 2077,
      "Ġmag": 2078,
      "ilis": 2079,
      "ivers": 2080,
      "å®ļ": 2081,
      "Ġim": 2082,
      "ãĥĭãĤ¹": 2083,
      "Ġessay": 2084,
      "ãģ»ãģ¨ãĤĵãģ©": 2085,
      "emp": 2086,
      "hab": 2087,
      "imp": 2088,
      "lo": 2089,
      "èħ": 2090,
      "è§£": 2091,
      "ľ°": 2092,
      "łçĶ»": 2093,
      "ãģĦãģ¾ãģĹãģŁ": 2094,
      "ãģĮéĻį": 2095,
      "Ġfat": 2096,
      "Ã¨res": 2097,
      "Ġç§ģãģ®å": 2098,
      "autre": 2099,
      "iend": 2100,
      "ï¼ŁãĢįãĢĮ": 2101,
      "ä¸Ģçķª": 2102,
      "åıĸ": 2103,
      "ãĤĪãĤĬãĤĤ": 2104,
      "åľ¨": 2105,
      "ãĥķãĥ©ãĥ³ãĤ¹èªŀ": 2106,
      "é«ĺ": 2107,
      "Ġfatig": 2108,
      "Ħı": 2109,
      "ãģµ": 2110,
      "ãĤĴé£Łãģ¹": 2111,
      "ãĤīãģĽ": 2112,
      "Ã©tÃ©": 2113,
      "ãĤĦãģ£ãģ¦": 2114,
      "Ġgrande": 2115,
      "åĽŀ": 2116,
      "ãĤĴåıĸ": 2117,
      "ħĪçĶŁ": 2118,
      "ak": 2119,
      "anche": 2120,
      "ãģ£ãģ": 2121,
      "ãģĮç§ģ": 2122,
      "ãģĵãģĨ": 2123,
      "teau": 2124,
      "Ġnon": 2125,
      "oto": 2126,
      "ãĥ¥ãĥ¼": 2127,
      "éģĭè»¢": 2128,
      "Ġfaci": 2129,
      "Ĳįåīį": 2130,
      "ģ¯åŃĲ": 2131,
      "Ġdr": 2132,
      "ãĥľ": 2133,
      "ãģ®ä¸Ĭ": 2134,
      "Ġbure": 2135,
      "ins": 2136,
      "ition": 2137,
      "Ġchoses": 2138,
      "éĩİ": 2139,
      "æĿ¥ãĤĭ": 2140,
      "ĠÃ©tud": 2141,
      "ãĤĴè¨Ģ": 2142,
      "æ´»": 2143,
      "¥ŀ": 2144,
      "æİ": 2145,
      "Ľ½": 2146,
      "ãģ«ãĤĪ": 2147,
      "ãĤīãĤĮãĤĭ": 2148,
      "Ġå½¼ãģ¯ç": 2149,
      "Ġprom": 2150,
      "è¨ĺ": 2151,
      "Ġassez": 2152,
      "Ġnouveau": 2153,
      "Ġdiffici": 2154,
      "ĠpiÃ¨ce": 2155,
      "èĭ": 2156,
      "Į«": 2157,
      "ĳī": 2158,
      "ĸ²": 2159,
      "ãģľ": 2160,
      "Ġmer": 2161,
      "Ġmois": 2162,
      "ï¼Ļ": 2163,
      "Ġrais": 2164,
      "ãģĿãģ®æ": 2165,
      "Ġgent": 2166,
      "ãĤĴæķĻ": 2167,
      "éģł": 2168,
      "ãģĻãĤĭãģ®": 2169,
      "ĠãĥĪãĥłãģ¯": 2170,
      "çĽ´": 2171,
      "Ġtennis": 2172,
      "Ġbureau": 2173,
      "tte": 2174,
      "ĪĲ": 2175,
      "llement": 2176,
      "Ġcher": 2177,
      "ãģ«å¤": 2178,
      "ãĤĴå¾": 2179,
      "ãģĹãģ¦ãģıãģłãģķãģĦ": 2180,
      "æĸĩ": 2181,
      "ãģ«çĿĢ": 2182,
      "Ġtravaille": 2183,
      "Ġapp": 2184,
      "ãģ«è¡Įãģ£ãģŁ": 2185,
      "itude": 2186,
      "ĠMarie": 2187,
      "ace": 2188,
      "cus": 2189,
      "fÃ©": 2190,
      "å§ĭ": 2191,
      "æ±º": 2192,
      "ç¶": 2193,
      "ĭķ": 2194,
      "ãĥł": 2195,
      "Ġcours": 2196,
      "Ġcuis": 2197,
      "Ġå¤§": 2198,
      "quer": 2199,
      "Ġparents": 2200,
      "iel": 2201,
      "ience": 2202,
      "ĠÃ©trang": 2203,
      "Ġdur": 2204,
      "ĠãģĿãĤĵãģª": 2205,
      "ange": 2206,
      "Ġcontre": 2207,
      "Ġpartir": 2208,
      "ĠQuand": 2209,
      "ľł": 2210,
      "Ġlit": 2211,
      "Ġtard": 2212,
      "ĠvÃ©": 2213,
      "ãģ¾ãģ£ãģŁ": 2214,
      "Ġfam": 2215,
      "ãģĹãģŁãģĦ": 2216,
      "Ġgu": 2217,
      "oiss": 2218,
      "ãģ«è¡Įãģı": 2219,
      "Ġsemble": 2220,
      "ĠgarÃ§on": 2221,
      "Ġdifficile": 2222,
      "riez": 2223,
      "ĦĽ": 2224,
      "ãĤ¬": 2225,
      "Ġpi": 2226,
      "ĠÃ¢": 2227,
      "ãĤĬãģ«": 2228,
      "ãģķãģĽ": 2229,
      "aller": 2230,
      "ãĤĪãģĨãģ¨": 2231,
      "Ġanim": 2232,
      "utes": 2233,
      "ä¸Ĭæīĭ": 2234,
      "ĠOÃ¹": 2235,
      "Ġlire": 2236,
      "ances": 2237,
      "Ġconnais": 2238,
      "Ġmusique": 2239,
      "Ġquestion": 2240,
      "é¤¨": 2241,
      "½ãģĦ": 2242,
      "ãģ¯å¥": 2243,
      "Ġrep": 2244,
      "Ġå½¼å¥³ãģ¯ç§ģ": 2245,
      "è¨ĢãĤı": 2246,
      "ä»ĬæĹ¥": 2247,
      "ãģ«ãģªãĤĬ": 2248,
      "ĠÃ©crit": 2249,
      "ãģ®æĸ¹": 2250,
      "Ġvoyage": 2251,
      "lui": 2252,
      "¿ĺ": 2253,
      "ç¾İ": 2254,
      "ãģ¯ãģ©ãģĵ": 2255,
      "Ġdoit": 2256,
      "Ġal": 2257,
      "lez": 2258,
      "ãģ¯å¤§": 2259,
      "ãĤĴå¤": 2260,
      "ĠPouvez": 2261,
      "ãĤĵãģ§ãģĦãĤĭ": 2262,
      "ãģ®éĥ¨å±ĭ": 2263,
      "å¸¸": 2264,
      "Ġquelques": 2265,
      "çĲĥ": 2266,
      "Ġheureux": 2267,
      "¡ãĤ¢ãĥªãĥ¼": 2268,
      "¿Ĵ": 2269,
      "æ¯": 2270,
      "ãĤĨ": 2271,
      "ãģĦãģł": 2272,
      "ãĥĩ": 2273,
      "Ã©p": 2274,
      "Ġmet": 2275,
      "antÃ©": 2276,
      "ienne": 2277,
      "appr": 2278,
      "Ġmeille": 2279,
      "éĢ²": 2280,
      "ãģ¿ãĤĵãģª": 2281,
      "åĬŁ": 2282,
      "å¸°": 2283,
      "éł¼": 2284,
      "éĥ¨å±ĭ": 2285,
      "Ġminutes": 2286,
      "ball": 2287,
      "vis": 2288,
      "¸°": 2289,
      "æĶ": 2290,
      "è£": 2291,
      "é¦": 2292,
      "ï½": 2293,
      "ķ°": 2294,
      "ĠtÃ´t": 2295,
      "quÃ©": 2296,
      "ãģ¾ãģĹãĤĩãģĨ": 2297,
      "ãģĨãģ¡": 2298,
      "ãĤĤãģ£ãģ¨": 2299,
      "ãģįãģŁãģĦ": 2300,
      "Ġsuc": 2301,
      "olÃ©": 2302,
      "ãĥªãĤ¢": 2303,
      "ãģ£ãģ¦ãģĦãģ¾ãģĻãģĭ": 2304,
      "act": 2305,
      "åŃ¦æł¡": 2306,
      "Ġimport": 2307,
      "Ġautres": 2308,
      "åĵ¡": 2309,
      "Ġpremier": 2310,
      "toi": 2311,
      "ud": 2312,
      "å°": 2313,
      "å°ı": 2314,
      "æ²": 2315,
      "Ġloin": 2316,
      "ãģĭãģªãģĦ": 2317,
      "ãĤīãĤĮ": 2318,
      "Ġense": 2319,
      "ãģ®åį": 2320,
      "Ġautre": 2321,
      "ĠgÃ©n": 2322,
      "Ġsec": 2323,
      "çĶŁãģ¾": 2324,
      "ãģ¯ãģĦãģĳãģªãģĦ": 2325,
      "ĠpassÃ©": 2326,
      "ãĤĴåıĹ": 2327,
      "ãĤ£ãĥ¼": 2328,
      "é³": 2329,
      "Ĭ©": 2330,
      "Ġlors": 2331,
      "ĠsÃ»": 2332,
      "ãģ«ãģĦ": 2333,
      "rez": 2334,
      "Ġcap": 2335,
      "Ġtable": 2336,
      "ãģĮè¦ĭ": 2337,
      "ãģĭãģĭ": 2338,
      "ãĤīãģĹãģĦ": 2339,
      "Ġrou": 2340,
      "Ġprix": 2341,
      "äººãģ¯": 2342,
      "ãĤĴåĩº": 2343,
      "Ġãĥķ": 2344,
      "å¤ļ": 2345,
      "Ġcomment": 2346,
      "Ġinc": 2347,
      "Ġarr": 2348,
      "ãĤĤãģ®ãģł": 2349,
      "Ġcrois": 2350,
      "°ĳå¹´": 2351,
      "Ġå½¼ãĤīãģ¯": 2352,
      "Ġvoud": 2353,
      "ç·Ĵ": 2354,
      "ĠãĤ¢": 2355,
      "Ĵãĥ¼": 2356,
      "ãĤĴãģĹãģ¦": 2357,
      "erai": 2358,
      "ãģĮãģĤãĤĬãģ¾ãģĻ": 2359,
      "Ġfil": 2360,
      "Ġnour": 2361,
      "ãĤĬãģ¾ãģĽãĤĵ": 2362,
      "äºī": 2363,
      "Ġparce": 2364,
      "ãĤĴå®": 2365,
      "ãĥ¼ãĥł": 2366,
      "Ġfroid": 2367,
      "å±±": 2368,
      "Ġquelqu": 2369,
      "ĠcafÃ©": 2370,
      "é«ĺãģĦ": 2371,
      "Ġabs": 2372,
      "oh": 2373,
      "¿ĳ": 2374,
      "ç½": 2375,
      "ĠthÃ©": 2376,
      "Ġpasse": 2377,
      "ĠTous": 2378,
      "ãģ£ãģ¦ãģįãģŁ": 2379,
      "ãĤĴåĲ": 2380,
      "ĠæĪĳãĢħ": 2381,
      "ãĥ¼ãĥĨ": 2382,
      "çĶŁæ´»": 2383,
      "åħĪ": 2384,
      "Ġtoutes": 2385,
      "ãģļãģ£ãģ¨": 2386,
      "éĥ½": 2387,
      "ĠjournÃ©e": 2388,
      "Ġç§ģãģŁãģ¡ãģ¯": 2389,
      "Ġcommenc": 2390,
      "mÃªme": 2391,
      "ç¨": 2392,
      "çľŁ": 2393,
      "èĳī": 2394,
      "ħĦ": 2395,
      "Ġpo": 2396,
      "ãģ«ãģ¯æ": 2397,
      "ãģªãģ®": 2398,
      "ãģªãĤĭ": 2399,
      "Ġnager": 2400,
      "Ġnature": 2401,
      "çĶ±": 2402,
      "éĢŁ": 2403,
      "ãģĦãģŁãģĦ": 2404,
      "åıĭ": 2405,
      "sible": 2406,
      "Ġcause": 2407,
      "æ³³": 2408,
      "éħį": 2409,
      "åĵģ": 2410,
      "é£Ľè¡Į": 2411,
      "homme": 2412,
      "met": 2413,
      "§ĺ": 2414,
      "è²·": 2415,
      "Ġdir": 2416,
      "enez": 2417,
      "Ġsous": 2418,
      "ãĤĴãģĹãģ¦ãģĦãĤĭ": 2419,
      "Ġveu": 2420,
      "Ġvenu": 2421,
      "euse": 2422,
      "ãĤĴåĪ": 2423,
      "ãĤĴæİ": 2424,
      "å¤«": 2425,
      "æĿŁ": 2426,
      "acc": 2427,
      "Ġdemande": 2428,
      "ãģªãģıãģ¦": 2429,
      "æ³ķ": 2430,
      "ãģ«ä½ıãĤĵãģ§ãģĦãĤĭ": 2431,
      "èµ°": 2432,
      "ĦŁ": 2433,
      "Ń£": 2434,
      "ãĤ´": 2435,
      "ãģĮåĩº": 2436,
      "Ġvenir": 2437,
      "Ġbelle": 2438,
      "ä¸»": 2439,
      "ãģįãģ¾ãģĹãģŁ": 2440,
      "ãģķãĤĮãĤĭ": 2441,
      "ĠÃ©taient": 2442,
      "ains": 2443,
      "ãĥ¼ãĥĴãĥ¼": 2444,
      "ä½ķãģĭ": 2445,
      "è©±ãģĹ": 2446,
      "ãĤĩãģ£ãģ¨": 2447,
      "ĠdemandÃ©": 2448,
      "..": 2449,
      "tats": 2450,
      "¹¸": 2451,
      "åĸ": 2452,
      "onc": 2453,
      "ãģ«ãģĦãĤĭ": 2454,
      "aisse": 2455,
      "ãĤīãĤĮãģªãģĦ": 2456,
      "ï¼ĺ": 2457,
      "äº¤": 2458,
      "æĹı": 2459,
      "Ġchem": 2460,
      "ãģ©ãĤĵãģª": 2461,
      "ãģ¡ãĤĩãģ£ãģ¨": 2462,
      "ages": 2463,
      "Ġdim": 2464,
      "æķ°": 2465,
      "ãģ»ãģĨ": 2466,
      "Ġparti": 2467,
      "ä¾¡": 2468,
      "å¯Ŀ": 2469,
      "ĠåĲĽãģ¯": 2470,
      "Ġcompte": 2471,
      "ãĥĲãĤ¹": 2472,
      "Ġfini": 2473,
      "ĠdiffÃ©r": 2474,
      "çļĦãģª": 2475,
      "å£«": 2476,
      "ãģĺãĤĥãģªãģĦ": 2477,
      "Ġfamille": 2478,
      "ĤãĤı": 2479,
      "ãĤĴéĸĭ": 2480,
      "ãĤĭãģĵãģ¨": 2481,
      "Ġtour": 2482,
      "ãģĮå¤§": 2483,
      "ãģĤãģĴ": 2484,
      "ãģĤãģ¾ãĤĬ": 2485,
      "Ã¨rent": 2486,
      "ãģĿãģ®ç": 2487,
      "avait": 2488,
      "uire": 2489,
      "ĠÃ©p": 2490,
      "çĶŁãģį": 2491,
      "è©±ãģĻ": 2492,
      "Ġgros": 2493,
      "å¸Ń": 2494,
      "åľĴ": 2495,
      "Ġç§ģãģ¯å½¼å¥³": 2496,
      "è¦ªåĪĩ": 2497,
      "ãģ®ãģ§ãģĻãģĮ": 2498,
      "éŁ³æ¥½": 2499,
      "è·": 2500,
      "Ġ2": 2501,
      "ģ«": 2502,
      "ãĥĪãĥ": 2503,
      "ï¼Ĺ": 2504,
      "Ġbou": 2505,
      "ãģ¯åħ¨": 2506,
      "ãģĪãģªãģĦ": 2507,
      "rive": 2508,
      "ĠNotre": 2509,
      "µ·ãģĵ": 2510,
      "Ġæĺ¨æĹ¥": 2511,
      "erreur": 2512,
      "Ġclasse": 2513,
      "éĽ¨ãģĮéĻį": 2514,
      "ĠdonnÃ©": 2515,
      "è¾¼": 2516,
      "ĠfatiguÃ©": 2517,
      "é»": 2518,
      "Ġouv": 2519,
      "Ĩ±": 2520,
      "ãĤ½": 2521,
      "ãĥ¯": 2522,
      "ãĥİ": 2523,
      "Ġcol": 2524,
      "Ġmo": 2525,
      "Ġåı": 2526,
      "Ġtes": 2527,
      "ãģĭãģĦ": 2528,
      "ãģįãģªãģķãģĦ": 2529,
      "ied": 2530,
      "Ġæ¯į": 2531,
      "amen": 2532,
      "éĽª": 2533,
      "éĢģ": 2534,
      "Ġyeux": 2535,
      "ĠãĤ³": 2536,
      "å¾Ĺ": 2537,
      "Ġtravers": 2538,
      "ãĥīãĥ«": 2539,
      "Ġmalade": 2540,
      "Ġdisc": 2541,
      "Ġsera": 2542,
      "Ġoubl": 2543,
      "ãĤĴæĮģãģ£ãģ¦ãģĦãĤĭ": 2544,
      "Ġsortir": 2545,
      "ãģ«åĲĪ": 2546,
      "æŀľ": 2547,
      "Ġchaud": 2548,
      "rap": 2549,
      "æ§ĺ": 2550,
      "Ġï¼ĳ": 2551,
      "ãģ¥": 2552,
      "ãģ¯ãģ©ãģĨ": 2553,
      "Ġsoi": 2554,
      "Ġsal": 2555,
      "ãģ§ãģĻãĤĪ": 2556,
      "ãĥ¼ãĤ¯": 2557,
      "äººãģ®": 2558,
      "Ãªter": 2559,
      "ĠãģĿãģ®æ": 2560,
      "ãģ°ãģĭãĤĬ": 2561,
      "è¨Ģèĳī": 2562,
      "Ġconc": 2563,
      "æ°´": 2564,
      "tÃ©ress": 2565,
      "cteur": 2566,
      "å¯¾": 2567,
      "éĿŀ": 2568,
      "ĠmÃ©de": 2569,
      "Ġamis": 2570,
      "ä¸¡è¦ª": 2571,
      "ĠrencontrÃ©": 2572,
      "Ġvoudrais": 2573,
      "be": 2574,
      "bÃ©": 2575,
      "±Ĥ": 2576,
      "éľ": 2577,
      "Ġ3": 2578,
      "ĠãĤĤãģĹ": 2579,
      "Į¶": 2580,
      "Ĺè»Ĭ": 2581,
      "ĠdÃ»": 2582,
      "Ġlaiss": 2583,
      "ãģĹãģĭãģ£ãģŁ": 2584,
      "ãģĹãģªãģķãģĦ": 2585,
      "Ġå½¼ãģ®å": 2586,
      "ä¸ĩ": 2587,
      "Ġç§ģãģĮ": 2588,
      "Ġå½¼ãģ¯èĩªåĪĨ": 2589,
      "Ġplait": 2590,
      "ãĤıãģªãģĦ": 2591,
      "åı¯": 2592,
      "æķĹ": 2593,
      "ãģĵãģ¨ãģĮãģ§ãģį": 2594,
      "ĠQuelle": 2595,
      "è¿Ķ": 2596,
      "Ġcinq": 2597,
      "Ġutilis": 2598,
      "æı": 2599,
      "æµ·": 2600,
      "Ġãģª": 2601,
      "Ġpuis": 2602,
      "ãĥļ": 2603,
      "ĠsantÃ©": 2604,
      "ãģ«ãģĤãĤĭ": 2605,
      "ãĤĴé£²": 2606,
      "Ġvient": 2607,
      "ãģ¯åį": 2608,
      "Ġriv": 2609,
      "Ġprend": 2610,
      "ãģĳãģ¾ãģĽãĤĵ": 2611,
      "ches": 2612,
      "çĶ£": 2613,
      "éĢ£": 2614,
      "æŃ¢": 2615,
      "ations": 2616,
      "éĻĲ": 2617,
      "åĳ½": 2618,
      "Ġchaque": 2619,
      "ohn": 2620,
      "ues": 2621,
      "ç©º": 2622,
      "Ġpoiss": 2623,
      "Ġsau": 2624,
      "Ġvue": 2625,
      "Ġvers": 2626,
      "ĠJohn": 2627,
      "ãģıãĤĬ": 2628,
      "iner": 2629,
      "Ġrec": 2630,
      "å¹¸": 2631,
      "Ġeff": 2632,
      "ĠCela": 2633,
      "çµĲå©ļ": 2634,
      "ĠãģĿãĤĮãģ¯": 2635,
      "ãĤ·ãĥ¼": 2636,
      "Ġenfant": 2637,
      "ãģ²ãģ¨": 2638,
      "riture": 2639,
      "ãģ«å¯¾": 2640,
      "Ĳ½ãģ¡": 2641,
      "Ġraison": 2642,
      "é£Ľè¡Įæ©Ł": 2643,
      "rir": 2644,
      "ãģĦãģĨ": 2645,
      "Ġmis": 2646,
      "erci": 2647,
      "Ġå®": 2648,
      "ĠtÃªte": 2649,
      "ç§ģãģŁãģ¡": 2650,
      "ãģĨãģ¾": 2651,
      "ä¸ī": 2652,
      "iter": 2653,
      "æľŁ": 2654,
      "è¨³": 2655,
      "ä¸Ģç·Ĵ": 2656,
      "ĠãģĤãģªãģŁãģĮ": 2657,
      "Ġdevoir": 2658,
      "Ġass": 2659,
      "Ġjourn": 2660,
      "éłŃ": 2661,
      "part": 2662,
      "Ġenvie": 2663,
      "leurs": 2664,
      "ıĭéģĶ": 2665,
      "é§ħ": 2666,
      "è«ĸ": 2667,
      "ãģ¨åĲĮãģĺ": 2668,
      ".\"": 2669,
      "²ãģĹãģĦ": 2670,
      "ºĢ": 2671,
      "ģĲ": 2672,
      "ĪĨ": 2673,
      "ãĤ»": 2674,
      "ontre": 2675,
      "Ġsour": 2676,
      "ãģĹãģ°": 2677,
      "ãģĭãĤı": 2678,
      "Ġfort": 2679,
      "ãģłãģ¨æĢĿ": 2680,
      "ãģıãģ®": 2681,
      "Ġbi": 2682,
      "Ġresse": 2683,
      "ĠEs": 2684,
      "äººãģĮ": 2685,
      "ä½ķãĤĤ": 2686,
      "ãĤĴçµ": 2687,
      "èĩªè»¢": 2688,
      "åº·": 2689,
      "åĳĬ": 2690,
      "ãĥĨãĥĭãĤ¹": 2691,
      "īĭä¼Ŀ": 2692,
      "Ġvivre": 2693,
      "ĠprÃ©sent": 2694,
      "ģ¥åº·": 2695,
      "çĤ¹": 2696,
      "ĠoccupÃ©": 2697,
      "cin": 2698,
      "¨æĦı": 2699,
      "ªĵ": 2700,
      "±æķĹ": 2701,
      "½ĵ": 2702,
      "æµ": 2703,
      "èĤ²": 2704,
      "ãĥį": 2705,
      "ĠsÃ©": 2706,
      "ãģ«ãģ¨": 2707,
      "ãģ«ãģĹãģ¦": 2708,
      "ãģ«ãģ¯ç": 2709,
      "Ġå½¼ãģ¯å½¼å¥³": 2710,
      "ãģ£ãģŁãĤī": 2711,
      "Ġç§ģéģĶ": 2712,
      "Ġå½¼ãģ¯ãģĿãģ®": 2713,
      "Ġchat": 2714,
      "ãģ©ãĤĮ": 2715,
      "å¤©": 2716,
      "ĠSes": 2717,
      "ĠdÃ©b": 2718,
      "ĠAprÃ¨s": 2719,
      "ãģĤãĤĬãģĮ": 2720,
      "ãĥĨãĥ¬ãĥĵ": 2721,
      "ãģĿãģĨãģł": 2722,
      "æľĢè¿ĳ": 2723,
      "Ġpetite": 2724,
      "Ġseulement": 2725,
      "ãģ²ãģ©": 2726,
      "Ġacc": 2727,
      "Ġfilm": 2728,
      "cun": 2729,
      "§ī": 2730,
      "¨ĺ": 2731,
      "ĠãģĶ": 2732,
      "Ġerreur": 2733,
      "Į»èĢħ": 2734,
      "ŃĮ": 2735,
      "ãĥĻ": 2736,
      "aider": 2737,
      "ãĤĴãĤĤ": 2738,
      "qui": 2739,
      "ĠfÃªte": 2740,
      "ç§ĳ": 2741,
      "ãģłãģĭãĤī": 2742,
      "Ġrom": 2743,
      "Ġ?\"": 2744,
      "ãģķãĤĮãģ¦ãģĦãĤĭ": 2745,
      "ãĥ¼ãĥ³": 2746,
      "æľį": 2747,
      "æľĽ": 2748,
      "ãģĪãģ°": 2749,
      "ãĤĴæĬ": 2750,
      "Ġå½¼å¥³ãģĮ": 2751,
      "ä¸Ģåº¦": 2752,
      "è¨Ģãģ£ãģ¦": 2753,
      "éĢļãĤĬ": 2754,
      "è¨ĪçĶ»": 2755,
      "Ġrencontre": 2756,
      "Ġrapide": 2757,
      "ç¶ļ": 2758,
      "¦¹": 2759,
      "åĥķ": 2760,
      "èĮ¶": 2761,
      "ĸ°ãģĹãģĦ": 2762,
      "ãģ¯ãģĬ": 2763,
      "Ġpied": 2764,
      "aie": 2765,
      "ĠcÅĵur": 2766,
      "entre": 2767,
      "Ġfen": 2768,
      "Ġju": 2769,
      "çĶ°": 2770,
      "çĶº": 2771,
      "ãĥ¼ãĥī": 2772,
      "ãĥªãĥ³": 2773,
      "æĿ¥ãģŁ": 2774,
      "Ġaccident": 2775,
      "é¡ĺãģĦ": 2776,
      "ãģ¸è¡Įãģı": 2777,
      "ĠsÃ»r": 2778,
      "ãĥ¼ãĥĨãĤ£ãĥ¼": 2779,
      "èĩªè»¢è»Ĭ": 2780,
      "ãģĤãĤĬãģĮãģ¨ãģĨ": 2781,
      "ç©": 2782,
      "èī²": 2783,
      "İ»": 2784,
      "ãĥĿ": 2785,
      "Ġleurs": 2786,
      "Ġsp": 2787,
      "ãĤĴãģ¨": 2788,
      "Ġå¥": 2789,
      "ãģĵãģ®å": 2790,
      "ãģ§ãģĻãģŃ": 2791,
      "Ã©trang": 2792,
      "æĹ¥æĽľæĹ¥": 2793,
      "ĠãĥĲ": 2794,
      "llar": 2795,
      "anger": 2796,
      "æĺ¨æĹ¥": 2797,
      "åĭīå¼·": 2798,
      "Ġentendu": 2799,
      "ãĤ³ãĥ³": 2800,
      "Ġjoue": 2801,
      "ientÃ´t": 2802,
      "Ġ10": 2803,
      "Ġdollar": 2804,
      "ãģ¯å¥½ãģį": 2805,
      "Ġnourriture": 2806,
      "¾Į": 2807,
      "æ¨": 2808,
      "ħĻ": 2809,
      "ħãģļ": 2810,
      "ãģ¬": 2811,
      "ãģ®æľ¬": 2812,
      "ĠcÃ´": 2813,
      "ãĤĴä½¿": 2814,
      "Ġquit": 2815,
      "euner": 2816,
      "ĠbÃ©": 2817,
      "ãģ¯åı": 2818,
      "ĠrÃª": 2819,
      "art": 2820,
      "ateur": 2821,
      "ãģĪãģ¦ãģĦãĤĭ": 2822,
      "Ġç§ģãģ¯ãģĤãģªãģŁ": 2823,
      "éĸī": 2824,
      "ãģ®çĪ¶": 2825,
      "æĸŃ": 2826,
      "Ġinf": 2827,
      "åĩºãģĹãģŁ": 2828,
      "Ã§ons": 2829,
      "Ġdevrais": 2830,
      "æīĭç´Ļ": 2831,
      "Ń¦çĶŁ": 2832,
      "ĠmangÃ©": 2833,
      "Ġautant": 2834,
      "ãģ®ä¸Ńãģ§": 2835,
      "Ġcheveux": 2836,
      "Ġguerre": 2837,
      "ieu": 2838,
      "uf": 2839,
      "¡Ī": 2840,
      "·Ŀ": 2841,
      "ç¦": 2842,
      "ĺĺ": 2843,
      "Ļº": 2844,
      "ãģĦãģ«": 2845,
      "ende": 2846,
      "ãģķãĤĮ": 2847,
      "Ġplan": 2848,
      "èª¿": 2849,
      "ĠPers": 2850,
      "Ġãģĵãģ®æ": 2851,
      "ĠÃ©g": 2852,
      "ãģ¿ãģŁãģĦ": 2853,
      "ãģ«ç«ĭ": 2854,
      "Ġdevenir": 2855,
      "éĻº": 2856,
      "ä¿º": 2857,
      "ä¾¿": 2858,
      "æĦŁ": 2859,
      "Ġbless": 2860,
      "ctionn": 2861,
      "uvre": 2862,
      "æĥħ": 2863,
      "èŃ°": 2864,
      "è©¦é¨ĵ": 2865,
      "Ġveut": 2866,
      "Ġdimanche": 2867,
      "ĠPersonne": 2868,
      "oci": 2869,
      "ro": 2870,
      "rÃ¨s": 2871,
      "ç¢º": 2872,
      "Ġ5": 2873,
      "ĠãģĻ": 2874,
      "ãģĦãģªãģĦ": 2875,
      "ãģĭãģĮ": 2876,
      "ĠvÃ©r": 2877,
      "Ġfeu": 2878,
      "Ġtrouve": 2879,
      "ĠEt": 2880,
      "Ġplais": 2881,
      "çĶ³": 2882,
      "ãĥ³ãĥĪ": 2883,
      "ãģ®æĦı": 2884,
      "Ġãĥĳ": 2885,
      "è¦ļ": 2886,
      "ä¼¼": 2887,
      "ĠannÃ©e": 2888,
      "ĠintÃ©ress": 2889,
      "igne": 2890,
      "åĬ©": 2891,
      "ĠãĥĪãĥłãģ¯ãĥ": 2892,
      "Ġpleuv": 2893,
      "è¡ĵ": 2894,
      "appelle": 2895,
      "ĠpremiÃ¨re": 2896,
      "Ġlangue": 2897,
      "ĭķçī©": 2898,
      "Ġchemin": 2899,
      "ĠriviÃ¨re": 2900,
      "dÃ©e": 2901,
      "mand": 2902,
      "Īå¾Į": 2903,
      "įµ": 2904,
      "ãģĦãģ¾ãģĻãģĭ": 2905,
      "env": 2906,
      "ãģĹãģ¾ãģĹãģŁ": 2907,
      "Ġterre": 2908,
      "ãģĭãģĳãģŁ": 2909,
      "ãģĭãĤĤãģĹ": 2910,
      "ãģ¾ãĤĭ": 2911,
      "Ġfou": 2912,
      "ãģıãģ¤": 2913,
      "ãģ£ãģŁãģ®": 2914,
      "Ġbain": 2915,
      "ĠbientÃ´t": 2916,
      "ãģ¯å®": 2917,
      "Ġquelle": 2918,
      "åĪĿ": 2919,
      "ãĤıãĤĮ": 2920,
      "rire": 2921,
      "Ġcomb": 2922,
      "ĠÃ©le": 2923,
      "ĠÃ©ch": 2924,
      "Ġsac": 2925,
      "æĿ±äº¬": 2926,
      "ãĥ©ãĤ¹": 2927,
      "åīįãģ«": 2928,
      "åįĺ": 2929,
      "Ġä½ķãģĭ": 2930,
      "Ġretour": 2931,
      "exp": 2932,
      "ĠprÃ©fÃ¨re": 2933,
      "Ġfumer": 2934,
      "Ġalors": 2935,
      "hÃ´": 2936,
      "ile": 2937,
      "ive": 2938,
      "ieurs": 2939,
      "ore": 2940,
      "vi": 2941,
      "³å": 2942,
      "çľł": 2943,
      "éĬ": 2944,
      "Ġor": 2945,
      "ĠdÃ®": 2946,
      "Ġlait": 2947,
      "reux": 2948,
      "ãģĹãĤĥ": 2949,
      "ĠåŃĲä¾Ľ": 2950,
      "ane": 2951,
      "Ġvas": 2952,
      "ãģłãĤĮ": 2953,
      "Ġprin": 2954,
      "ĠprÃ¨s": 2955,
      "Ġchant": 2956,
      "Ġç§ģãģ¯ãģĿãģ®": 2957,
      "Ġpourquoi": 2958,
      "ĠãĥĨ": 2959,
      "ãģĻãĤĭãģĵãģ¨": 2960,
      "ĠdÃ©ci": 2961,
      "ĠQui": 2962,
      "accident": 2963,
      "ãģ«è¿": 2964,
      "midi": 2965,
      "ãģĵãģ¨ãģĮãģ§ãģįãĤĭ": 2966,
      "ãĤĴè¦ĭãģ¤": 2967,
      "Ġpartie": 2968,
      "ĠÃªtes": 2969,
      "ãģĮæ¬": 2970,
      "ãĤ¹ãĥĪãĥ©": 2971,
      "Ġnouvelles": 2972,
      "Ġseule": 2973,
      "Ġpasser": 2974,
      "Ġcontr": 2975,
      "Ġdemander": 2976,
      "ĠcoÃ»": 2977,
      "Ġprochaine": 2978,
      "el": 2979,
      "lÃł": 2980,
      "nous": 2981,
      "®ĭ": 2982,
      "ºĹ": 2983,
      "ĠÅĵ": 2984,
      "ģ´": 2985,
      "ŀæĽ¸": 2986,
      "ãģ®è©±": 2987,
      "Ġsavoir": 2988,
      "ãģ£ãģıãĤĬ": 2989,
      "ãģĮãĤī": 2990,
      "Ġvois": 2991,
      "Ġnoir": 2992,
      "ä¸İ": 2993,
      "Ġsupp": 2994,
      "ãĤĴå¿ĺ": 2995,
      "ĠMais": 2996,
      "appe": 2997,
      "ĠPr": 2998,
      "éĽ¢": 2999,
      "ĠrÃ©un": 3000,
      "ãĥªãĤ¹": 3001,
      "ouver": 3002,
      "Ġinter": 3003,
      "Ġoncle": 3004,
      "ãģ¸è¡Įãģ£ãģŁ": 3005,
      "Ġphoto": 3006,
      "Ġtravailler": 3007,
      "ĠãĤıãģŁãģĹ": 3008,
      "Ġbase": 3009,
      "ĪĲåĬŁ": 3010,
      "ĠÃ¢ge": 3011,
      "ĠgÃ©nÃ©r": 3012,
      "éĿŀå¸¸": 3013,
      "ĠmÃ©decin": 3014,
      "Ġjournal": 3015,
      "bres": 3016,
      "fois": 3017,
      "ies": 3018,
      "³³": 3019,
      "¿é¡Į": 3020,
      "Ġord": 3021,
      "ģ·": 3022,
      "Ħª": 3023,
      "ł±": 3024,
      "ãģ¯ãģļ": 3025,
      "Ã©m": 3026,
      "Ã©ci": 3027,
      "ãģŁãģł": 3028,
      "Ġcert": 3029,
      "ãģĹãģ¿": 3030,
      "Ġment": 3031,
      "ãģłãģĮ": 3032,
      "aissez": 3033,
      "Ġsujet": 3034,
      "ãĤĴè²": 3035,
      "Ġgag": 3036,
      "Ġplace": 3037,
      "Ġhistoire": 3038,
      "ĠMerci": 3039,
      "ãĤıãģĳ": 3040,
      "ä¸Ģãģ¤": 3041,
      "ãģ¿ãģª": 3042,
      "Ġdictionn": 3043,
      "ãĥ©ãĤ¤": 3044,
      "å¾Ĵ": 3045,
      "Ġsix": 3046,
      "å¿Ļ": 3047,
      "æĺİæĹ¥": 3048,
      "å¸«": 3049,
      "Ġvoul": 3050,
      "é¡Ķ": 3051,
      "éķ·ãģĦ": 3052,
      "Ġpropos": 3053,
      "Ġprochain": 3054,
      "éĽ£ãģĹãģĦ": 3055,
      "éŃļ": 3056,
      "vision": 3057,
      "ĠcolÃ¨re": 3058,
      "ĠfenÃªtre": 3059,
      "Ġdollars": 3060,
      "gle": 3061,
      "rÃ©e": 3062,
      "§ħ": 3063,
      "°èģŀ": 3064,
      "¹´": 3065,
      "çı¾": 3066,
      "ĲĨ": 3067,
      "Ġsc": 3068,
      "ãģªãĤĵãģł": 3069,
      "ãģĮãģĦãĤĭ": 3070,
      "oise": 3071,
      "isÃ©": 3072,
      "ãĤĵãģ§ãģĻ": 3073,
      "Ġroute": 3074,
      "Ġend": 3075,
      "Ġparc": 3076,
      "ãģ«å¸°": 3077,
      "Ġå½¼å¥³ãģ¯å½¼": 3078,
      "åĪ©": 3079,
      "ira": 3080,
      "resse": 3081,
      "æľ¬ãĤĴèªŃ": 3082,
      "Ġconse": 3083,
      "ãģķãĤĵãģ¯": 3084,
      "åĭĻ": 3085,
      "ãĤ³ãĥ¼ãĥĴãĥ¼": 3086,
      "Ġlibre": 3087,
      "Ġregarder": 3088,
      "Ġmots": 3089,
      "ĠtrouvÃ©": 3090,
      "importe": 3091,
      "Ġmeilleur": 3092,
      "Ã©tranger": 3093,
      "æĮ": 3094,
      "ĠãģĦ": 3095,
      "Ĥī": 3096,
      "İŁ": 3097,
      "Ġdont": 3098,
      "ãģĦãģ§": 3099,
      "Ġcass": 3100,
      "Ġciel": 3101,
      "Ġvac": 3102,
      "este": 3103,
      "Ġnu": 3104,
      "Ġboire": 3105,
      "ãģķãģĪ": 3106,
      "ãĥ¼ãĤŃ": 3107,
      "aurais": 3108,
      "Ġsuiv": 3109,
      "Ġplu": 3110,
      "Ġhum": 3111,
      "åĪ»": 3112,
      "ĠdÃ©f": 3113,
      "ãģ¯çµ": 3114,
      "æ°ĳ": 3115,
      "onnÃªte": 3116,
      "ãģ®éł": 3117,
      "éĻ¤": 3118,
      "éĽ»è»Ĭ": 3119,
      "ãģŁãĤģãģ«": 3120,
      "ãģ®æĸĩ": 3121,
      "ĠÃītats": 3122,
      "ç¬ĳ": 3123,
      "Ġpian": 3124,
      "ãģ«ãģ¨ãģ£ãģ¦": 3125,
      "ĠcÃ´tÃ©": 3126,
      "eg": 3127,
      "uy": 3128,
      "ures": 3129,
      "å¢": 3130,
      "èį": 3131,
      "éĤª": 3132,
      "ĭ¬": 3133,
      "Ń»": 3134,
      "ãĥĽ": 3135,
      "Ġag": 3136,
      "era": 3137,
      "annÃ©e": 3138,
      "ãģĻãĤĮãģ°": 3139,
      "Ġvos": 3140,
      "ãģıãĤĭ": 3141,
      "tell": 3142,
      "ital": 3143,
      "ãĤĪãģĭãģ£ãģŁ": 3144,
      "ĠEx": 3145,
      "ãģ©ãģ¡ãĤī": 3146,
      "ĠæĢ": 3147,
      "ãģĽãĤĭ": 3148,
      "åĪ¥": 3149,
      "ãĥ¼ãĥĸ": 3150,
      "Ġils": 3151,
      "ĠidÃ©e": 3152,
      "ä¼ļç¤¾": 3153,
      "ãģ»ãģĹãģĦ": 3154,
      "ãĤĴè¦ĭãģ¦": 3155,
      "æł¼": 3156,
      "Ġconnaiss": 3157,
      "Ġblanc": 3158,
      "Ġcomprendre": 3159,
      "Ġriche": 3160,
      "ĠÃ©tudiants": 3161,
      "ĠrÃ©pondre": 3162,
      "ĠappelÃ©": 3163,
      "habitude": 3164,
      "èħ¹": 3165,
      "iendra": 3166,
      "ĠoubliÃ©": 3167,
      "tellig": 3168,
      "mis": 3169,
      "per": 3170,
      "³ªåķı": 3171,
      "è¬": 3172,
      "Ġè»Ĭ": 3173,
      "ĻçľŁ": 3174,
      "ŁãĤĬ": 3175,
      "ãĥı": 3176,
      "enf": 3177,
      "onom": 3178,
      "ãģ«éĽ»è©±": 3179,
      "Ġvent": 3180,
      "Ġviens": 3181,
      "ãĤīãģĦ": 3182,
      "Ġnos": 3183,
      "Ġrat": 3184,
      "ãģ®åĲįåīį": 3185,
      "ĠCet": 3186,
      "atre": 3187,
      "Ġpluie": 3188,
      "ãĤĴåĭīå¼·": 3189,
      "ãģ¡ãĤĩãģĨ": 3190,
      "Ġãĥŀ": 3191,
      "Ġref": 3192,
      "Ġãģĵãģ®è": 3193,
      "è¨ĢãģĦ": 3194,
      "åĲĳ": 3195,
      "ãĤĪãģĨãģł": 3196,
      "Ġconv": 3197,
      "Ã§u": 3198,
      "ĠtÃ©lÃ©vision": 3199,
      "Ġåĥķãģ¯": 3200,
      "ĠKen": 3201,
      "Ġpubl": 3202,
      "Ġsouff": 3203,
      "ãģ®ãģŁãĤģãģ«": 3204,
      "Ġpropre": 3205,
      "ãģ¡ãĤĥãĤĵ": 3206,
      "éģİãģİ": 3207,
      "é¦¬": 3208,
      "Ġdevoirs": 3209,
      "Ġrencontrer": 3210,
      "ĠrÃ©union": 3211,
      "Ġdictionnaire": 3212,
      "bas": 3213,
      "»º": 3214,
      "æ·": 3215,
      "Ġk": 3216,
      "ģåĪĨ": 3217,
      "Ĭtes": 3218,
      "ŃĶ": 3219,
      "ãĤ¶": 3220,
      "enue": 3221,
      "ãģ®è»Ĭ": 3222,
      "oubl": 3223,
      "ãģ«ãģĭ": 3224,
      "ãģ«è¦ĭ": 3225,
      "ĠcÃ©": 3226,
      "Ġcas": 3227,
      "ãģªãģĹ": 3228,
      "Ġåį": 3229,
      "Ġban": 3230,
      "ãģįãģ¦": 3231,
      "Ġneige": 3232,
      "ãģ«å¿": 3233,
      "éģĬ": 3234,
      "ãģ®æ¯į": 3235,
      "alitÃ©": 3236,
      "Ġãĥľ": 3237,
      "uite": 3238,
      "ĠPeux": 3239,
      "ãģ®çĽ®": 3240,
      "ãĤ¤ãĥĦ": 3241,
      "ãģ¿ãģ¾ãģĽãĤĵ": 3242,
      "å½¼å¥³ãģ¯": 3243,
      "é¡ŀ": 3244,
      "éĢ±éĸĵ": 3245,
      "Ġfaisait": 3246,
      "æŃ»ãĤĵãģł": 3247,
      "æĻ©": 3248,
      "Ġempl": 3249,
      "Ġvacances": 3250,
      "Unis": 3251,
      "¦äºī": 3252,
      "¾©": 3253,
      "å°ĳ": 3254,
      "æ¡Ī": 3255,
      "ĥæ°Ĺ": 3256,
      "ret": 3257,
      "Ġcent": 3258,
      "ãĤĴä½ľ": 3259,
      "ãģ¦ãģĦãģªãģĦ": 3260,
      "ä¸Ī": 3261,
      "Ġrue": 3262,
      "Ġaucun": 3263,
      "ãĥ³ãģ¯": 3264,
      "ãĤĴæı": 3265,
      "Ġæ°´": 3266,
      "ĠMÃªme": 3267,
      "è¨±": 3268,
      "å¤ļãģı": 3269,
      "è©©": 3270,
      "éĢĥ": 3271,
      "çĶŁæ": 3272,
      "çĶŁå¾Ĵ": 3273,
      "ĠrÃ©ussi": 3274,
      "ãĤ¤ãĥĪ": 3275,
      "Ġsurpr": 3276,
      "Ġpeuvent": 3277,
      "Ġob": 3278,
      "cune": 3279,
      "èª°ãĤĤ": 3280,
      "ĠãĤ¸ãĥ§ãĥ³": 3281,
      "Ġacheter": 3282,
      "ãģ©ãģ®ãģıãĤīãģĦ": 3283,
      "Ġnombreux": 3284,
      "mÃ©ric": 3285,
      "Ġmagas": 3286,
      "ãĤĴåıĹãģĳ": 3287,
      "é³´": 3288,
      "ire": 3289,
      "mar": 3290,
      "mbl": 3291,
      "nent": 3292,
      "¬¡": 3293,
      "æ£": 3294,
      "ç¿Ĵ": 3295,
      "ķãģį": 3296,
      "ãģĦãģ§ãģĻ": 3297,
      "aille": 3298,
      "ãģ§ãģĤãģ£ãģŁ": 3299,
      "ãģ£ãģĭãĤĬ": 3300,
      "ãģĮãģ¤": 3301,
      "ãģĮå¿ħè¦ģ": 3302,
      "ãģĭãģ«": 3303,
      "Ġfilles": 3304,
      "ĠÃĬtes": 3305,
      "ãģ®åĨ": 3306,
      "ãĥ¼ãĤ¹": 3307,
      "aute": 3308,
      "ä»»": 3309,
      "ÃªtÃ©": 3310,
      "iver": 3311,
      "Ġann": 3312,
      "æĸ°ãģĹãģĦ": 3313,
      "Ġintellig": 3314,
      "ãģ£ãģ¦ãģĦãģªãģĦ": 3315,
      "Ġart": 3316,
      "å¿ĺ": 3317,
      "éĻ¢": 3318,
      "ãģĵãģ¨ãģĮãģĤãĤĬãģ¾ãģĻãģĭ": 3319,
      "æĪĳ": 3320,
      "ãģ¯ãģĦãģĳãģ¾ãģĽãĤĵ": 3321,
      "ãĤ·ãĥ£": 3322,
      "å£°": 3323,
      "Ġesp": 3324,
      "ãĤĴçŁ¥ãģ£ãģ¦ãģĦãĤĭ": 3325,
      "åĮĸ": 3326,
      "ç´ĦæĿŁ": 3327,
      "åĤĻ": 3328,
      "Ġanimaux": 3329,
      "ate": 3330,
      "aque": 3331,
      "duit": 3332,
      "ime": 3333,
      "ls": 3334,
      "¬åľĴ": 3335,
      "±±": 3336,
      "»ŀ": 3337,
      "ī©": 3338,
      "ĸåĽ½": 3339,
      "Ŀ±äº¬": 3340,
      "ãģĦåĩº": 3341,
      "Ġcri": 3342,
      "ãģĮãģĤãģ£ãģŁ": 3343,
      "ãĤīãģļ": 3344,
      "ãĤĵãģ§ãģĻãģĭ": 3345,
      "ãģ¯å¿": 3346,
      "Ġrendre": 3347,
      "ĠgÃ¢": 3348,
      "äººéĸĵ": 3349,
      "Ġç§ģãģ¯ç": 3350,
      "ãĤĴæī": 3351,
      "Ġãĥī": 3352,
      "ĠMes": 3353,
      "ãģĹãģ¦ä¸ĭãģķãģĦ": 3354,
      "Ġtellement": 3355,
      "ãĥ¼ãĥĦ": 3356,
      "æľ¬ãĤĴ": 3357,
      "ãģ®çĬ¬": 3358,
      "åı·": 3359,
      "ãģĦãģĦãģ§ãģĻãģĭ": 3360,
      "ãģĵãģ¨ãģĮãģĤãĤĭ": 3361,
      "ï¼Ĳï¼Ĳ": 3362,
      "æĦĽ": 3363,
      "çŁ¥ãĤīãģªãģĦ": 3364,
      "èª¬æĺİ": 3365,
      "Ġmontagne": 3366,
      "oleil": 3367,
      "Ġfaim": 3368,
      "Ġfacile": 3369,
      "ãĤĴæķĻãģĪãģ¦": 3370,
      "Ġrouge": 3371,
      "ĠvÃ©ritÃ©": 3372,
      "çĶ³ãģĹ": 3373,
      "ãģĭãĤĤãģĹãĤĮãģªãģĦ": 3374,
      "ĠdÃ®ner": 3375,
      "ras": 3376,
      "ĠèĩªåĪĨ": 3377,
      "ĴĮ": 3378,
      "ãĤ¡": 3379,
      "ãģ®éĸĵ": 3380,
      "Ġsol": 3381,
      "ãĤĴãģĭãģĳ": 3382,
      "Ġåħ": 3383,
      "euille": 3384,
      "itÃ©s": 3385,
      "ãģĹãģŁãģ®": 3386,
      "Ġå½¼ãģ¯ãģĦãģ¤ãĤĤ": 3387,
      "å¥³ãģ®åŃĲ": 3388,
      "ĠCes": 3389,
      "Ġchance": 3390,
      "ãģĵãģ¨ãĤĴ": 3391,
      "Ġãĥ¡ãĤ¢ãĥªãĥ¼": 3392,
      "åĪ¤": 3393,
      "aines": 3394,
      "ãģ«æ°Ĺ": 3395,
      "ä¸ĢæĹ¥": 3396,
      "ĠrÃ©g": 3397,
      "orter": 3398,
      "æĻĤãģ«": 3399,
      "æĿ¯": 3400,
      "ä¸ŃåĽ½": 3401,
      "Ġaide": 3402,
      "å¼µ": 3403,
      "ttes": 3404,
      "Ġdist": 3405,
      "æľĢãĤĤ": 3406,
      "çĻ½": 3407,
      "Ġ19": 3408,
      "ĠPourriez": 3409,
      "Ġrester": 3410,
      "ãģıãģªãģ£ãģŁ": 3411,
      "Ġenvir": 3412,
      "åĨħ": 3413,
      "èĥĮ": 3414,
      "åķıé¡Į": 3415,
      "çĪ¶ãģķãĤĵ": 3416,
      "ãĥ»ãĥ»": 3417,
      "ãģĻãģİãĤĭ": 3418,
      "æ¯įãģķãĤĵ": 3419,
      "èī¯ãģĦ": 3420,
      "éĩİçĲĥ": 3421,
      "åħĪçĶŁ": 3422,
      "Ġutiliser": 3423,
      "az": 3424,
      "hÃ¨": 3425,
      "oÃ": 3426,
      "¡Ķ": 3427,
      "¤ãģĦ": 3428,
      "¨å¤ľ": 3429,
      "°çĿĢ": 3430,
      "å°ĳãģĹ": 3431,
      "Ġop": 3432,
      "Ĭ¯": 3433,
      "ļĨ": 3434,
      "ãģ¯æĹ¥æľ¬": 3435,
      "aide": 3436,
      "ãģŁãĤī": 3437,
      "Ġpat": 3438,
      "ãĤĤãģªãģĦ": 3439,
      "ĠnÃ©c": 3440,
      "Ġjard": 3441,
      "Ã¨ve": 3442,
      "Ġra": 3443,
      "ãĥ¼ãĤ¸": 3444,
      "Ġpres": 3445,
      "æľ«": 3446,
      "Ġtrans": 3447,
      "ãĤĴåĳ": 3448,
      "ãĤĴæ¸": 3449,
      "Ãªcher": 3450,
      "apl": 3451,
      "ãģĻãĤĭãģª": 3452,
      "tures": 3453,
      "ĠNon": 3454,
      "ĠÃ©cole": 3455,
      "ĠrÃ©ve": 3456,
      "ĠrÃ©uss": 3457,
      "èĩªçĦ¶": 3458,
      "ä¸ĬãģĴ": 3459,
      "Ġèĭ±èªŀ": 3460,
      "åĽ³": 3461,
      "åºĹ": 3462,
      "ä¿Ĥ": 3463,
      "åŃĲä¾Ľ": 3464,
      "å¯Ł": 3465,
      "ãģĹãģ¾ãģĹãĤĩãģĨ": 3466,
      "Ġattention": 3467,
      "Ġattrap": 3468,
      "ĠFr": 3469,
      "Ġjeunes": 3470,
      "éħĴ": 3471,
      "ĠgarÃ§ons": 3472,
      "ãģ¤ãĤĤãĤĬãģ§ãģĻ": 3473,
      "ĠçĪ¶ãģ¯": 3474,
      "ä¼ĳãģ¿": 3475,
      "ãĤĴè©±ãģĻ": 3476,
      "mÃ©rique": 3477,
      "ĠvÃ©lo": 3478,
      "Ġpoisson": 3479,
      "ãĥ¼ãĥĸãĥ«": 3480,
      "Ġmagasin": 3481,
      "ĠnÃ©cess": 3482,
      "rant": 3483,
      "¬ĳ": 3484,
      "±éĻº": 3485,
      "º§": 3486,
      "å«Į": 3487,
      "åł±": 3488,
      "ķçĶŁ": 3489,
      "onse": 3490,
      "oudre": 3491,
      "ãģ«éĸ¢": 3492,
      "ãģ¨è¨Ģãģ£ãģŁ": 3493,
      "Ġvieux": 3494,
      "Ġfond": 3495,
      "ãĤīãĤĮãģ¦ãģĦãĤĭ": 3496,
      "Ġbat": 3497,
      "inÃ©": 3498,
      "ãģ®åīį": 3499,
      "Ã©tud": 3500,
      "Ġparapl": 3501,
      "Ġæĸ": 3502,
      "èªķçĶŁ": 3503,
      "ãģĽãģŁ": 3504,
      "alie": 3505,
      "ĻĤéĸĵ": 3506,
      "éĽĨ": 3507,
      "ãģ£ãģ¦ãģĦãĤĭãģ®": 3508,
      "dic": 3509,
      "ãģ®é«": 3510,
      "Ġdevant": 3511,
      "ãģĶãģĸ": 3512,
      "å¸Ĥ": 3513,
      "Ġbruit": 3514,
      "Ġcontin": 3515,
      "æħ¢": 3516,
      "Ġcomprends": 3517,
      "éĩįè¦ģ": 3518,
      "é§Ħ": 3519,
      "Ġpeine": 3520,
      "ãģ«çĿĢãģĦãģŁ": 3521,
      "Ġcuisine": 3522,
      "Ġrapidement": 3523,
      "Ġpleuvoir": 3524,
      "Ġparapluie": 3525,
      "gment": 3526,
      "ieur": 3527,
      "ible": 3528,
      "iance": 3529,
      "roit": 3530,
      "Ġãģ¾": 3531,
      "Ī»": 3532,
      "īĩ": 3533,
      "Ĳæŀľ": 3534,
      "ķé£Ł": 3535,
      "ĸ¬": 3536,
      "ļĹ": 3537,
      "Ġpop": 3538,
      "ãģ®ãĤĪãģĨãģ«": 3539,
      "Ġsoci": 3540,
      "Ġå½¼ãģ®æ": 3541,
      "ãģĵãĤĵãģª": 3542,
      "ç§ģãģ®": 3543,
      "ãģ¯åĲĽ": 3544,
      "llez": 3545,
      "ä»ĭ": 3546,
      "äººãģ§ãģĻ": 3547,
      "ãĤĴæŃ": 3548,
      "è¡Įãģı": 3549,
      "Ġplusieurs": 3550,
      "å®¤": 3551,
      "ãĤ¢ãĥİ": 3552,
      "ãĤĦãĤĬ": 3553,
      "ĠDans": 3554,
      "å¿µ": 3555,
      "ãģ©ãģĨãģĭ": 3556,
      "Ġé¢¨": 3557,
      "oyez": 3558,
      "ãĥ¡ãĤ¢ãĥªãĥ¼": 3559,
      "ãģ¯ç§ģãģ®": 3560,
      "åįĬ": 3561,
      "å£²": 3562,
      "ĠrÃ©ponse": 3563,
      "ãĥĳãĥ¼ãĥĨãĤ£ãĥ¼": 3564,
      "ī¯ãģĦ": 3565,
      "Ġcoucher": 3566,
      "ĠrÃ©soudre": 3567,
      "è«ĩ": 3568,
      "éĸĵéģķãģĦ": 3569,
      "ĠessayÃ©": 3570,
      "ãģ«ãĤĪãģ£ãģ¦": 3571,
      "èĭ¥ãģĦ": 3572,
      "å¤ļãģĦ": 3573,
      "accord": 3574,
      "è·¯": 3575,
      "ç§ĳåŃ¦": 3576,
      "ĠbÃ©bÃ©": 3577,
      "ces": 3578,
      "ume": 3579,
      "¦»": 3580,
      "®ãĤī": 3581,
      "Ġãģ©ãģĵ": 3582,
      "Īåĳ³": 3583,
      "Ĭ¶": 3584,
      "İĭ": 3585,
      "Ķ¯": 3586,
      "ãģ¯ãģĤãģªãģŁ": 3587,
      "ãģ¯ãĤĤãģĨ": 3588,
      "Ġdonne": 3589,
      "Ġdonc": 3590,
      "Ġpommes": 3591,
      "ãģªãģĵãģ¨": 3592,
      "ãģ¨ãģĹãģŁ": 3593,
      "ãģįãĤĮ": 3594,
      "Ġrend": 3595,
      "Ġrob": 3596,
      "å¥½": 3597,
      "ĠLond": 3598,
      "ĠLors": 3599,
      "Ġprie": 3600,
      "Ġtrad": 3601,
      "ãģ«åĪ": 3602,
      "äººãģł": 3603,
      "Ġãĥĵ": 3604,
      "ãģ¯æĢĿ": 3605,
      "apeau": 3606,
      "ĠãģĵãĤĵãģª": 3607,
      "ĠAn": 3608,
      "Ġçµ": 3609,
      "iers": 3610,
      "åı°": 3611,
      "Ġinv": 3612,
      "ãĤĴè¦ļ": 3613,
      "æ°ĹãģĮ": 3614,
      "å¥½ãģįãģ§ãģĻ": 3615,
      "Ġappar": 3616,
      "ãģ¨æĢĿãģĦãģ¾ãģĻ": 3617,
      "Ġmarcher": 3618,
      "ĠdÃ©jeuner": 3619,
      "Ġmange": 3620,
      "ĠFais": 3621,
      "åĨĨ": 3622,
      "Ġquestions": 3623,
      "æ®º": 3624,
      "æ¬¡": 3625,
      "Ġconfiance": 3626,
      "Ġsty": 3627,
      "Ġfacilement": 3628,
      "ãĤĴå¾ħ": 3629,
      "ãģ¾ãģ£ãģŁãģı": 3630,
      "Ġcombien": 3631,
      "Ġpiano": 3632,
      "Ġpresque": 3633,
      "ĠLondres": 3634,
      "cÃ¨s": 3635,
      "fait": 3636,
      "ik": 3637,
      "´Ĺ": 3638,
      "¸Ĥ": 3639,
      "èģ·": 3640,
      "éī": 3641,
      "ĠãģĦãģ¤": 3642,
      "Ġdoi": 3643,
      "ĠsÃ©ri": 3644,
      "ãģ«ä½ķ": 3645,
      "Ġcop": 3646,
      "ãģªãģ®ãģ§": 3647,
      "ĠmÃ©t": 3648,
      "ãģ£ãģ¡": 3649,
      "Ġquatre": 3650,
      "Ġfleurs": 3651,
      "tel": 3652,
      "Ġå½¼ãģ¯ãģ¨ãģ¦ãĤĤ": 3653,
      "ãģ®åı": 3654,
      "Ġchar": 3655,
      "Ġaucune": 3656,
      "ãĥ³ãĤ°": 3657,
      "ãĤĴæīĭä¼Ŀ": 3658,
      "Ġhommes": 3659,
      "äºĭå®Ł": 3660,
      "Ġprog": 3661,
      "Ġind": 3662,
      "Ġint": 3663,
      "ĠDÃ©s": 3664,
      "ĠDonne": 3665,
      "é£Łäºĭ": 3666,
      "ä¸ĬãģĮ": 3667,
      "ãģŃãģŁ": 3668,
      "Ġoff": 3669,
      "oyer": 3670,
      "ãĤ«ãĥ¼": 3671,
      "åĳĤ": 3672,
      "çµĮ": 3673,
      "Ġmalad": 3674,
      "Ġserai": 3675,
      "arer": 3676,
      "Ġperd": 3677,
      "é«ª": 3678,
      "ï¼ĵï¼Ĳ": 3679,
      "ãģıãģªãĤĭ": 3680,
      "åĭķçī©": 3681,
      "ĠfaÃ§on": 3682,
      "Ġpenser": 3683,
      "Ġpouvoir": 3684,
      "Ġapprendre": 3685,
      "æĸĻçĲĨ": 3686,
      "espÃ¨re": 3687,
      "ĠlumiÃ¨re": 3688,
      "ãĥ³ãĥīãĥ³": 3689,
      "ĸ²ãĤĮ": 3690,
      "Ġressemble": 3691,
      "ãģ¡ãĤĩãģĨãģ©": 3692,
      "ä¸Īå¤«": 3693,
      "aff": 3694,
      "fin": 3695,
      "lus": 3696,
      "ªģ": 3697,
      "¯Ŀ": 3698,
      "°¡": 3699,
      "ºĸ": 3700,
      "¼Ķ": 3701,
      "¾ŀæĽ¸": 3702,
      "çĴ": 3703,
      "çĽ¸": 3704,
      "çħĻ": 3705,
      "é©ļ": 3706,
      "ĢĴ": 3707,
      "łĤ": 3708,
      "ãģĦãģ¾ãģĽãĤĵ": 3709,
      "Ġlis": 3710,
      "ĠlÃ©g": 3711,
      "ãģ«éģħ": 3712,
      "ãĤĴä¸İ": 3713,
      "ĠåĨ": 3714,
      "Ġtant": 3715,
      "ãģĨãģ®": 3716,
      "Ġbois": 3717,
      "ãģ¯å®¶": 3718,
      "ãģ®å¤§": 3719,
      "å¥³æĢ§": 3720,
      "ãĤĴè¿": 3721,
      "ãģ«å¾": 3722,
      "äººãģ¨": 3723,
      "ãģ£ãģ¦ãģıãĤĮãģŁ": 3724,
      "ĠhonnÃªte": 3725,
      "ãģĽãģªãģĦ": 3726,
      "ĠãĥŃ": 3727,
      "ãģĹãģ¦ãĤĭ": 3728,
      "Ġdess": 3729,
      "avant": 3730,
      "ĠrÃ©f": 3731,
      "å½¼ãĤī": 3732,
      "èĢģ": 3733,
      "ĠDieu": 3734,
      "Ã©rÃ©": 3735,
      "othÃ¨": 3736,
      "chec": 3737,
      "éĩĳæĮģãģ¡": 3738,
      "ãĥĨãĥ«": 3739,
      "æĪ»": 3740,
      "ãĤ¹ãĥĿ": 3741,
      "Ġå¤ļãģı": 3742,
      "ĠFu": 3743,
      "ãĤŃãĥ¼": 3744,
      "Ġconsid": 3745,
      "examen": 3746,
      "ãĥ¥ãĥ¼ãĥ": 3747,
      "ãģ¨ãģĵãĤįãģ§ãģĻ": 3748,
      "è¡¨": 3749,
      "Ġpossible": 3750,
      "Ġdonner": 3751,
      "ãģ«ä¼ļãģ£ãģŁ": 3752,
      "ãģ®åŃĲä¾Ľ": 3753,
      "èŃĺ": 3754,
      "Ġconduire": 3755,
      "éģİãģĶ": 3756,
      "ĠdÃ©solÃ©": 3757,
      "Ġaffaires": 3758,
      "iversaire": 3759,
      "ãģ®åįĪå¾Į": 3760,
      "Ġlorsque": 3761,
      "Ġcapable": 3762,
      "ĠcommencÃ©": 3763,
      "éĢŁãģı": 3764,
      "ãģ²ãģ©ãģĦ": 3765,
      "endez": 3766,
      "Ġjardin": 3767,
      "Ġpopul": 3768,
      "uc": 3769,
      "´Ħ": 3770,
      "å©": 3771,
      "æĤ": 3772,
      "çĹĽ": 3773,
      "ĠãģĻãģĲ": 3774,
      "ģĭ": 3775,
      "ãģĦãģ¦ãģĦãģŁ": 3776,
      "ãĥ¢": 3777,
      "Ġsoleil": 3778,
      "ãģªãģ£ãģŁ": 3779,
      "ãģªãģ©": 3780,
      "ãģªãģĮãĤī": 3781,
      "ãģĻãģĶ": 3782,
      "ãģĭãĤĭ": 3783,
      "Ġpap": 3784,
      "aise": 3785,
      "ãĤĤãģªãģı": 3786,
      "Ã¨mes": 3787,
      "ets": 3788,
      "usÃ©": 3789,
      "Ġsuite": 3790,
      "Ġplut": 3791,
      "äººãģ«": 3792,
      "äººãĤĤ": 3793,
      "äººãĢħ": 3794,
      "ãĤĴå°": 3795,
      "ãĤĴæĦĽ": 3796,
      "Ġcelui": 3797,
      "Ġhaut": 3798,
      "Ãªche": 3799,
      "olu": 3800,
      "ãĤĴçĿĢ": 3801,
      "ãĤĦãģ£ãģŁ": 3802,
      "ãģ¯çĦ¡": 3803,
      "å¹´éĸĵ": 3804,
      "åĩºçĻº": 3805,
      "Ġsimp": 3806,
      "åĳ¼": 3807,
      "ãĥīãĤ¢": 3808,
      "ĠNew": 3809,
      "å¤§ãģª": 3810,
      "çŁ¥ãģ£ãģ¦ãģĦãĤĭ": 3811,
      "Ġcamp": 3812,
      "ãĤ¹ãĥļ": 3813,
      "ĠprÃ©v": 3814,
      "éłĥ": 3815,
      "éĿĴ": 3816,
      "ult": 3817,
      "±ºãģĹãģ¦": 3818,
      "Ġpouvait": 3819,
      "ãĤĴè²·ãģ£ãģŁ": 3820,
      "ĠmaniÃ¨re": 3821,
      "ĠÃ©tudiant": 3822,
      "Ġtrouver": 3823,
      "æ®µ": 3824,
      "Ġdocteur": 3825,
      "çŃĶ": 3826,
      "Ġmettre": 3827,
      "æ²»": 3828,
      "ĠarrÃªtÃ©": 3829,
      "èªķçĶŁæĹ¥": 3830,
      "aw": 3831,
      "gÃ©": 3832,
      "ice": 3833,
      "ident": 3834,
      "ji": 3835,
      "pital": 3836,
      "¨ãĥ¼ãĤ¯": 3837,
      "ªåĬĽ": 3838,
      "«l": 3839,
      "½åŃĲ": 3840,
      "Â»": 3841,
      "ç«": 3842,
      "ç®": 3843,
      "èµ¤": 3844,
      "ĠãģŁ": 3845,
      "Ġait": 3846,
      "ĠãĤ¢ãĥ¡ãĥªãĤ«": 3847,
      "Ġãģ¾ãģŁ": 3848,
      "ĸĳ": 3849,
      "Ľ´": 3850,
      "Ġdorm": 3851,
      "Ġcal": 3852,
      "ãģªãģĤ": 3853,
      "erv": 3854,
      "ĠåĪ": 3855,
      "ãģ¨ãģĬ": 3856,
      "Ġvaut": 3857,
      "Ġfont": 3858,
      "ãģłãģ¨æĢĿãģĨ": 3859,
      "ãĤīãģ£ãģŁ": 3860,
      "ork": 3861,
      "ãģ®åĪ": 3862,
      "Ġchans": 3863,
      "Ġchapeau": 3864,
      "Ġparl": 3865,
      "ãģ«å¤§": 3866,
      "Ġgen": 3867,
      "ãģ£ãģ¦ãģĹãģ¾ãģ£ãģŁ": 3868,
      "ãģ©ãģį": 3869,
      "agn": 3870,
      "cient": 3871,
      "äºĭãģĮ": 3872,
      "ĠçĬ¬": 3873,
      "å®¢": 3874,
      "å®ħ": 3875,
      "ãĤ¤ãĤ¿": 3876,
      "ãĤ¤ãĤ®": 3877,
      "ãĤĦãģĻ": 3878,
      "Ġsalle": 3879,
      "Ã©ro": 3880,
      "ãģ§ãģ¯ãģĤãĤĬãģ¾ãģĽãĤĵ": 3881,
      "ãģŃãģ°": 3882,
      "ĠéĿ": 3883,
      "Ġé§ħ": 3884,
      "åĭĿ": 3885,
      "çµ¦": 3886,
      "Ġvoix": 3887,
      "ãģ¯ç§ģãģŁãģ¡": 3888,
      "mÃ©di": 3889,
      "æ³¨æĦı": 3890,
      "çļĦãģ«": 3891,
      "Ġpleut": 3892,
      "Ġrestau": 3893,
      "ç¤¼": 3894,
      "æħ£": 3895,
      "ĠMary": 3896,
      "Ġchauss": 3897,
      "ĠParis": 3898,
      "éĸ¢ä¿Ĥ": 3899,
      "ingt": 3900,
      "å§ĭãĤģãģŁ": 3901,
      "çĶŁãģ¾ãĤĮãģŁ": 3902,
      "ãĤĴå®Ī": 3903,
      "åı¯èĥ½": 3904,
      "ç¦ı": 3905,
      "ãģĮæ¬²ãģĹãģĦ": 3906,
      "»ŀåľ¨": 3907,
      "ãĥ¥ãĥ¼ãĥ¨ãĥ¼ãĤ¯": 3908,
      "ãĤ¤ãĤ®ãĥªãĤ¹": 3909,
      "gn": 3910,
      "hors": 3911,
      "histoire": 3912,
      "lu": 3913,
      "mÃ©e": 3914,
      "run": 3915,
      "¹¿": 3916,
      "½®": 3917,
      "æĨ": 3918,
      "éĺ": 3919,
      "Ġ:": 3920,
      "ĭĽ": 3921,
      "ĽæĪĲ": 3922,
      "łĶ": 3923,
      "ãģ¯ãģĿãģ®": 3924,
      "Ġpan": 3925,
      "Ġsy": 3926,
      "Ġsil": 3927,
      "ãģĹãĤĩ": 3928,
      "ãģĹãģªãģĳãĤĮãģ°ãģªãĤīãģªãģĦ": 3929,
      "Ġmur": 3930,
      "ãĤĭãģĭ": 3931,
      "ãģ¨ãģĭ": 3932,
      "ç§ģãģ«": 3933,
      "ãģĨãĤĵ": 3934,
      "iles": 3935,
      "Ġni": 3936,
      "Ġnum": 3937,
      "äº¡": 3938,
      "ãģ¯åĪ": 3939,
      "ĠparlÃ©": 3940,
      "ãĤĴèĢ": 3941,
      "ä»¶": 3942,
      "ãĤĴæĢĿ": 3943,
      "agÃ©": 3944,
      "ãģ¯æ¯": 3945,
      "å¤±": 3946,
      "è¡Įãģ£ãģŁ": 3947,
      "Ġremp": 3948,
      "Ġrepr": 3949,
      "ãģ«æĢĿ": 3950,
      "ĠãģĿãģ®ç": 3951,
      "Ġtemp": 3952,
      "onsieur": 3953,
      "ãĤ¤ãĤ¹": 3954,
      "æĢĴ": 3955,
      "oupe": 3956,
      "ãģĺãģŁ": 3957,
      "ä¼ļãģĦ": 3958,
      "è¦ĭãģŁ": 3959,
      "çī©ãĤĴ": 3960,
      "æĹ¥æľ¬èªŀ": 3961,
      "ģŀãģĵ": 3962,
      "ĠBeau": 3963,
      "ĠcomplÃ¨": 3964,
      "ĠãģĤãģ®": 3965,
      "ĠÃ©crire": 3966,
      "Ġlieu": 3967,
      "ãĥĭãĥ¥ãĥ¼": 3968,
      "ãģĮçĹĽ": 3969,
      "Ġpleure": 3970,
      "Ġcourt": 3971,
      "ĠKy": 3972,
      "æ¸Ī": 3973,
      "Ġä»ĬæĹ¥ãģ¯": 3974,
      "æľīåĲį": 3975,
      "äºĪå®ļ": 3976,
      "ãģ¹ãģįãģł": 3977,
      "ĠÃ©tudier": 3978,
      "ç½ª": 3979,
      "ĠrÃªve": 3980,
      "å¢ĥ": 3981,
      "èįī": 3982,
      "oÃ«l": 3983,
      "°¡åįĺ": 3984,
      "ĠplutÃ´t": 3985,
      "ub": 3986,
      "ç¾©": 3987,
      "Ġoise": 3988,
      "Ģ¤": 3989,
      "ĲĮ": 3990,
      "Ġpouvez": 3991,
      "Ġlune": 3992,
      "ãģ¦ãĤĭ": 3993,
      "ãģ§åĥį": 3994,
      "Ġdehors": 3995,
      "ãģĮå½¼": 3996,
      "ãģĮé«ĺãģĦ": 3997,
      "Ġlar": 3998,
      "ĠnÃ©": 3999,
      "Ã¨ne": 4000,
      "Ġbout": 4001,
      "inc": 4002,
      "indre": 4003,
      "Ġå½¼ãģ¯èĭ±èªŀ": 4004,
      "ãģ®å®": 4005,
      "æľº": 4006,
      "ĠæĿ¥": 4007,
      "deau": 4008,
      "ĠãĥĻ": 4009,
      "aprÃ¨s": 4010,
      "avons": 4011,
      "è¦ĸ": 4012,
      "riÃ¨re": 4013,
      "ĠNoÃ«l": 4014,
      "ĠãģĿãģĨ": 4015,
      "ãĥ¼ãĥĹ": 4016,
      "Ġprojet": 4017,
      "Ġproduit": 4018,
      "åŃĹ": 4019,
      "ãĤ¤ãĤ¯": 4020,
      "æīį": 4021,
      "Ġins": 4022,
      "æŃĮ": 4023,
      "ï¼ĳï¼Ļ": 4024,
      "Ġfrapp": 4025,
      "ãĤ¯ãĥª": 4026,
      "ä¿Ŀ": 4027,
      "ĠmarchÃ©": 4028,
      "ĠcrÃ©": 4029,
      "ĠBien": 4030,
      "ĠBob": 4031,
      "Ġserait": 4032,
      "ä¹³": 4033,
      "rase": 4034,
      "ada": 4035,
      "Ġfinir": 4036,
      "Ġbras": 4037,
      "ĠReg": 4038,
      "nÃ©es": 4039,
      "Ġtax": 4040,
      "éļĽ": 4041,
      "Ġpensais": 4042,
      "æħĭ": 4043,
      "Ġappris": 4044,
      "ãĤĴè²·ãģĨ": 4045,
      "èŃ·": 4046,
      "ãģĻãģ¹ãģį": 4047,
      "ãģ®æĻĤè¨Ī": 4048,
      "ãĤĴåıĸãĤĬ": 4049,
      "aka": 4050,
      "ãģ£ãģ±": 4051,
      "ĠsuccÃ¨s": 4052,
      "ãĤĴåĪĩ": 4053,
      "ãĤĴçµĤ": 4054,
      "ç©¶": 4055,
      "Ġordin": 4056,
      "Ġpublic": 4057,
      "ĠrÃ©ussir": 4058,
      "łĶç©¶": 4059,
      "ĠBeaucoup": 4060,
      "\".": 4061,
      "iothÃ¨": 4062,
      "mment": 4063,
      "od": 4064,
      "uk": 4065,
      "ze": 4066,
      "åĩ": 4067,
      "ç¥ŀ": 4068,
      "Ġãģķ": 4069,
      "ĠéĽ»è©±": 4070,
      "ķĨ": 4071,
      "ãģ¯ä»Ĭ": 4072,
      "ãģ®ãģ¨ãģĵãĤį": 4073,
      "onde": 4074,
      "Ġsois": 4075,
      "Ġsign": 4076,
      "ãģ«ãģĹãģŁ": 4077,
      "Ġcam": 4078,
      "ãĤĴä¿¡ãģĺ": 4079,
      "ãĤĴéĸī": 4080,
      "ãģ§å½¼": 4081,
      "Ġfour": 4082,
      "ç§ĺ": 4083,
      "ãģıãģ¦": 4084,
      "illÃ©": 4085,
      "Ã¨te": 4086,
      "Ġaugment": 4087,
      "ä½Ļ": 4088,
      "ãģ£ãģ¦ãģıãģłãģķãģĦ": 4089,
      "cept": 4090,
      "Ġç§ģãģ¯ä»Ĭ": 4091,
      "ãĤĴåŃ¦": 4092,
      "Ġpourrait": 4093,
      "ãĤıãģĭãĤīãģªãģĦ": 4094,
      "Ġsept": 4095,
      "ĠAtt": 4096,
      "amour": 4097,
      "ĠrÃ©c": 4098,
      "olog": 4099,
      "æīķ": 4100,
      "univers": 4101,
      "ĠãĤ±": 4102,
      "Ġem": 4103,
      "Ġargent": 4104,
      "Ġarrive": 4105,
      "Ġè²": 4106,
      "ãģ®éĿ": 4107,
      "bliothÃ¨": 4108,
      "oyÃ©": 4109,
      "Ġå½¼ãģ¯å¤": 4110,
      "ãģ¯ãĥĨ": 4111,
      "ãģĮæĤªãģĦ": 4112,
      "å½¢": 4113,
      "Ġdisp": 4114,
      "æĸ¹ãģĮãģĦãģĦ": 4115,
      "Ġferais": 4116,
      "iÃ¨me": 4117,
      "ĠmÃ©dic": 4118,
      "ãĤĴè¨ª": 4119,
      "æľĿé£Ł": 4120,
      "Ġvisite": 4121,
      "éĻįãĤĬ": 4122,
      "æľ¬å½ĵãģ«": 4123,
      "Ġjaponaise": 4124,
      "ĠmusÃ©e": 4125,
      "Ġmanque": 4126,
      "intention": 4127,
      "æļĩ": 4128,
      "Ġhabite": 4129,
      "ãģ®çµµ": 4130,
      "äºĭæķħãģ§": 4131,
      "Ġãģ©ãģĨãģĹãģ¦": 4132,
      "ãģ«ä¹ĹãĤĬ": 4133,
      "ĠvÃ©cu": 4134,
      "ç¾İãģĹãģĦ": 4135,
      "...": 4136,
      "¹¸ãģĽ": 4137,
      "ãģĨãģ¾ãģı": 4138,
      "ĠbibliothÃ¨": 4139,
      "Ġmaladie": 4140,
      "ãĤ¤ãĤ¿ãĥªãĤ¢": 4141,
      "tres": 4142,
      "uer": 4143,
      "èı": 4144,
      "ĠãĤĦ": 4145,
      "Ġãģ¡ãĤĩãģ£ãģ¨": 4146,
      "Ģè¡Į": 4147,
      "ĩ¸": 4148,
      "ĭ¦": 4149,
      "Ĺè«ĩ": 4150,
      "ãģ¯ãģ¾ãģł": 4151,
      "ĠdÃ¨s": 4152,
      "Ġdos": 4153,
      "ãģĹãĤĪãģĨ": 4154,
      "Ġmour": 4155,
      "Ġmoy": 4156,
      "ãģ§ãģĤ": 4157,
      "ãģ¨è¨Ģ": 4158,
      "ĠJane": 4159,
      "Ġå½¼ãģ«": 4160,
      "ãģĨãĤĮ": 4161,
      "ãģĿãģ®è": 4162,
      "ustr": 4163,
      "ãģķãģª": 4164,
      "ĠTon": 4165,
      "ãģ¤ãģį": 4166,
      "ãĤĴæ¥½": 4167,
      "ãĤģãĤĵ": 4168,
      "ãģĻãĤĭãģ¨": 4169,
      "ĠreÃ§u": 4170,
      "Ġãģĵãģ®ç": 4171,
      "æ°ı": 4172,
      "ĠDis": 4173,
      "Ġyens": 4174,
      "ãģ«çµ": 4175,
      "ãĥĥãĥī": 4176,
      "ãĥĥãĥĹ": 4177,
      "ãģ«è³": 4178,
      "Ġdevrait": 4179,
      "ãģ©ãģĨãģŀ": 4180,
      "illage": 4181,
      "ä¿®": 4182,
      "ãĥ¬ãĥ³": 4183,
      "ç´ł": 4184,
      "çµĤãĤı": 4185,
      "Ġvoitures": 4186,
      "ãĥ¡ãĥ©": 4187,
      "ãģłãģĳãģ§": 4188,
      "ãģĮèµ·ãģĵ": 4189,
      "ĠJaponais": 4190,
      "Ġmains": 4191,
      "Ġfera": 4192,
      "Ġcontent": 4193,
      "Ġcommence": 4194,
      "ãģ¯ä½ķãģ§ãģĻãģĭ": 4195,
      "ãģıãĤĮãģ¾ãģĽãĤĵãģĭ": 4196,
      "Ġphrase": 4197,
      "äº¬éĥ½": 4198,
      "æĥ³": 4199,
      "ãĤ±ãĥ¼ãĤŃ": 4200,
      "Ġpouvais": 4201,
      "Ġsouh": 4202,
      "000": 4203,
      "Ġrire": 4204,
      "ãģ«ä½ıãĤĵãģ§ãģĦãģ¾ãģĻ": 4205,
      "ãģ«åĲĳ": 4206,
      "çŃī": 4207,
      "è©¦åĲĪ": 4208,
      "èµ·ãģį": 4209,
      "Ġterm": 4210,
      "Ġrentrer": 4211,
      "ãģĮãģĦãģªãģĦ": 4212,
      "ãĤĴæĽ¸ãģĦãģŁ": 4213,
      "Ġsenti": 4214,
      "ĠimmÃ©di": 4215,
      "éģłãģı": 4216,
      "ãĤĴåĲ¸": 4217,
      "Ġdiscours": 4218,
      "ĠdÃ©cidÃ©": 4219,
      "ĠnumÃ©ro": 4220,
      "ĠRegarde": 4221,
      "ĠbibliothÃ¨que": 4222,
      "achet": 4223,
      "atement": 4224,
      "hi": 4225,
      "pl": 4226,
      "¨ª": 4227,
      "ç¸": 4228,
      "è¼": 4229,
      "Ġ6": 4230,
      "Ġéĩĳ": 4231,
      "Ġï¼ĳï¼Ĳ": 4232,
      "Ķ¿": 4233,
      "ĺłçĶ»": 4234,
      "ãģ¯ãĤĦ": 4235,
      "Ġdents": 4236,
      "ãģĦãģ¦ãģĦ": 4237,
      "Ġpous": 4238,
      "espe": 4239,
      "ĠlÃ¨ve": 4240,
      "ãģ®ãĤĤãģ®": 4241,
      "Ġcir": 4242,
      "ãĤĴãģĦ": 4243,
      "Ġmens": 4244,
      "Ġå®¶": 4245,
      "ãģ£ãģį": 4246,
      "ãģĻãģ®": 4247,
      "ãģĮä¸Ģçķª": 4248,
      "ãģĭãģĹ": 4249,
      "ãģ¨çµĲå©ļ": 4250,
      "ĠvÃªte": 4251,
      "ĠJim": 4252,
      "ãģ¾ãģ¾": 4253,
      "Ġpare": 4254,
      "Ġpauvre": 4255,
      "oite": 4256,
      "Ġfo": 4257,
      "ãģıãĤĮãģªãģĦ": 4258,
      "Ġbo": 4259,
      "arrive": 4260,
      "ãģĹãģŁãĤī": 4261,
      "uses": 4262,
      "ormi": 4263,
      "Ġå½¼ãģ¯ãģĿãģ®å": 4264,
      "ĠprÃªt": 4265,
      "antes": 4266,
      "ãĤĴè§£": 4267,
      "ãģ«åĽ": 4268,
      "Ġgard": 4269,
      "äººãģ®å": 4270,
      "ãĤĴæ±Ĥ": 4271,
      "èªį": 4272,
      "ãģ®æģ¯åŃĲ": 4273,
      "ï¼ŁãĢį": 4274,
      "ãģĹãģ¦ãģĬ": 4275,
      "ãĤıãĤĬ": 4276,
      "amment": 4277,
      "ĠçĻ": 4278,
      "ĠÃ©chec": 4279,
      "ãģ¯çŁ¥": 4280,
      "Ġinst": 4281,
      "èĩªåĭķ": 4282,
      "èĩªèº«": 4283,
      "ä¼ļãģ£ãģŁ": 4284,
      "å¥½ãģįãģł": 4285,
      "ãĥīãĤ¤ãĥĦ": 4286,
      "ãĤ¿ãĤ¤": 4287,
      "ï¼Ĵï¼Ĳ": 4288,
      "autres": 4289,
      "æ³£": 4290,
      "çĻ½ãģĦ": 4291,
      "Ġattendre": 4292,
      "°ıèª¬": 4293,
      "ãĥĳãĥ³": 4294,
      "ĠrestÃ©": 4295,
      "ħ¨éĥ¨": 4296,
      "æ¸¯": 4297,
      "åĢ¤": 4298,
      "ression": 4299,
      "ĠtombÃ©": 4300,
      "ãĤ§ãĥ¼ãĥ³": 4301,
      "ç¬¬": 4302,
      "èµ·ãģĵ": 4303,
      "Ġmauvaise": 4304,
      "Ġdroit": 4305,
      "Ġensemble": 4306,
      "ãĤĴæİ¢": 4307,
      "Ġsauf": 4308,
      "ãģ«å¯¾ãģĹãģ¦": 4309,
      "é¡ĺãģĦãģĹãģ¾ãģĻ": 4310,
      "Ġbaseball": 4311,
      "ãĤĴåĳ¼": 4312,
      "ºĸåĤĻ": 4313,
      "Ġchanson": 4314,
      "Ġgenre": 4315,
      "ãĤĴèĢĥ": 4316,
      "ĠcomplÃ¨tement": 4317,
      "ĠimmÃ©diatement": 4318,
      "icul": 4319,
      "oque": 4320,
      "ru": 4321,
      "ves": 4322,
      "£æŃ©": 4323,
      "æ§ĭ": 4324,
      "æ¶Ī": 4325,
      "çĹħæ°Ĺ": 4326,
      "èĬ±": 4327,
      "ĠW": 4328,
      "ĠãĤ¹": 4329,
      "Īæ¥Ń": 4330,
      "Ĭ¸": 4331,
      "ĭ¥ãģĦ": 4332,
      "į²": 4333,
      "ŃãģĦ": 4334,
      "ãģ¯ãģĦãģ¤ãĤĤ": 4335,
      "ãģ¯ãģĤãĤĬãģ¾ãģĻãģĭ": 4336,
      "onte": 4337,
      "ãģªãģľ": 4338,
      "ãĤĴãģĹãģ¦ãģĦãģŁ": 4339,
      "Ġåľ°": 4340,
      "ann": 4341,
      "Ġvingt": 4342,
      "Ġfit": 4343,
      "ãĤĬãģ§": 4344,
      "äºĶ": 4345,
      "arriv": 4346,
      "ĠLaisse": 4347,
      "Ġprends": 4348,
      "ãģ¾ãģĻãĤĪ": 4349,
      "æľª": 4350,
      "atis": 4351,
      "ä½į": 4352,
      "ä»²": 4353,
      "ãģ®æīĭ": 4354,
      "åĪĹè»Ĭ": 4355,
      "ãģ¯æĸ": 4356,
      "Ġdesc": 4357,
      "ãģ«æ³": 4358,
      "ãĤįãģĦ": 4359,
      "ĠçĽ®": 4360,
      "éĢĢ": 4361,
      "éĢĶ": 4362,
      "ellement": 4363,
      "èĢ³": 4364,
      "åħ·": 4365,
      "ãģ»ãĤĵ": 4366,
      "Ã§a": 4367,
      "æĺłçĶ»": 4368,
      "åº§": 4369,
      "åĬł": 4370,
      "å±Ģ": 4371,
      "ĠVeuille": 4372,
      "æīĭä¼Ŀ": 4373,
      "ãģ¯èĭ±èªŀ": 4374,
      "ĠBill": 4375,
      "é£Łãģ¹çī©": 4376,
      "çŁ¥ãĤīãģĽ": 4377,
      "Ġvieille": 4378,
      "ĠÃ©cl": 4379,
      "æĽ¸é¤¨": 4380,
      "Ġregarde": 4381,
      "ä»¥å¤ĸ": 4382,
      "ãĥ£ãĥ³": 4383,
      "ĠSavez": 4384,
      "Ġcarte": 4385,
      "Ġãģĵãģĵãģ§": 4386,
      "ãģĹãģĭãģĹ": 4387,
      "é¢¨åĳĤ": 4388,
      "Ġpolit": 4389,
      "ãĤĴèģŀãģĦãģ¦": 4390,
      "cusez": 4391,
      "æĶ¿": 4392,
      "ç¨®": 4393,
      "Ġsalaire": 4394,
      "ãĥļãĥ³": 4395,
      "Ġassis": 4396,
      "ºĢè¶³": 4397,
      "quipe": 4398,
      "Ġroman": 4399,
      "å¿ĻãģĹãģĦ": 4400,
      "ĩ¸åĳ½": 4401,
      "ĠVeuillez": 4402,
      "lot": 4403,
      "ps": 4404,
      "ris": 4405,
      "ton": 4406,
      "¡¨": 4407,
      "¼Ł": 4408,
      "½¢": 4409,
      "åĢĻ": 4410,
      "ç¯": 4411,
      "çĨ±": 4412,
      "èĤī": 4413,
      "Ġw": 4414,
      "ĥĮ": 4415,
      "Ī¦äºī": 4416,
      "ãĢĤãĢį": 4417,
      "ãģ¯èª°": 4418,
      "ãģĦãģª": 4419,
      "Ġlente": 4420,
      "ãģ®ä¸Ģ": 4421,
      "ãĤĴä¸Ģ": 4422,
      "Ġmill": 4423,
      "ãģ§ãģªãģĦ": 4424,
      "Ġåĩº": 4425,
      "ĠåħĪ": 4426,
      "Ġty": 4427,
      "Ġtre": 4428,
      "ãģĭãĤĮ": 4429,
      "ãģĭãģªãģĭãģ£ãģŁ": 4430,
      "ãģ¨ä¸Ģç·Ĵ": 4431,
      "Ġvin": 4432,
      "Ġverre": 4433,
      "ãģĵãģ®è": 4434,
      "ç§ģãģĮ": 4435,
      "Ġjol": 4436,
      "Ġble": 4437,
      "äººçĶŁ": 4438,
      "cep": 4439,
      "ãĤĴåĬ©": 4440,
      "ãĤĴæį": 4441,
      "ãĤĴæ¶Ī": 4442,
      "Ġpourrais": 4443,
      "ales": 4444,
      "è¨¼": 4445,
      "ãģ¯æ°´": 4446,
      "ãĤıãģĸ": 4447,
      "ãĤıãģŁãģĹ": 4448,
      "è¡Įãģį": 4449,
      "ãģĭãĤīãģªãģĭãģ£ãģŁ": 4450,
      "ossible": 4451,
      "åŃĺ": 4452,
      "æĻĤä»£": 4453,
      "æĸ°": 4454,
      "ĠDes": 4455,
      "åħī": 4456,
      "ĠãĤ¯": 4457,
      "ĠãģĤãģªãģŁãģ®": 4458,
      "Ġdevons": 4459,
      "å¼ı": 4460,
      "çµĲ": 4461,
      "Ġmarch": 4462,
      "å½¹": 4463,
      "èĩªåĪĨãģ®": 4464,
      "ick": 4465,
      "ãģłãģĳãģ¾ãģĻãģĭ": 4466,
      "ãĥĲãĤ³": 4467,
      "Ġç§ģãģ¯å½¼ãģĮ": 4468,
      "Ġarriver": 4469,
      "parÃ©": 4470,
      "Ġdifficul": 4471,
      "æĦıåĳ³": 4472,
      "Ġconstr": 4473,
      "çĶ·ãģ®åŃĲ": 4474,
      "é£²ãģ¿": 4475,
      "ãģĮå«Į": 4476,
      "ãģĽãģ¦ãģıãģłãģķãģĦ": 4477,
      "ĠChaque": 4478,
      "æĻ´": 4479,
      "æŃ£çĽ´": 4480,
      "ãģ£ãģ±ãģĦ": 4481,
      "Ġrepas": 4482,
      "æ¯İæĹ¥": 4483,
      "äº¤éĢļ": 4484,
      "ĠãģĻãģ¿ãģ¾ãģĽãĤĵ": 4485,
      "ãģ®æĦıè¦ĭ": 4486,
      "ãĥĽãĥĨãĥ«": 4487,
      "ĠExcusez": 4488,
      "çĶŁæĩ¸åĳ½": 4489,
      "å©¦": 4490,
      "Ġrestaurant": 4491,
      "cte": 4492,
      "dit": 4493,
      "¥ĸ": 4494,
      "°å¢ĥ": 4495,
      "ºŃ": 4496,
      "åĿ": 4497,
      "æŁ": 4498,
      "çĬ¬": 4499,
      "é¹¿": 4500,
      "ĠæľĢè¿ĳ": 4501,
      "Įĩ": 4502,
      "ãģĦãģ®": 4503,
      "ãģ®ãĤĪãģĨãģª": 4504,
      "ĠamÃ©ric": 4505,
      "ãĤĴãģĭ": 4506,
      "ãĤĴãģĹãģ¾ãģĻ": 4507,
      "ãĤĴéĢģ": 4508,
      "ãģ¦ãģŁ": 4509,
      "ãģĹãģ¾ãģĻãģĭ": 4510,
      "Ġbas": 4511,
      "Ġbons": 4512,
      "llemand": 4513,
      "ãģķãģªãģĦ": 4514,
      "ãģ®å¾Į": 4515,
      "ato": 4516,
      "Ġchats": 4517,
      "ãģĪãģ¾ãģĻãģĭ": 4518,
      "ãĤĴæĦŁ": 4519,
      "alis": 4520,
      "è¦ı": 4521,
      "è¡Įåĭķ": 4522,
      "quelle": 4523,
      "Ġavion": 4524,
      "ãģ®çŁ¥": 4525,
      "Ġç©º": 4526,
      "Ġproche": 4527,
      "uel": 4528,
      "ĠannÃ©es": 4529,
      "å¹³": 4530,
      "ãģ«ãģªãģ£ãģ¦ãģĦãĤĭ": 4531,
      "èĩªçĶ±": 4532,
      "ãĤĵãģłãĤĪ": 4533,
      "ãĤĵãģłãģĳãģ©": 4534,
      "Ã´le": 4535,
      "éĻ½": 4536,
      "ãĤ«ãĥ¡ãĥ©": 4537,
      "ãģĹãģ¦ãģĦãģªãģĦ": 4538,
      "çµĤ": 4539,
      "å¯Ĩ": 4540,
      "ãĤ¹ãĥĶ": 4541,
      "æľĢå¾Į": 4542,
      "Ġç§ģãģ¯å½¼ãģ«": 4543,
      "Ġvoulez": 4544,
      "Ġdemanda": 4545,
      "Ġamou": 4546,
      "ãģ£ãģ¦ãĤĤãĤī": 4547,
      "åĢį": 4548,
      "ãĤ±ãĥĥãĥĪ": 4549,
      "Ġrevenu": 4550,
      "Ġcoll": 4551,
      "Ġrappe": 4552,
      "Ġpolici": 4553,
      "ä»ĸäºº": 4554,
      "Ġmariage": 4555,
      "ãģ«ãģªãĤĬãģŁãģĦ": 4556,
      "ãĤĴå¤±": 4557,
      "ãĤĨãĤĭ": 4558,
      "Ġimportante": 4559,
      "ĠlaissÃ©": 4560,
      "ĠÃ©chou": 4561,
      "Ġprintemps": 4562,
      "Ġendroit": 4563,
      "Ġplupart": 4564,
      "acheter": 4565,
      "cation": 4566,
      "elles": 4567,
      "ger": 4568,
      "grÃ©": 4569,
      "mat": 4570,
      "oÃ»": 4571,
      "vre": 4572,
      "åģ": 4573,
      "ç³": 4574,
      "çģ«": 4575,
      "çĬ¶": 4576,
      "éįµ": 4577,
      "ĠãģĦãģĦ": 4578,
      "Ġä¿º": 4579,
      "Ĥ·": 4580,
      "ı¡": 4581,
      "Ġdange": 4582,
      "ãģĦãģĮ": 4583,
      "ãĥ¦": 4584,
      "Ã©v": 4585,
      "Ġsatis": 4586,
      "ãģ«ãģ¡": 4587,
      "ãģ«è©±": 4588,
      "Ġcit": 4589,
      "ãģĹãģªãģĦãģ§": 4590,
      "ĠåħĪçĶŁ": 4591,
      "ãģĻãģ°": 4592,
      "ãģĮé³´": 4593,
      "Ġver": 4594,
      "ĠIn": 4595,
      "ãĤĬãģ¾ãģĹãģŁ": 4596,
      "ãĤĬåĲĪ": 4597,
      "Ġrh": 4598,
      "Ġrac": 4599,
      "Ġresp": 4600,
      "aites": 4601,
      "ãģ®åĳ": 4602,
      "ãģ®åħĪçĶŁ": 4603,
      "ãģĳãģ¦ãģĦãĤĭ": 4604,
      "Ġtromp": 4605,
      "Ġpard": 4606,
      "ãģ«åº§": 4607,
      "ãģĪãĤĭãģ®": 4608,
      "ãĤĴåħ¥": 4609,
      "irent": 4610,
      "ãģ¯æ°Ĺ": 4611,
      "è¦³": 4612,
      "ĠPeu": 4613,
      "ĠPas": 4614,
      "ãģ«æīĭç´Ļ": 4615,
      "ãģ«æĪ»": 4616,
      "ĠdÃ©m": 4617,
      "ãģ°ãĤĵ": 4618,
      "Ġtelle": 4619,
      "ãĥ¼ãĥĪãĥ": 4620,
      "ä½ķãģ§ãĤĤ": 4621,
      "éĽĳ": 4622,
      "prit": 4623,
      "prise": 4624,
      "è¨Ģèªŀ": 4625,
      "å®ĺ": 4626,
      "ãĤĴçĻº": 4627,
      "ables": 4628,
      "éĸĵãģ«åĲĪ": 4629,
      "Ġfaites": 4630,
      "ĠDÃ©p": 4631,
      "ĠãĤ«": 4632,
      "ĠãĤ¿": 4633,
      "ãģ§ãģįãģ¾ãģĻãģĭ": 4634,
      "dio": 4635,
      "ope": 4636,
      "onnement": 4637,
      "åĩºæĿ¥": 4638,
      "Ġèµ¤": 4639,
      "bles": 4640,
      "ĠOui": 4641,
      "Ġdevenu": 4642,
      "ãģĵãģ¨ãģĮãģ§ãģįãģªãģĦ": 4643,
      "å¼Ł": 4644,
      "åŃ¦çĶŁ": 4645,
      "å¤§ãģįãģª": 4646,
      "Ġä»ĬæľĿ": 4647,
      "terre": 4648,
      "ãĥĨãĥ¼ãĥĸãĥ«": 4649,
      "ãģĹãĤĩãģĨãģĭ": 4650,
      "ãĤ¸ãĥ£": 4651,
      "æĪ¦": 4652,
      "lace": 4653,
      "æľĢåĪĿ": 4654,
      "Ġå¤©": 4655,
      "ancer": 4656,
      "éģķãģĨ": 4657,
      "Ġcommun": 4658,
      "Ġclub": 4659,
      "ifique": 4660,
      "ãĥģãĥ¼ãĥł": 4661,
      "ï¼ĳï¼Ĳï¼Ĳ": 4662,
      "éģĵè·¯": 4663,
      "Ġvisage": 4664,
      "éĢ±æľ«": 4665,
      "ĠHier": 4666,
      "åĮ¹": 4667,
      "åĮ»èĢħ": 4668,
      "åĢĴ": 4669,
      "æĥĳ": 4670,
      "ĠproblÃ¨mes": 4671,
      "ãģ¤ãĤĤãĤĬãģł": 4672,
      "åĲįåīį": 4673,
      "¥ãģĦãģ§": 4674,
      "Ġhabitu": 4675,
      "å·Ŀ": 4676,
      "Ġanimal": 4677,
      "ãĥĩãĤ£": 4678,
      "Ġsecret": 4679,
      "çĶŁãģ¾ãĤĮ": 4680,
      "é»Ļ": 4681,
      "éľĩ": 4682,
      "Ġreconn": 4683,
      "gleterre": 4684,
      "ĠcÃ©lÃ¨": 4685,
      "Ġbanque": 4686,
      "Ġintelligent": 4687,
      "ĠnÃ©cessaire": 4688,
      "Ġdormir": 4689,
      "ĠmÃ©dica": 4690,
      "ĠvÃªtements": 4691,
      "Ġfoot": 4692,
      "ĠboÃ®": 4693,
      "Ġlentement": 4694,
      "avez": 4695,
      "mit": 4696,
      "¤į": 4697,
      "µģ": 4698,
      "Ã¯": 4699,
      "åŁ": 4700,
      "è±": 4701,
      "èĲ½ãģ¡": 4702,
      "Ġ4": 4703,
      "Ġãģ¤": 4704,
      "Ġeux": 4705,
      "ĠéĽ¨": 4706,
      "Ġãģ©ãĤĵãģª": 4707,
      "ĥı": 4708,
      "Ĭł": 4709,
      "įå¯¾": 4710,
      "Ĳæ¡Ī": 4711,
      "ĻçĲĨ": 4712,
      "ļçī©": 4713,
      "ĽĹ": 4714,
      "ãĤ©": 4715,
      "ãĤ¼": 4716,
      "ãģĦçī©": 4717,
      "aite": 4718,
      "enne": 4719,
      "enait": 4720,
      "Ġsoin": 4721,
      "Ġscient": 4722,
      "ãģ«ãģĦãģ¾ãģĻ": 4723,
      "Ġatte": 4724,
      "ãĤĴãģªãģı": 4725,
      "ãĤĴéģĭè»¢": 4726,
      "ĠåŃ¦æł¡": 4727,
      "Ġtasse": 4728,
      "ãģĮãĤĪãģĦ": 4729,
      "ãģĮãģĤãĤĬãģ¾ãģĻãģĭ": 4730,
      "ãģĭãģ©ãģĨãģĭ": 4731,
      "oie": 4732,
      "ãĤīãģªãģĭãģ£ãģŁ": 4733,
      "Ġnage": 4734,
      "Ġress": 4735,
      "ines": 4736,
      "indi": 4737,
      "Ġå½¼ãģ¯æ": 4738,
      "Ġå½¼ãģ¯ä»Ĭ": 4739,
      "ĠConn": 4740,
      "Ġchois": 4741,
      "Ġchiens": 4742,
      "ãĤĴæķ": 4743,
      "Ġæ¬¡": 4744,
      "éģ©": 4745,
      "ãģĹãģ¦ãģıãĤĮãģŁ": 4746,
      "ãģ¯æĿ¥": 4747,
      "å¤¢": 4748,
      "rib": 4749,
      "é£¯": 4750,
      "ĠÃ©lÃ¨": 4751,
      "å®³": 4752,
      "ĠDem": 4753,
      "ãģ«ãģªãģ£ãģ¦": 4754,
      "ãģ§ãģįãģŁ": 4755,
      "ãģ®è²": 4756,
      "ãĥ«ãĥķ": 4757,
      "æ°ĹåĪĨ": 4758,
      "ĠsiÃ¨": 4759,
      "ãĤ¯ãĤ·ãĥ¼": 4760,
      "ãģ¦ãĤĤãĤī": 4761,
      "Ġaider": 4762,
      "iller": 4763,
      "ãĥ¬ãĤ¹": 4764,
      "ä¾ĭ": 4765,
      "çµ±": 4766,
      "çµ¶": 4767,
      "ablement": 4768,
      "å¯Ħ": 4769,
      "Ġcadeau": 4770,
      "Ń¦å¯Ł": 4771,
      "areil": 4772,
      "ĠÃ©conom": 4773,
      "ĠarrivÃ©e": 4774,
      "Ġ100": 4775,
      "éģħãĤĮãģŁ": 4776,
      "Ġheureuse": 4777,
      "Ġvoulais": 4778,
      "è¡Ĩ": 4779,
      "Ġposte": 4780,
      "Ġsouviens": 4781,
      "ãģĹãģıãģªãģĦ": 4782,
      "è³ª": 4783,
      "è³ªåķı": 4784,
      "å¾ħãģ¡": 4785,
      "ãģĻãģİãģ¦": 4786,
      "ãĥĶãĤ¢ãĥİ": 4787,
      "Ġcorps": 4788,
      "Ġemprun": 4789,
      "ãģ«å½¼å¥³": 4790,
      "ãĤĴå¼¾": 4791,
      "Ġdroite": 4792,
      "ãĤĨãģ£ãģıãĤĬ": 4793,
      "å°ıèª¬": 4794,
      "ä¾¡åĢ¤": 4795,
      "ĠãģªãĤĵãģ§": 4796,
      "ãģ©ãĤĮãģıãĤīãģĦ": 4797,
      "Ġplaisir": 4798,
      "ĠintÃ©ressant": 4799,
      "hÃ´pital": 4800,
      "Ġvoulait": 4801,
      "ĠFrance": 4802,
      "ĠDÃ©solÃ©": 4803,
      "ĠKyoto": 4804,
      "ãģ«è³ĽæĪĲ": 4805,
      "èĩªåĭķè»Ĭ": 4806,
      "ļçī©é¤¨": 4807,
      "cÃ©": 4808,
      "ts": 4809,
      "tant": 4810,
      "³¥": 4811,
      "³¶": 4812,
      "³ķ": 4813,
      "æº": 4814,
      "éı¡": 4815,
      "ĠæĹ©ãģı": 4816,
      "ļĳ": 4817,
      "ãģ¯ä¸ĸçķĮ": 4818,
      "ãģ®ãģĤãĤĭ": 4819,
      "ãģ®äºĭ": 4820,
      "ãģ«ãģĦãģŁ": 4821,
      "Ġafin": 4822,
      "Ġtient": 4823,
      "ãģĮãģĬ": 4824,
      "ãģĮè©±": 4825,
      "ãģĭãģĴ": 4826,
      "Ġlac": 4827,
      "Ġlaquelle": 4828,
      "ãĤĵãģĶ": 4829,
      "ãĤĬãģªãģķãģĦ": 4830,
      "ãĤĬãĤĵãģĶ": 4831,
      "ãģįãģ£ãģ¨": 4832,
      "ĠrÃ¨": 4833,
      "ãĤĪãĤį": 4834,
      "ãģ®åĽ½": 4835,
      "Ġprit": 4836,
      "Ġchanger": 4837,
      "ãĤĴèĩ": 4838,
      "ãģ«å¼": 4839,
      "cha": 4840,
      "ãģĵãģ¨ãģł": 4841,
      "ãģĵãģ¨ãģ§ãģĻ": 4842,
      "ãĤĴå£": 4843,
      "ãĤĴåį": 4844,
      "Ġæ°Ĺ": 4845,
      "èª¤": 4846,
      "ãģ®æ°Ĺ": 4847,
      "ãģ®æīĭç´Ļ": 4848,
      "ãģ¯æŃ£": 4849,
      "rible": 4850,
      "ĠãģĿãģĵ": 4851,
      "ĠdÃ©rang": 4852,
      "andonn": 4853,
      "Ġavis": 4854,
      "ä¸ĢçĶŁæĩ¸åĳ½": 4855,
      "orts": 4856,
      "æĢ¥": 4857,
      "åı²": 4858,
      "ãģ«çŃĶ": 4859,
      "ution": 4860,
      "ãģ®é¡Ķ": 4861,
      "ãĤ¯ãĥ©ãĤ¹": 4862,
      "ãģ¦ãĤĤãģĦãģĦ": 4863,
      "ãģ«èĪ": 4864,
      "æĺŁ": 4865,
      "åºŃ": 4866,
      "æĿ¥ãģ¦": 4867,
      "ãģĴãĤĭ": 4868,
      "ãģ¯ãĥķ": 4869,
      "Ġcroire": 4870,
      "ãģ¾ãģ§ãģ«": 4871,
      "iÃ¨rement": 4872,
      "Ġservi": 4873,
      "Ġcomporte": 4874,
      "é£Łãģ¹ãĤĭ": 4875,
      "ä¹ħ": 4876,
      "ainement": 4877,
      "Ġsembl": 4878,
      "Ġautour": 4879,
      "ãģ®äººãģĮ": 4880,
      "ãģĻãģĲãģ«": 4881,
      "æĮģãģ£ãģ¦": 4882,
      "Ġface": 4883,
      "åĨĬ": 4884,
      "ĹħéĻ¢": 4885,
      "Ġfemmes": 4886,
      "ĠChine": 4887,
      "ĠcinÃ©m": 4888,
      "ãģ®çµĲæŀľ": 4889,
      "æķĻãģĪãģ¦": 4890,
      "ãģ«æĿ¥ãģŁ": 4891,
      "ĠäººçĶŁ": 4892,
      "é¢¨éĤª": 4893,
      "ĠtravaillÃ©": 4894,
      "¿ĥéħį": 4895,
      "ĠdÃ©teste": 4896,
      "ĠÃ©tudie": 4897,
      "ĠÃ©trange": 4898,
      "ãģķãģĽãģŁ": 4899,
      "Ġsucre": 4900,
      "é³¥": 4901,
      "ç½®": 4902,
      "ãģ¯åħ¨ãģı": 4903,
      "Ġãģªãģľ": 4904,
      "å¹¸ãģĽ": 4905,
      "ĠprÃ©senter": 4906,
      "ĠãĥĲãĤ¹": 4907,
      "ĠblessÃ©": 4908,
      "ä¼¼ãģ¦ãģĦãĤĭ": 4909,
      "è¬Ŀ": 4910,
      "ĠgÃ¢teau": 4911,
      "Ġenviron": 4912,
      "awa": 4913,
      "Ġchaussures": 4914,
      "ãĥĭãĥ¥ãĥ¼ãĤ¹": 4915,
      "Ĭ¸è¡ĵ": 4916,
      "Ġrhume": 4917,
      "ĠboÃ®te": 4918,
      "ĠcinÃ©ma": 4919,
      "iment": 4920,
      "ute": 4921,
      "¦ĸ": 4922,
      "®±": 4923,
      "¶Ĭ": 4924,
      "¹ä»ĭ": 4925,
      "Ġ;": 4926,
      "Ġï¼Ĵ": 4927,
      "Ġä»ķäºĭ": 4928,
      "ĠãģĻãģ¹ãģ¦": 4929,
      "Ġãģ¿ãĤĵãģª": 4930,
      "Ĥĺ": 4931,
      "ī¹": 4932,
      "ĭĿ": 4933,
      "Į¯": 4934,
      "ãģ¯ãģĤ": 4935,
      "Ġpai": 4936,
      "Ġsk": 4937,
      "Ġsomme": 4938,
      "Ġsitu": 4939,
      "ãģ«ãģĹãģ¦ãģĦãĤĭ": 4940,
      "ĠclÃ©": 4941,
      "ãģªãĤĬãģ¾ãģĽãĤĵ": 4942,
      "ãĤĴãģĤ": 4943,
      "ãģĹãģ¾ãģĹãģŁãģĭ": 4944,
      "ãģĹãĤĪãģĨãģ¨": 4945,
      "Ġtot": 4946,
      "ãģĮãģŁãģıãģķãĤĵ": 4947,
      "ãģĭçŁ¥": 4948,
      "ãģ¨ãģĪ": 4949,
      "Ġvillage": 4950,
      "ãģ¾ãģķ": 4951,
      "ãģĨãģ¨": 4952,
      "ãģĨãģĿ": 4953,
      "ãģıãģ¨": 4954,
      "Ġbut": 4955,
      "ãģ¯åħ": 4956,
      "Ġç§ģãģ«ãģ¯": 4957,
      "ĠLaissez": 4958,
      "Ã©tu": 4959,
      "Ġsuper": 4960,
      "ãģĪãģªãģĭãģ£ãģŁ": 4961,
      "Ġhas": 4962,
      "cier": 4963,
      "Ġsel": 4964,
      "ĠPÃ¨re": 4965,
      "é£¼": 4966,
      "aman": 4967,
      "oles": 4968,
      "ãĤĴç«ĭ": 4969,
      "Ã©rop": 4970,
      "ĠãĤ·": 4971,
      "ãģ§ãģįãģ¾ãģĽãĤĵ": 4972,
      "ãģĵãģ¨ãģĮãģªãģĦ": 4973,
      "ĠaimÃ©": 4974,
      "tÃ©ri": 4975,
      "åĭ¢": 4976,
      "uits": 4977,
      "ãģŁãģĦãģ¦ãģĦ": 4978,
      "ãĥĨãĤ£": 4979,
      "Ġserv": 4980,
      "ãĤ¹ãĥŀ": 4981,
      "ĠãģĤãģ®å": 4982,
      "ãģ¯ç§ģãģĮ": 4983,
      "ĠÃ©cout": 4984,
      "Ġperdre": 4985,
      "åĲĪãĤı": 4986,
      "ãģªãģĳãĤĮãģ°ãģªãĤī": 4987,
      "ĠFaites": 4988,
      "iÃ¨res": 4989,
      "ĠconnaÃ®t": 4990,
      "asser": 4991,
      "Ġpayer": 4992,
      "éļİ": 4993,
      "éļł": 4994,
      "ï¼ķï¼Ĳ": 4995,
      "Ġvoyager": 4996,
      "ĠprÃ©sident": 4997,
      "ç·ļ": 4998,
      "æļ®ãĤī": 4999,
      "é¤Ĭ": 5000,
      "ãģĿãĤĵãģªãģ«": 5001,
      "ç«ĭãģ¡": 5002,
      "ĠYork": 5003,
      "ãĤĴå¼ķãģį": 5004,
      "Ġãĥķãĥ©ãĥ³ãĤ¹èªŀ": 5005,
      "Ġabsolu": 5006,
      "ãģ»ãģĨãģĮãģĦãģĦ": 5007,
      "ĠdiffÃ©rent": 5008,
      "æµģ": 5009,
      "å¤©æ°Ĺ": 5010,
      "ãĤĴè¦ĭãģ¤ãģĳãģŁ": 5011,
      "Ġsupporter": 5012,
      "ĠgagnÃ©": 5013,
      "ĲĨè§£": 5014,
      "ĠæĢ¥": 5015,
      "Ġãĥľãĥĸ": 5016,
      "éĢŁãģıèµ°": 5017,
      "Ġcampagne": 5018,
      "ãĤ¹ãĥļãĤ¤ãĥ³": 5019,
      "åĿĬ": 5020,
      "Ġhasard": 5021,
      "An": 5022,
      "gie": 5023,
      "lic": 5024,
      "rions": 5025,
      "uve": 5026,
      "£°": 5027,
      "¹ĸ": 5028,
      "¼é£Ł": 5029,
      "¿Ģ": 5030,
      "çŁ": 5031,
      "Ġãģ¨ãģ¦ãĤĤ": 5032,
      "Ġãģ©ãģ®": 5033,
      "īĽ": 5034,
      "Ĺĩ": 5035,
      "Ļ¨": 5036,
      "ŁãĤ¹": 5037,
      "ãģ¯ãģªãĤīãģªãģĦ": 5038,
      "Ġpain": 5039,
      "ail": 5040,
      "ãģ®ãģ©": 5041,
      "ãģ®ä¸ĭ": 5042,
      "ãģŁãģ³": 5043,
      "Ġceux": 5044,
      "ãĤĴãģ¿": 5045,
      "erne": 5046,
      "Ġå¿": 5047,
      "ãģĮãģªãģĭãģ£ãģŁ": 5048,
      "Ġviendra": 5049,
      "ãģ¾ãĤĮãģŁ": 5050,
      "Ġfi": 5051,
      "ãĤĮãģ¾ãģĽãĤĵ": 5052,
      "Ġnav": 5053,
      "ãģįãģ®": 5054,
      "Ġrendu": 5055,
      "ara": 5056,
      "ãģ®åĩº": 5057,
      "Ġsuff": 5058,
      "Ġtrait": 5059,
      "iennent": 5060,
      "ĠæĻ": 5061,
      "ãģ¯æ±ºãģĹãģ¦": 5062,
      "ãĤıãģļ": 5063,
      "apa": 5064,
      "ãĥ¼ãĥŃ": 5065,
      "ĠçĮ«": 5066,
      "Ġçªĵ": 5067,
      "éĢł": 5068,
      "åĪĨãģĭãĤīãģªãģĦ": 5069,
      "ettez": 5070,
      "æĻĤè¨Ī": 5071,
      "Ġsame": 5072,
      "åıĹ": 5073,
      "çīĽ": 5074,
      "ä¸Ńãģ§": 5075,
      "ä¸Ńãģ§ãģĻ": 5076,
      "ĠãĤª": 5077,
      "lÃ©ch": 5078,
      "è¦ĭãģĪãĤĭ": 5079,
      "åĽ°": 5080,
      "Ġéĥ¨å±ĭ": 5081,
      "illesse": 5082,
      "èĢħãģ¯": 5083,
      "ãģ¨æĢĿãģ£ãģŁ": 5084,
      "ãģ¨æĢĿãģĦãģ¾ãģĻãģĭ": 5085,
      "aÃ®tre": 5086,
      "ãģĿãĤĮãģ¯": 5087,
      "ĠBon": 5088,
      "Åĵil": 5089,
      "éłĺ": 5090,
      "ãģłãĤįãģĨãģĭ": 5091,
      "Ġãģĵãģ®æľ¬": 5092,
      "åįģ": 5093,
      "ĠderriÃ¨re": 5094,
      "Ġlib": 5095,
      "ãģĭãĤĬãģ¾ãģĽãĤĵ": 5096,
      "ãģĭãĤĬãģ¾ãģĻãģĭ": 5097,
      "ľŁå®Ł": 5098,
      "èĢĥãģĪãĤĭ": 5099,
      "ãģĭãģĳãĤĭ": 5100,
      "ĠãģĵãĤĮãĤī": 5101,
      "ducation": 5102,
      "éļľ": 5103,
      "Ġphot": 5104,
      "åĲĮãģĺ": 5105,
      "åĢŁãĤĬ": 5106,
      "Ġcinqu": 5107,
      "ĠtombÃ©e": 5108,
      "ãĥĶãĥ¥ãĥ¼": 5109,
      "Ġporter": 5110,
      "arrÃªter": 5111,
      "éģ¸æīĭ": 5112,
      "Ġgentil": 5113,
      "Ġimportant": 5114,
      "ãģĭãģĭãĤĭ": 5115,
      "Ġdirait": 5116,
      "ĠdÃ©but": 5117,
      "İ»å¹´": 5118,
      "ĠquittÃ©": 5119,
      "ufs": 5120,
      "ĠãĥĪãĥłãģ¯ãĥ¡ãĤ¢ãĥªãĥ¼": 5121,
      "ãĤ¹ãĥĪãĥ©ãĥ³": 5122,
      "ĠcoÃ»te": 5123,
      "ãĤĴæŃ¢": 5124,
      "Ġrobe": 5125,
      "Ġstylo": 5126,
      "ĠrÃ©flÃ©ch": 5127,
      "ãĤĦãģĻãģĦ": 5128,
      "Ġpanne": 5129,
      "Ġtaxi": 5130,
      "ä¿®çĲĨ": 5131,
      "Ġwe": 5132,
      "ĠcÃ©lÃ¨bre": 5133,
      "Ã©roport": 5134,
      "aÃ©roport": 5135,
      "des": 5136,
      "ek": 5137,
      "£åĳ³": 5138,
      "§¦": 5139,
      "¬ł": 5140,
      "¶£åĳ³": 5141,
      "ç¥": 5142,
      "çĭ¬": 5143,
      "Ġain": 5144,
      "Ġæľ¬": 5145,
      "ĠãĤĤãģ£ãģ¨": 5146,
      "ĠãģłãĤĮ": 5147,
      "ĮĹ": 5148,
      "ĸľ": 5149,
      "Ľ²": 5150,
      "ãĥĪãĥ©": 5151,
      "ãģ®æĹ¥": 5152,
      "Ġsavais": 5153,
      "ãģ«ãģĤ": 5154,
      "ãģªãĤĵãģ§": 5155,
      "Ġmille": 5156,
      "ãĤĭãĤĪ": 5157,
      "Ġå¯": 5158,
      "ãģ£ãģĹãĤĥ": 5159,
      "Ġtent": 5160,
      "ãģĮãģĤ": 5161,
      "ãģĮä½ķ": 5162,
      "ãģĮå¤ļãģĦ": 5163,
      "ãģ¨ç§ģ": 5164,
      "Ġvo": 5165,
      "Ġvont": 5166,
      "Ġå½¼ãģ«ãģ¯": 5167,
      "Ġfav": 5168,
      "Ġfaute": 5169,
      "ãģłãģ£ãģ¦": 5170,
      "ãĤīãģı": 5171,
      "ilitÃ©": 5172,
      "ãĤĵåĿĬ": 5173,
      "Ġjet": 5174,
      "Ġbu": 5175,
      "ãģ¯åĩº": 5176,
      "ä¸ĥ": 5177,
      "orme": 5178,
      "ãģ®åıĭ": 5179,
      "ãģ®åıĭéģĶ": 5180,
      "ãĥ¼ãĤ¿ãĥ¼": 5181,
      "ãģĳãģªãģĭãģ£ãģŁ": 5182,
      "ãģĵãģ¨ãģĤãĤĭ": 5183,
      "ãģĪãģ¦ãģĦãģŁ": 5184,
      "Ġç§ģãģ¯æĺ¨æĹ¥": 5185,
      "ãĤĴå½¼": 5186,
      "ãĤĴæ´Ĺ": 5187,
      "Ġãĥı": 5188,
      "åĪ¶": 5189,
      "ãĤıãĤĮãĤĭ": 5190,
      "Ġrel": 5191,
      "ĠPlus": 5192,
      "ãģ«æī": 5193,
      "angÃ©": 5194,
      "osÃ©": 5195,
      "oser": 5196,
      "å®Ī": 5197,
      "ãĤ¤ãĥ«": 5198,
      "èĢĲ": 5199,
      "æŃ¯": 5200,
      "essus": 5201,
      "ãĥ«ãĥĪ": 5202,
      "ä¸ĬãģĴãģŁ": 5203,
      "ĠallÃ©e": 5204,
      "ãģ®éŁ³": 5205,
      "ãĥĥãĤ«ãĥ¼": 5206,
      "åĬ´": 5207,
      "ãģ«è¡ĮãģįãģŁãģĦ": 5208,
      "Ġmarche": 5209,
      "Ġç§ģãģ¯å¤": 5210,
      "ĠåĲĽãģ®": 5211,
      "ãģĮèģŀãģĵ": 5212,
      "ĠPourrais": 5213,
      "ãĤĴèª¬": 5214,
      "Ġcommen": 5215,
      "Ġplein": 5216,
      "Ġlongue": 5217,
      "ãĤĴè¨±": 5218,
      "ifie": 5219,
      "Ġreste": 5220,
      "ä»¥åīį": 5221,
      "Ġposs": 5222,
      "ä¸ĸè©±": 5223,
      "ãĤĴãģĻãĤĭãģ®": 5224,
      "ãģĵãģ¨ãģ¯ãģªãģĦ": 5225,
      "ĠãĤ¸ãĥł": 5226,
      "äºĮäºº": 5227,
      "æħ®": 5228,
      "Ġrevoir": 5229,
      "ĠãģĵãģĵãģĭãĤī": 5230,
      "æĪĲåĬŁ": 5231,
      "Ġhabit": 5232,
      "æ®ĭ": 5233,
      "Ġèª°ãĤĤ": 5234,
      "Ġvoler": 5235,
      "ission": 5236,
      "Ġexpli": 5237,
      "ãģ«å¯Ŀ": 5238,
      "attends": 5239,
      "arrÃªt": 5240,
      "Ġviande": 5241,
      "ãĤīãĤĮãģªãģĭãģ£ãģŁ": 5242,
      "Ġlorsqu": 5243,
      "åıĭéģĶ": 5244,
      "Ġouvert": 5245,
      "ãģĨãģ¾ãģĦ": 5246,
      "Ġå¥³": 5247,
      "éĬĢè¡Į": 5248,
      "Ġanniversaire": 5249,
      "Ġãĥĵãĥ«": 5250,
      "éīĦ": 5251,
      "ªģçĦ¶": 5252,
      "ãĤ¹ãĥĿãĥ¼ãĥĦ": 5253,
      "universitÃ©": 5254,
      "Ġmourir": 5255,
      "ãĤĴèĩª": 5256,
      "Ġweek": 5257,
      "\",": 5258,
      "ba": 5259,
      "heur": 5260,
      "na": 5261,
      "ode": 5262,
      "¢Ĺ": 5263,
      "¥¿": 5264,
      "ªéĻ½": 5265,
      "±ł": 5266,
      "´Ī": 5267,
      "´åĬ©": 5268,
      "¸½åŃĲ": 5269,
      "½¹": 5270,
      "æĴ": 5271,
      "æĤª": 5272,
      "æ±Ĥ": 5273,
      "Ġz": 5274,
      "ĠãģĹãģĭãģĹ": 5275,
      "ĭãĥ¥ãĥ¼ãĥ¨ãĥ¼ãĤ¯": 5276,
      "İæľĿ": 5277,
      "łåĳĬ": 5278,
      "Ń¯": 5279,
      "ĠpÃ¢": 5280,
      "Ã©ner": 5281,
      "Ġloi": 5282,
      "ãģ®ãĤĪãģĨ": 5283,
      "ãģ®æľĿ": 5284,
      "onge": 5285,
      "Ġsus": 5286,
      "Ġsauv": 5287,
      "ãģªãĤĬ": 5288,
      "ãĤĴéĢļ": 5289,
      "ãĤĴãģ²": 5290,
      "ãģĹãĤĤ": 5291,
      "ãģĹãĤį": 5292,
      "ãģĹãģªãģĭãģ£ãģŁ": 5293,
      "Ġmit": 5294,
      "Ġmeur": 5295,
      "Ġdevez": 5296,
      "Ġå°ı": 5297,
      "ãģĭãģĹãģĦ": 5298,
      "ãģĭãĤĮãģŁ": 5299,
      "nement": 5300,
      "entrÃ©e": 5301,
      "Ġfier": 5302,
      "ãĤĮãģ¦ãģĦ": 5303,
      "ãģĨãģĵãģ¨": 5304,
      "ãĤīãĤĨãĤĭ": 5305,
      "tez": 5306,
      "Ġlev": 5307,
      "ĠbiÃ¨re": 5308,
      "Ġbord": 5309,
      "Ġrespe": 5310,
      "ãģ®åħ": 5311,
      "ãģĳãģ°": 5312,
      "Ġtriste": 5313,
      "Ġguit": 5314,
      "ãģ£ãģ¦ãĤĭãģ®": 5315,
      "ãģ©ãĤĤ": 5316,
      "ãģ¤ãģĳ": 5317,
      "ãĤĴåħ¨éĥ¨": 5318,
      "ãģ®æİ": 5319,
      "ague": 5320,
      "ĠMonsieur": 5321,
      "è¨ª": 5322,
      "ãģĹãģ¦ãģıãĤĮãĤĭ": 5323,
      "cip": 5324,
      "ãĤıãĤĮãģŁ": 5325,
      "avion": 5326,
      "å¤±æķĹ": 5327,
      "rier": 5328,
      "ãģ°ãģĵ": 5329,
      "ãĥ¼ãĥŀ": 5330,
      "ĠÃ©te": 5331,
      "åĲ¹": 5332,
      "éĩı": 5333,
      "urent": 5334,
      "æĻĤãģ«è": 5335,
      "enses": 5336,
      "ãĤĵãģłãĤįãģĨ": 5337,
      "åħĥæ°Ĺ": 5338,
      "ãģ§ãģ¯ãģªãģı": 5339,
      "å¿ħãģļ": 5340,
      "å¥½ãģįãģª": 5341,
      "Ġéł": 5342,
      "Ġéķ·": 5343,
      "å¸¯": 5344,
      "ĠVoi": 5345,
      "ãĤ¿ãĥĲãĤ³": 5346,
      "å¤§ãģį": 5347,
      "Ġæĺ¨å¤ľ": 5348,
      "ĠBos": 5349,
      "ãģĮå¥½ãģįãģ§ãģĻãģĭ": 5350,
      "Ġvieil": 5351,
      "ĠãģĤãĤĮ": 5352,
      "Ã¢ce": 5353,
      "ãĤ·ãĥ§ãĥ³": 5354,
      "Ġfinalement": 5355,
      "Ġimpossible": 5356,
      "ãģ®äººãĢħ": 5357,
      "Ġactu": 5358,
      "åº¦ãģ¨": 5359,
      "usement": 5360,
      "Ġferme": 5361,
      "Ġcourant": 5362,
      "ä¸įåı¯èĥ½": 5363,
      "éħĶ": 5364,
      "Ġvisiter": 5365,
      "ãģ®ãģĬéĩĳ": 5366,
      "ãģ§ãģįãĤĭãģłãģĳ": 5367,
      "æ´¾": 5368,
      "æ´ĭ": 5369,
      "æŃ©ãģĦãģ¦": 5370,
      "Ġforme": 5371,
      "ĠÃ©tudiÃ©": 5372,
      "Ġãģ©ãģĨãģŀ": 5373,
      "ĠÃīc": 5374,
      "ãģ®æĻĤéĸĵ": 5375,
      "ĠAujourd": 5376,
      "attend": 5377,
      "Ġnombreuses": 5378,
      "äºĪç´Ħ": 5379,
      "Ã©gl": 5380,
      "Ġlangues": 5381,
      "Ġaffaire": 5382,
      "empl": 5383,
      "empÃªcher": 5384,
      "Ġgentillesse": 5385,
      "ãĤĴå¾Ĺ": 5386,
      "Ġappareil": 5387,
      "ãģ¯ãģ©ãģĵãģ§ãģĻãģĭ": 5388,
      "ãĤĴå¤ī": 5389,
      "Ġpuisse": 5390,
      "éĻĲãĤĬ": 5391,
      "ãģ«å¯¾ãģĻãĤĭ": 5392,
      "ãģĹãĤĥãģ¹": 5393,
      "ĠãĥĨãĥ¬ãĥĵ": 5394,
      "ãĤĴè²¸": 5395,
      "ãĤıãģĳãģ§ãģ¯ãģªãģĦ": 5396,
      "Ġconseil": 5397,
      "Ġconvain": 5398,
      "Ġobt": 5399,
      "ãģĮå¿ħè¦ģãģł": 5400,
      "ĠsociÃ©tÃ©": 5401,
      "Ġdoivent": 5402,
      "´ĦæĿŁ": 5403,
      "Ġsimple": 5404,
      "Ġoiseaux": 5405,
      "ç§ĺå¯Ĩ": 5406,
      "ãģĨãĤĮãģĹãģĦ": 5407,
      "Ġdangereux": 5408,
      "ĠDÃ©pÃªche": 5409,
      "indiquer": 5410,
      "ãĥĶãĥ¥ãĥ¼ãĤ¿ãĥ¼": 5411,
      "rÃ©s": 5412,
      "£ģ": 5413,
      "¬ä»»": 5414,
      "¶çĦ¶": 5415,
      "ºĥ": 5416,
      "âĢ": 5417,
      "åİ»": 5418,
      "åīĩ": 5419,
      "åĻ¨": 5420,
      "Ġ9": 5421,
      "Ġãģ¾ãģł": 5422,
      "ĩå®": 5423,
      "Įå£«": 5424,
      "ļĩ": 5425,
      "Ńĺ": 5426,
      "ãģ¯ä¸Ģ": 5427,
      "ãģ¯ãĤ¢": 5428,
      "ãģĦãģ¦ãģĦãģ¾ãģĻ": 5429,
      "Ġpoid": 5430,
      "Ġlaisse": 5431,
      "ãģŁãģ£ãģŁ": 5432,
      "Ġsav": 5433,
      "Ġstu": 5434,
      "Ġsang": 5435,
      "Ġcer": 5436,
      "ãĤĴãģŁ": 5437,
      "ãĤĴãģıãģłãģķãģĦ": 5438,
      "ãģ¦ãģįãģŁ": 5439,
      "Ġmi": 5440,
      "ãģĮãģ¨ãģ¦ãĤĤ": 5441,
      "ç§ģéģĶ": 5442,
      "ises": 5443,
      "ãĤīãģĭ": 5444,
      "Ġbille": 5445,
      "ãĤĬãģł": 5446,
      "äºĴãģĦ": 5447,
      "Ġrare": 5448,
      "ãģªãģĦãĤĪ": 5449,
      "Ġç§ģãģ®çĪ¶": 5450,
      "inion": 5451,
      "ettes": 5452,
      "ãģķãĤī": 5453,
      "Ġchin": 5454,
      "ĠTr": 5455,
      "Ġgagne": 5456,
      "ãģ¤ãģĳãģŁ": 5457,
      "Ġç§ģãģ¯ãģĿãģ®å": 5458,
      "ãĤĴæģĲ": 5459,
      "Ġæµ·": 5460,
      "Ġãĥ©": 5461,
      "Ġãĥĸ": 5462,
      "ãģĹãģ¦ãģıãĤĮ": 5463,
      "ãģĹãģ¦ãģĹãģ¾ãģ£ãģŁ": 5464,
      "Ġrecher": 5465,
      "Ġremar": 5466,
      "ĠSh": 5467,
      "ĠãģĿãģ®è": 5468,
      "è©ķ": 5469,
      "ĠAr": 5470,
      "ĠApp": 5471,
      "ĠAmÃ©rique": 5472,
      "å½¼ãģ®": 5473,
      "å½¼ãģĮ": 5474,
      "æĢĸ": 5475,
      "çī¹": 5476,
      "Ġgrat": 5477,
      "å¾©": 5478,
      "å¾ĭ": 5479,
      "ack": 5480,
      "ä¼ļèŃ°": 5481,
      "ãĥ«ãĤ¯": 5482,
      "å¹´ä¸Ĭ": 5483,
      "ãģ®éĻ": 5484,
      "ãģ«è²": 5485,
      "cool": 5486,
      "Ġé«": 5487,
      "Ġå½¼ãģ¯å¤§": 5488,
      "ãģłãģ£ãģŁãģ®ãģ§": 5489,
      "å¸ĥ": 5490,
      "ĠãĥĪãĥłãģĮ": 5491,
      "Ġmach": 5492,
      "Ġmarier": 5493,
      "Ġentrer": 5494,
      "æł¹": 5495,
      "ãĤ¹ãĥŁãĤ¹": 5496,
      "ãģĹãģ¾ãģĨ": 5497,
      "ĠmathÃ©": 5498,
      "Ġattend": 5499,
      "ãĤĮãģ¦ãģĹãģ¾ãģ£ãģŁ": 5500,
      "ãģ¨ãģĦãģĨãģĵãģ¨": 5501,
      "ãĤĴæĮģãģ£ãģ¦ãģĦãģ¾ãģĻ": 5502,
      "ĠToutes": 5503,
      "ãģ«åħ¥ãģ£ãģŁ": 5504,
      "éģĭåĭķ": 5505,
      "Ġposer": 5506,
      "occup": 5507,
      "ç¤º": 5508,
      "è³ĩ": 5509,
      "Ġsoud": 5510,
      "ĠforÃªt": 5511,
      "åł´æīĢ": 5512,
      "ãģ§ãģĹãĤĩãģĨãģĭ": 5513,
      "ãģ¯æĺİæĹ¥": 5514,
      "èĪŀ": 5515,
      "å¤īãĤı": 5516,
      "ĠGr": 5517,
      "Ġäººéĸĵ": 5518,
      "ãģĲãĤīãģĦ": 5519,
      "ãĤĴãĤĦãĤģãģŁ": 5520,
      "ãĤ¹ãĥĪãĥ³": 5521,
      "ãĤ¦ãĥ³": 5522,
      "éĿ¢çĻ½ãģĦ": 5523,
      "éŃĶ": 5524,
      "ä¸Ģäººãģ§": 5525,
      "èĭ¥": 5526,
      "ãģķãģĽãĤĭ": 5527,
      "ãģ¯å¤§å¤ī": 5528,
      "Ġmeilleure": 5529,
      "Ġtraverser": 5530,
      "Ġlaisser": 5531,
      "ĠsÃ©jour": 5532,
      "ãĥĨãĥ¬ãĥĵãĤĴè¦ĭ": 5533,
      "Ġpieds": 5534,
      "ãģ¾ãĤĭãģ§": 5535,
      "Ġchanter": 5536,
      "ãģ«è¿Ķ": 5537,
      "ĠcassÃ©": 5538,
      "Ġartic": 5539,
      "Ġpatient": 5540,
      "ãĤĴæ¸¡": 5541,
      "ĠattrapÃ©": 5542,
      "łĤç³": 5543,
      "ĠFuji": 5544,
      "ãģĻãģĶãģı": 5545,
      "ĭĽå¾ħ": 5546,
      "Ġordinateur": 5547,
      "Ġpolitique": 5548,
      "ãģ«èĪĪåĳ³": 5549,
      "Ġabsolument": 5550,
      "Ġguitare": 5551,
      "ĠBoston": 5552,
      "Įå£«å±±": 5553,
      "Ġpoids": 5554,
      "ĠmathÃ©mat": 5555,
      "łĤç³ĸ": 5556,
      "eba": 5557,
      "ser": 5558,
      "talie": 5559,
      "¡Ĺ": 5560,
      "¦ģ": 5561,
      "¦Ļ": 5562,
      "³£": 5563,
      "½ãģı": 5564,
      "¿»": 5565,
      "å°ĳå¹´": 5566,
      "åģ´": 5567,
      "ç²": 5568,
      "çĭ": 5569,
      "èĸ": 5570,
      "Ġ7": 5571,
      "ĢŁãĤĬ": 5572,
      "ħĲ": 5573,
      "ãģ¯ãģĿãĤĮ": 5574,
      "ãģ¯ãĤĪãģı": 5575,
      "Ġpou": 5576,
      "ĠpÃ©ri": 5577,
      "Ã©qu": 5578,
      "Ġly": 5579,
      "aig": 5580,
      "ener": 5581,
      "ouill": 5582,
      "Ġsout": 5583,
      "Ġsorte": 5584,
      "Ġact": 5585,
      "Ġcancer": 5586,
      "ãģªãĤĪ": 5587,
      "ãĤĴãģ¯": 5588,
      "Ġåħ¨": 5589,
      "ãģĭãģ¾": 5590,
      "Ġvoit": 5591,
      "ĠJack": 5592,
      "ãģłãĤģ": 5593,
      "ãĤĬãģŁãģĦ": 5594,
      "ãģ¯å°ı": 5595,
      "Ġç§ģãģ«": 5596,
      "inture": 5597,
      "ites": 5598,
      "orge": 5599,
      "ãģ§ãģĻãģĮ": 5600,
      "Ġå½¼ãģ¯è": 5601,
      "ãģ®åħĦ": 5602,
      "ãĥ¼ãĤº": 5603,
      "Ġparfois": 5604,
      "vec": 5605,
      "ä½İ": 5606,
      "ĠgoÃ»": 5607,
      "ãĤĴå§ĭ": 5608,
      "ĠæķĻ": 5609,
      "ĠÃ©toi": 5610,
      "Ġå½¼å¥³ãģ®": 5611,
      "ãĤ¹ãĤŃãĥ¼": 5612,
      "Ġhor": 5613,
      "Ġhuit": 5614,
      "Ġmem": 5615,
      "ĠdÃ©g": 5616,
      "ãĥ¼ãĥ©": 5617,
      "Ġç´": 5618,
      "ĠÃ©quipe": 5619,
      "å®ī": 5620,
      "ierre": 5621,
      "ãĤĴç¢º": 5622,
      "ãĤĴçĽĹ": 5623,
      "éĩ£": 5624,
      "ãģ¯ç¾İ": 5625,
      "ãģ¯çļĨ": 5626,
      "ãĥ©ãĤ¸": 5627,
      "Ã©rience": 5628,
      "ĠãĤ¨": 5629,
      "ĠãĤµ": 5630,
      "ĠãĤŃ": 5631,
      "ãĤĵãģ§ãģĦãģŁ": 5632,
      "ãģ«èĭ±èªŀ": 5633,
      "ãģ©ãģĨãģĹãģ¦": 5634,
      "ãģĿãģ®ä»ķäºĭ": 5635,
      "ãĤĤãģ®ãģ§ãģĻ": 5636,
      "ĠViens": 5637,
      "ãĥ¬ãĤ¼": 5638,
      "ãĥ¬ãĤ¹ãĥĪãĥ©ãĥ³": 5639,
      "Ġä»Ĭå¤ľ": 5640,
      "ãģĿãĤĮãĤĴ": 5641,
      "Ġexamen": 5642,
      "ãĥĨãĤ¹ãĥĪ": 5643,
      "Ġdispar": 5644,
      "ondÃ©": 5645,
      "ãĤ¸ãĥ§ãĥ³": 5646,
      "çĦ¼": 5647,
      "ãĥķãĥ©ãĥ³ãĤ¹": 5648,
      "Ġmatch": 5649,
      "ãĤĢãģ®": 5650,
      "Ġå¤ĸ": 5651,
      "Ġaccep": 5652,
      "å£Ĭ": 5653,
      "ãģıãģªãģ£ãģ¦": 5654,
      "ãĤĴçŁ¥ãĤīãģªãģĦ": 5655,
      "Ġenvers": 5656,
      "ä½¿ãģĦ": 5657,
      "çķªåı·": 5658,
      "ĠãĤ¸ãĥ§": 5659,
      "å¿ĥéħį": 5660,
      "æ¸¡": 5661,
      "è²§": 5662,
      "ãģ¯æĺ¨æĹ¥": 5663,
      "ãģĭãģªãĤĬ": 5664,
      "èĪİ": 5665,
      "ãģ«æĿ¥ãģ¦": 5666,
      "çŃĨ": 5667,
      "æ¬²": 5668,
      "Ġpolice": 5669,
      "ä»ĺãģį": 5670,
      "Ġbateau": 5671,
      "ķıé¡ĮãĤĴè§£": 5672,
      "åıĸãĤĬ": 5673,
      "æĶ¾": 5674,
      "Ĭ©ãģĳ": 5675,
      "¿ĳãģı": 5676,
      "è²·ãģ£ãģŁ": 5677,
      "ãģĮåĩºæĿ¥": 5678,
      "ä¸ĩåĨĨ": 5679,
      "æıĽ": 5680,
      "æľŁå¾ħ": 5681,
      "ãģĹãģ°ãģĹãģ°": 5682,
      "Ġressembl": 5683,
      "hÃ´tel": 5684,
      "åĭĻæīĢ": 5685,
      "é¦¬é¹¿": 5686,
      "ĠãĥīãĤ¢": 5687,
      "èĥĮãģĮé«ĺãģĦ": 5688,
      "Ġradio": 5689,
      "Ã©tudier": 5690,
      "ãģĶãģĸãģĦãģ¾ãģĻ": 5691,
      "¸Ĥéķ·": 5692,
      "ĠDonnez": 5693,
      "çĴ°å¢ĥ": 5694,
      "ãģ«å¾ĵ": 5695,
      "Ġpapier": 5696,
      "ãģŃãģ°ãģªãĤīãģªãģĦ": 5697,
      "ãĤĴæĢĿãģĦåĩº": 5698,
      "atoeba": 5699,
      "ĠÃ©chouÃ©": 5700,
      "Ġsatisfait": 5701,
      "Ġrespons": 5702,
      "ĠdÃ©range": 5703,
      "Ġpaix": 5704,
      "ãģªãģĳãĤĮãģ°ãģªãĤīãģªãģĭãģ£ãģŁ": 5705,
      "Ġainsi": 5706,
      "ĩå®Ļ": 5707,
      "ein": 5708,
      "form": 5709,
      "lop": 5710,
      "ron": 5711,
      "ycle": 5712,
      "¡©": 5713,
      "¬ī": 5714,
      "´åı²": 5715,
      "åĦ": 5716,
      "æį": 5717,
      "çŁ³": 5718,
      "çĮ«": 5719,
      "çĸĳ": 5720,
      "éŁ": 5721,
      "é½¢": 5722,
      "Ġ8": 5723,
      "ĠãģĨãģ¡": 5724,
      "ħ£": 5725,
      "Ī¹": 5726,
      "ĭ¥": 5727,
      "ĺèªŀ": 5728,
      "ãģ¯äºº": 5729,
      "ãģ¯ãģĤãĤĬãģ¾ãģĽãĤĵ": 5730,
      "esprit": 5731,
      "ãĥ¤": 5732,
      "aim": 5733,
      "ãģŁãĤĬ": 5734,
      "Ġsavait": 5735,
      "ãģ«ãģĻãĤĭ": 5736,
      "Ġcul": 5737,
      "ãĤĴéģ¸": 5738,
      "Ġmante": 5739,
      "ãģ§è©±": 5740,
      "ĠåĲ": 5741,
      "ãģĮçĦ¡": 5742,
      "ãģĮãģ»ãģĹãģĦ": 5743,
      "ãģ¨åĳ¼": 5744,
      "entendre": 5745,
      "ĠlevÃ©": 5746,
      "Ġbonnes": 5747,
      "ãģ¯å¹": 5748,
      "ãģ¯åĨ": 5749,
      "Ġroi": 5750,
      "Ġrapp": 5751,
      "Ġrappelle": 5752,
      "arre": 5753,
      "ãĥ¼ãĤ¹ãĥĪãĥ©": 5754,
      "ĠCan": 5755,
      "Ġtrente": 5756,
      "ateurs": 5757,
      "ãĤĴè»": 5758,
      "ãģ«å±": 5759,
      "ĠTan": 5760,
      "ĠTerre": 5761,
      "Ġgol": 5762,
      "ãģĪãģ¾ãģĻ": 5763,
      "ãĤĴæīĭ": 5764,
      "èª²": 5765,
      "Ġcelle": 5766,
      "ãģ®æºĸåĤĻ": 5767,
      "Ġãĥģ": 5768,
      "ĠãĥĬ": 5769,
      "ĠMoi": 5770,
      "cieux": 5771,
      "ãģ¯æ¥½": 5772,
      "ãĤıãģĭãģ£ãģŁ": 5773,
      "aper": 5774,
      "ãĤģãģ¦ãģĦãĤĭ": 5775,
      "Ġremer": 5776,
      "éĸĢ": 5777,
      "ĠPasse": 5778,
      "ĠPapa": 5779,
      "ĠAvec": 5780,
      "ama": 5781,
      "éĽĩ": 5782,
      "Ġç¥ŀ": 5783,
      "ĠÃ©n": 5784,
      "Ġå½¼å¥³ãģ¯ãģĦãģ¤ãĤĤ": 5785,
      "Ġprob": 5786,
      "ãĤĪãģĨãģ«å": 5787,
      "ãĤĦãĤĭ": 5788,
      "ãģ¯çĻ": 5789,
      "æĻĤåįĬ": 5790,
      "åı¤": 5791,
      "åı¸": 5792,
      "ĠDeux": 5793,
      "Ã©rature": 5794,
      "ãģ§ãģ¯ãģªãģĭãģ£ãģŁ": 5795,
      "ãģ«ãģ¯ãģĦ": 5796,
      "ãģ§ãģįãģªãģĭãģ£ãģŁ": 5797,
      "diot": 5798,
      "ãģŁãģ¡ãģ¯": 5799,
      "ĠallÃ©s": 5800,
      "ãģ¸ãĤĵ": 5801,
      "ĠÂ».": 5802,
      "ĠbeautÃ©": 5803,
      "åºĥ": 5804,
      "Ġaiment": 5805,
      "ãĤįãģĨãģ¨": 5806,
      "ãĥīãĥ¬ãĤ¹": 5807,
      "ãģ¨æĢĿãģ£ãģ¦ãģĦãĤĭ": 5808,
      "ãĤ¿ãĥ³": 5809,
      "ãģ¯ãĥĳ": 5810,
      "ãĤĭãģ®ãģ¯": 5811,
      "ĠQuoi": 5812,
      "Ġexc": 5813,
      "ĭ±åĽ½": 5814,
      "çĽĹ": 5815,
      "éĿĻ": 5816,
      "Ġpermet": 5817,
      "ãģłãģĳãģ¾ãģĽãĤĵãģĭ": 5818,
      "Ã¢che": 5819,
      "Ġå¤ľ": 5820,
      "ä½ıæīĢ": 5821,
      "è¿·": 5822,
      "ä¿¡éł¼": 5823,
      "æĦıè¦ĭ": 5824,
      "Ġregre": 5825,
      "éģħãĤĮ": 5826,
      "ãģ®æĸ°ãģĹãģĦ": 5827,
      "ãĥŃãĥ³ãĥīãĥ³": 5828,
      "ä¹ĹãĤĬ": 5829,
      "Ġsorti": 5830,
      "Ġpetits": 5831,
      "ĠãĤ¸ãĥ£": 5832,
      "ä½ĵéĩį": 5833,
      "Ġcouper": 5834,
      "Ġregarda": 5835,
      "ıĭäºº": 5836,
      "Ġforce": 5837,
      "ãģ«åĩºå¸Ń": 5838,
      "Ġtomber": 5839,
      "ãģĹãģ¦ãĤĤãĤī": 5840,
      "ãĥĬãĥĢ": 5841,
      "ĠdÃ©pend": 5842,
      "Ġadresse": 5843,
      "Ġportait": 5844,
      "ĠdÃ©cl": 5845,
      "æĬľ": 5846,
      "Ġcheval": 5847,
      "Ġmagn": 5848,
      "Ġimag": 5849,
      "habite": 5850,
      "è¨ĺæĨ": 5851,
      "é¦ĸ": 5852,
      "Ġtableau": 5853,
      "Ġcommencer": 5854,
      "eusement": 5855,
      "é»Ĵ": 5856,
      "Ġconcert": 5857,
      "ãģĵãģ¨ãģĮãģ§ãģįãģŁ": 5858,
      "ãģ¨åĲĮãģĺãģıãĤīãģĦ": 5859,
      "Ġromans": 5860,
      "Ġsport": 5861,
      "ĺĺãĤĴãģ¤": 5862,
      "ãģıãģ¤ãģĭ": 5863,
      "Ġgagner": 5864,
      "ãģ®éłĥ": 5865,
      "Ġemploi": 5866,
      "ä¸ĢæĹ¥ä¸Ń": 5867,
      "ãĥ»ãĥ»ãĥ»": 5868,
      "ĠLorsque": 5869,
      "ç®Ĺ": 5870,
      "Ġsilence": 5871,
      "æľīåĲįãģª": 5872,
      "åĩ¦": 5873,
      "ãģ£ãģįãĤĬ": 5874,
      "Ġpareille": 5875,
      "ãģĻãģ°ãĤīãģĹãģĦ": 5876,
      "ĠmÃ©dicament": 5877,
      "çµ±éłĺ": 5878,
      "Ġsamedi": 5879,
      "Ġstup": 5880,
      "ĠmathÃ©matiques": 5881,
      "¿»è¨³": 5882,
      "ãĥ¬ãĤ¼ãĥ³ãĥĪ": 5883,
      "ãĥ¼ãĤ¹ãĥĪãĥ©ãĥªãĤ¢": 5884,
      "Ġgolf": 5885,
      "è¨ĺæĨ¶": 5886,
      "ach": 5887,
      "cas": 5888,
      "dessus": 5889,
      "ges": 5890,
      "oche": 5891,
      "pÃ¨re": 5892,
      "romp": 5893,
      "tÃ©s": 5894,
      "umes": 5895,
      "¡Ģ": 5896,
      "©çĶ¨": 5897,
      "®éĢļ": 5898,
      "°·": 5899,
      "³¢": 5900,
      "µä¾¿": 5901,
      "¾º": 5902,
      "åŀ": 5903,
      "åĦª": 5904,
      "æĭ": 5905,
      "çİĭ": 5906,
      "éĮ": 5907,
      "ĠæľĿ": 5908,
      "ĭãģŃãģŁ": 5909,
      "ĵãģ¡": 5910,
      "ķµ": 5911,
      "Ľ°": 5912,
      "ľ¼": 5913,
      "Ġdent": 5914,
      "Ġdom": 5915,
      "Ġlour": 5916,
      "Ġlun": 5917,
      "ãģ®ãģł": 5918,
      "ãģ®ãģ¨ãģį": 5919,
      "ãģŁãģ®": 5920,
      "ãģ«ãģĵ": 5921,
      "ãģ«éĸĵãģ«åĲĪ": 5922,
      "ãĤĴãģıãĤĮãģŁ": 5923,
      "ãģĹãģł": 5924,
      "Ġmaire": 5925,
      "ãģ§ãģĬ": 5926,
      "ãģ£ãģ¡ãĤĥ": 5927,
      "Ġti": 5928,
      "Ġtend": 5929,
      "Ġtick": 5930,
      "ãģĻãģª": 5931,
      "ãģĮãĤĪãģı": 5932,
      "ãģĭãģ£ãģ¦": 5933,
      "ãģĭãģ¤": 5934,
      "Ġvenue": 5935,
      "Ġå½¼ãģ®è": 5936,
      "Ġå½¼ãģ®å®¶": 5937,
      "Ġfus": 5938,
      "ãģĵãģĿ": 5939,
      "ãĤīãģªãģĳãĤĮãģ°ãģªãĤīãģªãģĦ": 5940,
      "ãģ¦ãģĦãģĦ": 5941,
      "Ġlever": 5942,
      "inqu": 5943,
      "Ġenn": 5944,
      "ãģ®åĬ": 5945,
      "ãģ®åķıé¡Į": 5946,
      "ãģ®åŃ¦çĶŁ": 5947,
      "auche": 5948,
      "ãģ«å°": 5949,
      "Ġglace": 5950,
      "ä»®": 5951,
      "iennes": 5952,
      "ãĤĴæĭ": 5953,
      "Ġæ¯": 5954,
      "ĠæĻĤ": 5955,
      "ĠæŃ£": 5956,
      "ĠhÃ´": 5957,
      "Ġhors": 5958,
      "Ġãĥ¡": 5959,
      "ĠSais": 5960,
      "ãģ«æķĻ": 5961,
      "ãģ«æ»ŀåľ¨": 5962,
      "amb": 5963,
      "ãģ®çĦ¡": 5964,
      "ĠÃ©v": 5965,
      "olÃ©e": 5966,
      "ãĤĴçĦ¡": 5967,
      "ãģ¿ãģŁ": 5968,
      "æĻĤãĢħ": 5969,
      "ouvert": 5970,
      "ãģ¯å½¼ãĤī": 5971,
      "èĩªæ®º": 5972,
      "Ł¥ãĤīãģĽ": 5973,
      "åħĦ": 5974,
      "ä¼ļåĲĪ": 5975,
      "ĠfrÃ¨res": 5976,
      "å¹´åīį": 5977,
      "Ġallons": 5978,
      "ãĤĵãģªãģķãģĦ": 5979,
      "ãĤ¯ãĥ©": 5980,
      "ãģ¸ãģ®": 5981,
      "æķµ": 5982,
      "Ġdevait": 5983,
      "æĺĵ": 5984,
      "mide": 5985,
      "ĠãĥĪãĥłãģ¨": 5986,
      "ãĤ¿ãĤ¯ãĤ·ãĥ¼": 5987,
      "ãģŁãģĦãģ¸ãĤĵ": 5988,
      "Ġexac": 5989,
      "å¯ĴãģĦ": 5990,
      "°ĳå¥³": 5991,
      "ĠæĺĶ": 5992,
      "ĠcompÃ©t": 5993,
      "é£Łãģ¹ãģŁãģĦ": 5994,
      "ãģ¯ãģĦãģªãģĦ": 5995,
      "ĠprÃ©p": 5996,
      "ãģ¯ç§ģãģ«": 5997,
      "ãģįãģŁãģıãģªãģĦ": 5998,
      "Ġgrandes": 5999,
      "Ġå½¼ãĤīãģ¯å": 6000,
      "Ġimpat": 6001,
      "åº¦ãĤĤ": 6002,
      "ãĤĴæĮģãģ£ãģ¦": 6003,
      "éģħãģı": 6004,
      "ľŁæĽľæĹ¥": 6005,
      "Ġcourir": 6006,
      "Ġå½¼ãģ¯ç§ģãģ«": 6007,
      "ãģªãĤĵãģĭ": 6008,
      "ãģĵãģĵãģ«": 6009,
      "ãģĵãģĵãģ¸": 6010,
      "Ġdonna": 6011,
      "Ġpenses": 6012,
      "Ġabandonn": 6013,
      "äºĮåº¦ãģ¨": 6014,
      "è²¡": 6015,
      "çĪ¶è¦ª": 6016,
      "ĠapprÃ©ci": 6017,
      "ĠregardÃ©": 6018,
      "ĠrÃ©sul": 6019,
      "ĠDepuis": 6020,
      "ĠsÅĵurs": 6021,
      "ignant": 6022,
      "Ġconduit": 6023,
      "ģ¥ãģļ": 6024,
      "Ġèª°ãģĭ": 6025,
      "æŀļ": 6026,
      "ç¬¦": 6027,
      "Ġterrible": 6028,
      "ĠrentrÃ©": 6029,
      "åĤ·": 6030,
      "Ġessayer": 6031,
      "èħĲ": 6032,
      "ĸ²ãĤĮãģŁ": 6033,
      "Ġcherche": 6034,
      "Ġdirige": 6035,
      "åĸĦ": 6036,
      "ãĤĴéĸĭãģĳãģ¦": 6037,
      "ãģĮå¤§å¥½ãģįãģ§ãģĻ": 6038,
      "Ġ30": 6039,
      "ãģĭãĤıãģĦãģĦ": 6040,
      "çĶ°èĪİ": 6041,
      "ĠspÃ©ci": 6042,
      "ãģ«è¿·": 6043,
      "®ĭå¿µ": 6044,
      "ĠgÃ©nÃ©ral": 6045,
      "Ġcertain": 6046,
      "éģĬãģ³": 6047,
      "éĢĥãģĴ": 6048,
      "ãģ«åĪ°çĿĢ": 6049,
      "affaire": 6050,
      "ĠconsidÃ©r": 6051,
      "ĠãģŁãģ¨ãģĪ": 6052,
      "Ġlarmes": 6053,
      "Ġsignifie": 6054,
      "Ġemb": 6055,
      "ustralie": 6056,
      "mith": 6057,
      "Ńĺåľ¨": 6058,
      "Ġmanteau": 6059,
      "Ġrapport": 6060,
      "10": 6061,
      "AmÃ©rique": 6062,
      "Je": 6063,
      "hiver": 6064,
      "ses": 6065,
      "£¨": 6066,
      "¤¾": 6067,
      "¦¬": 6068,
      "¦æĸĻ": 6069,
      "©ĭ": 6070,
      "±³": 6071,
      "±ļ": 6072,
      "··": 6073,
      "¼ãģĹ": 6074,
      "å¬ī": 6075,
      "æĤ²": 6076,
      "ç¹": 6077,
      "çİ": 6078,
      "çĸ²ãĤĮ": 6079,
      "èĲ½": 6080,
      "è¶Ĭ": 6081,
      "Ġè¦ĭ": 6082,
      "Ġä¸ĸçķĮ": 6083,
      "ĥéĻ¤": 6084,
      "ħķ": 6085,
      "ĭãĥ¼": 6086,
      "ĵģ": 6087,
      "Ķ¾": 6088,
      "ĶçĪ¶": 6089,
      "ãĤ²": 6090,
      "ãģ¯èĩªåĪĨ": 6091,
      "ãģ¯ãģĻãģ¹ãģ¦": 6092,
      "ãģ®ä»ķäºĭ": 6093,
      "ãģ®ãģĨãģ¡": 6094,
      "ãģ«ãĤĪãģı": 6095,
      "ãģ«ãģĤãĤĬãģ¾ãģĻ": 6096,
      "ãĤĴç§ģ": 6097,
      "ãĤĴãģķ": 6098,
      "Ġmoit": 6099,
      "ãģ§ç§ģ": 6100,
      "ãģ§ä¸Ģçķª": 6101,
      "ãģ£ãģĹãĤĩ": 6102,
      "Ġtoit": 6103,
      "ãģĮãģĿãģ®": 6104,
      "ãģĮãģĤãĤĬãģ¾ãģĽãĤĵ": 6105,
      "ãģ¨ãģªãĤĭ": 6106,
      "nel": 6107,
      "Ġfl": 6108,
      "ç§ģãĤĤ": 6109,
      "ãĤĮãģ¾ãģĹãģŁ": 6110,
      "ãĤĮãģªãģĭãģ£ãģŁ": 6111,
      "isse": 6112,
      "ision": 6113,
      "Ġbic": 6114,
      "ãģ¯åĥķ": 6115,
      "ãģĹãģŁãģĵãģ¨": 6116,
      "usse": 6117,
      "ãģķãģªãģĦãģ§": 6118,
      "orce": 6119,
      "Ġpren": 6120,
      "Ġpron": 6121,
      "ĠCr": 6122,
      "ĠCert": 6123,
      "Ġsuici": 6124,
      "Ġtri": 6125,
      "Ġtruc": 6126,
      "Ġchoc": 6127,
      "Ġaura": 6128,
      "ãĤĴèµ·ãģĵ": 6129,
      "ãģ«å®": 6130,
      "Ġgouver": 6131,
      "ãģ£ãģ¦ãģĬ": 6132,
      "ãģ£ãģ¦ä¸ĭãģķãģĦ": 6133,
      "ãģ£ãģ¦ãģıãĤĮãĤĭ": 6134,
      "Ġç§ģãģ¯ãģĿãĤĮ": 6135,
      "Ġç§ģãģ¯ãģĵãģ®": 6136,
      "ãĤĴæĸ": 6137,
      "Ġæķ°": 6138,
      "ãĤ¹ãĤ«": 6139,
      "alcool": 6140,
      "Ġãĥĩ": 6141,
      "aint": 6142,
      "rite": 6143,
      "ĠSmith": 6144,
      "ãģ«æİ": 6145,
      "ãģĭãĤīåĩº": 6146,
      "Ġtel": 6147,
      "ĠAll": 6148,
      "ĠAllez": 6149,
      "ä½ķæĻĤ": 6150,
      "äºĭãģ¯": 6151,
      "éĽ²": 6152,
      "è¨Ģãģ£ãģ¦ãģĦãĤĭ": 6153,
      "Ġidiot": 6154,
      "ouvrir": 6155,
      "æĸ°èģŀ": 6156,
      "ãģ«ãģªãĤĬãģ¾ãģĻ": 6157,
      "igner": 6158,
      "åħ±": 6159,
      "ãĥĥãĥĳ": 6160,
      "ĠÂ»,": 6161,
      "åºľ": 6162,
      "ãģĦãģ¦ãģıãģłãģķãģĦ": 6163,
      "åĬªåĬĽ": 6164,
      "ĠãĥĪãĥłãģ¯æ": 6165,
      "Ġcrit": 6166,
      "ãĤ³ãĥ¬": 6167,
      "éĽ»æ°Ĺ": 6168,
      "moire": 6169,
      "Ġæĺ¥": 6170,
      "Ġç§ģãģ¯åĲĽ": 6171,
      "Ġcompar": 6172,
      "ãģ¯ãģĦãģıãĤī": 6173,
      "ĠprÃ©c": 6174,
      "ãĥķãĤ¡": 6175,
      "ãģ®ãģ§ãģĹãĤĩãģĨãģĭ": 6176,
      "ĠjouÃ©": 6177,
      "Ġjambe": 6178,
      "Ã¢t": 6179,
      "å®¶æĹı": 6180,
      "Ġvraie": 6181,
      "ĠbrÃ»": 6182,
      "Ġimporte": 6183,
      "iÃ¨te": 6184,
      "Ġparlez": 6185,
      "ãĤĴæĮģãģ£ãģ¦ãģĦ": 6186,
      "ĠrÃ©parer": 6187,
      "æĮģãģ£ãģ¦ãģĦãĤĭ": 6188,
      "ĠmÃ©moire": 6189,
      "Ġamie": 6190,
      "éģĵãģ«è¿·": 6191,
      "ĠvisitÃ©": 6192,
      "ãģ«ä¼ļãģĨ": 6193,
      "ãģ®ãģĬãģĭãģĴ": 6194,
      "Ġmusic": 6195,
      "è²ł": 6196,
      "Ġcompris": 6197,
      "Ġvivent": 6198,
      "Ã©rif": 6199,
      "ãģ¯å¤ļãģı": 6200,
      "ãģĿãĤĵãģªãģĵãģ¨": 6201,
      "èªŃãģ¿": 6202,
      "ĠvolÃ©": 6203,
      "ãĤ§ãĤ¹": 6204,
      "Ġstation": 6205,
      "Ġfaible": 6206,
      "ãĤĴèģŀãģĦãģŁ": 6207,
      "ãģ¼ãģı": 6208,
      "ãĤĴå¼ķ": 6209,
      "æĬĢ": 6210,
      "ĠoccupÃ©e": 6211,
      "Ġpromesse": 6212,
      "ĸ²ãĤĮãģ¦ãģĦãĤĭ": 6213,
      "æ±ºãģĹãģ¦": 6214,
      "ĠÃ©trangers": 6215,
      "apprendre": 6216,
      "å¸°ãģ£ãģ¦": 6217,
      "è£ķ": 6218,
      "ãģĮè¦ĭãģĪãģŁ": 6219,
      "Ġparticul": 6220,
      "ĠÃ©poque": 6221,
      "ĠãĤ³ãĥ¼ãĥĴãĥ¼": 6222,
      "raph": 6223,
      "ãģ²ãģ©ãģı": 6224,
      "ĠÃ©lect": 6225,
      "³åĴĮ": 6226,
      "ĠÅĵufs": 6227,
      "Ġproposition": 6228,
      "enfant": 6229,
      "ĠratÃ©": 6230,
      "ãĤĴåıĹãģĳåıĸ": 6231,
      "æĪĳãĢħ": 6232,
      "Ã©tudie": 6233,
      "ãģĮçĹĽãģĦ": 6234,
      "èıľ": 6235,
      "Ġracont": 6236,
      "ĠDemain": 6237,
      "Ġsommeil": 6238,
      "tÃ©rieur": 6239,
      "ĠmoitiÃ©": 6240,
      "Ġbicycle": 6241,
      "bes": 6242,
      "da": 6243,
      "nant": 6244,
      "yez": 6245,
      "¤ľ": 6246,
      "¨®": 6247,
      "¨ãĥ¼ãĥŃ": 6248,
      "±Ĺ": 6249,
      "´ł": 6250,
      "¶Ļ": 6251,
      "¼·": 6252,
      "Ġï¼ĵ": 6253,
      "Ġéģłãģı": 6254,
      "īå¤§ãģª": 6255,
      "ĬĿ": 6256,
      "Ļ»": 6257,
      "ľãĥ¼ãĥ«": 6258,
      "ŀľ": 6259,
      "Ġdoute": 6260,
      "Ġdormi": 6261,
      "ãģĦãģ¨": 6262,
      "ãģĦãģ£ãģŁ": 6263,
      "ãģĦãģĳãģªãģĦ": 6264,
      "Ġpomme": 6265,
      "Ã©d": 6266,
      "ãģ®ãģĮ": 6267,
      "ãģ®æľ¨": 6268,
      "ãģ®éģĭè»¢": 6269,
      "ãģŁãģ°ãģĵ": 6270,
      "Ġsage": 6271,
      "ãģ«ç§ģ": 6272,
      "reuse": 6273,
      "ãĤĴçĶŁ": 6274,
      "ãĤĴãģ©ãģĨ": 6275,
      "Ġmess": 6276,
      "Ġmorte": 6277,
      "ãģ§è¡Į": 6278,
      "ãģ§å½¼å¥³": 6279,
      "ãģ§æĽ¸": 6280,
      "ĠåŃ¦çĶŁ": 6281,
      "ĠåİŁ": 6282,
      "Ġtante": 6283,
      "ãģĮãĤı": 6284,
      "ãģĭãģ¨": 6285,
      "ãģ¨ãģª": 6286,
      "Ġval": 6287,
      "Ġvend": 6288,
      "Ġvert": 6289,
      "Ġviend": 6290,
      "ãģ¾ãģĪ": 6291,
      "ãģ¾ãģĹãģ¦": 6292,
      "oix": 6293,
      "Ġquart": 6294,
      "Ġforte": 6295,
      "ãģĤãģ¨": 6296,
      "Ã¨tres": 6297,
      "ãģ¯å«Į": 6298,
      "Ġç§ģãģ®æ¯į": 6299,
      "ãģķãģĽãģ¦": 6300,
      "Ġpress": 6301,
      "ãģĳãģĮ": 6302,
      "Ġneuf": 6303,
      "Ġchange": 6304,
      "Ġparole": 6305,
      "veille": 6306,
      "velop": 6307,
      "ãģ«åĭīå¼·": 6308,
      "chant": 6309,
      "ãģ¤ãģ®": 6310,
      "ãĥ³ãĤ¹": 6311,
      "ãĤĴå°ĳãģĹ": 6312,
      "ãĤĴåĢŁãĤĬ": 6313,
      "ĠæĻĤéĸĵ": 6314,
      "Ġhiver": 6315,
      "Ġãĥ«": 6316,
      "ãģĹãģ¦ãģ¯ãģĦãģĳãģªãģĦ": 6317,
      "ãģ¯æĸ°ãģĹãģĦ": 6318,
      "ãĤıãĤīãģļ": 6319,
      "å¤ķ": 6320,
      "ãģĻãĤĭãģłãĤįãģĨ": 6321,
      "ĠPendant": 6322,
      "ãģ«æĬ": 6323,
      "ãģ«æĺ": 6324,
      "ãģ«æīĭ": 6325,
      "ĠAh": 6326,
      "Ġå½¼å¥³ãģ¯ãģĿãģ®": 6327,
      "ãĤ¤ãĥķ": 6328,
      "ãĤĦãģķ": 6329,
      "ãģ¾ãģĽãĤĵãģ§ãģĹãģŁ": 6330,
      "ãģ¯ç©º": 6331,
      "ãģ¹ãģ¦": 6332,
      "åıİ": 6333,
      "ãģĺãĤģ": 6334,
      "ensÃ©": 6335,
      "åħĥ": 6336,
      "Ã©rÃªt": 6337,
      "Ġgroupe": 6338,
      "ãģ®èĭ±èªŀ": 6339,
      "sique": 6340,
      "ãģŁãģ¡ãģ«": 6341,
      "æ°Ĺãģ«åħ¥": 6342,
      "ãģ®éļ": 6343,
      "åĽ£": 6344,
      "åĽł": 6345,
      "ãĥĥãĥģ": 6346,
      "ãĥĥãĤ°": 6347,
      "ãģ«èģŀ": 6348,
      "ãģ«èĲ½ãģ¡": 6349,
      "æĺĶ": 6350,
      "ãĤĴè¦ĭãĤĭ": 6351,
      "ĠVa": 6352,
      "raient": 6353,
      "èĢħãģł": 6354,
      "ãģĹãģ¦ãģĦãģ¾ãģĻãģĭ": 6355,
      "çµĦ": 6356,
      "ãģ«è¡Įãģįãģ¾ãģĹãģŁ": 6357,
      "pect": 6358,
      "ãĤĭãģ®ãģĮ": 6359,
      "ãģªãģıãģ¨ãĤĤ": 6360,
      "Ġcroy": 6361,
      "çķĻ": 6362,
      "ĠãģĬèħ¹": 6363,
      "ãģĿãģĨãģ§ãģĻ": 6364,
      "ãĤ¹ãĥĪãĥ": 6365,
      "Ġnouvel": 6366,
      "ĠprÃ©parÃ©": 6367,
      "ences": 6368,
      "Ġpermis": 6369,
      "Ã¢ge": 6370,
      "ãģªãģĳãĤĮãģ°ãģªãĤĬãģ¾ãģĽãĤĵ": 6371,
      "Ġç§ģãģ¯å½¼ãģ®": 6372,
      "å®¶ãģ§ãģĻ": 6373,
      "ĠFin": 6374,
      "Ġbrill": 6375,
      "ĠRom": 6376,
      "ĠRien": 6377,
      "ä¿¡çĶ¨": 6378,
      "ãĥĳãĥª": 6379,
      "ãģ«åħ¥ãĤĮãģŁ": 6380,
      "ĠãģĵãĤĮãģ¯": 6381,
      "ãĤĴçŁ¥ãģ£ãģ¦ãģĦãģ¾ãģĻãģĭ": 6382,
      "umeur": 6383,
      "ãģĵãģ¨ãģ¯ãģ§ãģįãģªãģĦ": 6384,
      "ãĤµãĥĥãĤ«ãĥ¼": 6385,
      "dÃ©j": 6386,
      "è²»": 6387,
      "å¤ĸåĽ½": 6388,
      "Ġvivant": 6389,
      "ãģ«åĲĮ": 6390,
      "ãģ¯æĺİ": 6391,
      "èĪ¬": 6392,
      "issent": 6393,
      "Ġcorre": 6394,
      "ĠãĤıãĤĮ": 6395,
      "ä»ĺãģĳ": 6396,
      "æŃ£ãģĹãģĦ": 6397,
      "Ġderniers": 6398,
      "Ġmerci": 6399,
      "Ġgentille": 6400,
      "Ġchercher": 6401,
      "ãģ«å¤ī": 6402,
      "Ġcourses": 6403,
      "ãģĹãģŁãģĦãģ®ãģ§ãģĻãģĮ": 6404,
      "ãĤĪãģĨãģ¨ãģĹãģŁ": 6405,
      "éł¼ãĤĵãģł": 6406,
      "Ġenseignant": 6407,
      "ãĤĴåıĹãģĳãģŁ": 6408,
      "Ġãĥķãĥ©ãĥ³ãĤ¹": 6409,
      "ĠdiffÃ©rence": 6410,
      "ãģĤãģĴãĤĭ": 6411,
      "ãģĵãģ¨ãģĮãģ§ãģįãģªãģĭãģ£ãģŁ": 6412,
      "è¿Ķäºĭ": 6413,
      "Ġpoissons": 6414,
      "Ġrecom": 6415,
      "Ġå®Ł": 6416,
      "Ġerreurs": 6417,
      "ãĤĴæĬķ": 6418,
      "ãģ«ç«ĭãģ¤": 6419,
      "ãģĭãģĮãģ§ãģĻãģĭ": 6420,
      "ĠÃ©levÃ©": 6421,
      "Ġcontraire": 6422,
      "æ·±": 6423,
      "oublie": 6424,
      "Ġsurpris": 6425,
      "å¿ĺãĤĮ": 6426,
      "åĪ¤æĸŃ": 6427,
      "ĠlÃ©gumes": 6428,
      "Ġpopulation": 6429,
      "äººãĤĤãģĦãĤĭ": 6430,
      "ĠprÃ©vu": 6431,
      "éĺª": 6432,
      "Ģ¤æ®µ": 6433,
      "Ġlunettes": 6434,
      "ãĤ¯ãĥªãĤ¹ãĥŀ": 6435,
      "ãĤĴæ¥½ãģĹãģ¿": 6436,
      "Ġsouhait": 6437,
      "į²å¾Ĺ": 6438,
      "ĠÃ©clat": 6439,
      "Ġjolie": 6440,
      "¥ĸçĪ¶": 6441,
      "è¦ıåīĩ": 6442,
      "Ġamoureux": 6443,
      "Ġpolicier": 6444,
      "Ġfootball": 6445,
      "æºĲ": 6446,
      "èª¤ãĤĬ": 6447,
      "Ġsuffis": 6448,
      "ĠcommenÃ§a": 6449,
      "Ġmachine": 6450,
      "åŀĭ": 6451,
      "ĠrÃ©sultats": 6452,
      "¨ãĥ¼ãĥŃãĥĥãĥĳ": 6453,
      "cÃ©e": 6454,
      "do": 6455,
      "hy": 6456,
      "iÃ©e": 6457,
      "imes": 6458,
      "lÃ©e": 6459,
      "noc": 6460,
      "port": 6461,
      "rons": 6462,
      "ram": 6463,
      "sÃ©": 6464,
      "saka": 6465,
      "£èĢħ": 6466,
      "®ãģĭ": 6467,
      "²¸": 6468,
      "²»": 6469,
      "³æĽ¸é¤¨": 6470,
      "¶å¯¾": 6471,
      "æ¢": 6472,
      "æĤªãģĦ": 6473,
      "æģĭ": 6474,
      "èĦ": 6475,
      "Ġï¼": 6476,
      "ĠãģĤãĤĭ": 6477,
      "Ġæľ¬å½ĵ": 6478,
      "ĠéĽª": 6479,
      "Ġira": 6480,
      "ı´åĬ©": 6481,
      "Ńļ": 6482,
      "Ġdanger": 6483,
      "ãģĦãģĹãģĦ": 6484,
      "ãģĦãģ§ãģĻãģĭ": 6485,
      "Ġpont": 6486,
      "Ġpoup": 6487,
      "enn": 6488,
      "ãģ«éĢļ": 6489,
      "ãģ«ãģĤãģ£ãģŁ": 6490,
      "Ġallez": 6491,
      "ãĤĴãģ¾": 6492,
      "ãĤĴãģĵ": 6493,
      "ãģ¦ãĤīãĤĮãģŁ": 6494,
      "Ġmir": 6495,
      "erme": 6496,
      "ertÃ©": 6497,
      "ãģ§ãģĦ": 6498,
      "Ġå°ĳãģĹ": 6499,
      "ãģ£ãģĵ": 6500,
      "Ġtort": 6501,
      "ãģĻãģ£ãģĭãĤĬ": 6502,
      "ãģĮãģ£ãģŁ": 6503,
      "ãģĮãģ£ãģ¦ãģĦãĤĭ": 6504,
      "ãģĮåĪĨ": 6505,
      "ãģĭãĤĵ": 6506,
      "ãģĭãģĭãģ£ãģŁ": 6507,
      "ãģ¨å½¼": 6508,
      "ãģ¨è©±": 6509,
      "Ġven": 6510,
      "Ġvint": 6511,
      "Ġfant": 6512,
      "Ġfleur": 6513,
      "ç§ĭ": 6514,
      "Ġlap": 6515,
      "ãĤīãĤĵ": 6516,
      "ãĤĤãģ¡": 6517,
      "Ġnat": 6518,
      "Ġnation": 6519,
      "ãģĤãĤīãĤĨãĤĭ": 6520,
      "ãĤĬè¿Ķ": 6521,
      "ãģ¯åģ¥åº·": 6522,
      "ãģįãģ¾ãģĻãģĭ": 6523,
      "Ġren": 6524,
      "Ġris": 6525,
      "ett": 6526,
      "llem": 6527,
      "Ġå½¼ãģ¯ãĤĤãģĨ": 6528,
      "Ġå½¼ãģ¯ãĥķãĥ©ãĥ³ãĤ¹èªŀ": 6529,
      "Ġsub": 6530,
      "anter": 6531,
      "atique": 6532,
      "selle": 6533,
      "Ġchaise": 6534,
      "Ġparoles": 6535,
      "ãĤĴè¡Į": 6536,
      "ãģ«å®¶": 6537,
      "ãģ«åĥį": 6538,
      "Ġgri": 6539,
      "Ġgauche": 6540,
      "äººãģĦãĤĭ": 6541,
      "æĹ¥ä¸Ń": 6542,
      "ãĤĴå¤§": 6543,
      "ãĤĴæ±º": 6544,
      "ĠæĦĽ": 6545,
      "éģĤ": 6546,
      "Ġå½¼å¥³ãģ®å": 6547,
      "Ġå½¼å¥³ãģ«ãģ¯": 6548,
      "ãģ¯æĪĳãĢħ": 6549,
      "rique": 6550,
      "ĠSur": 6551,
      "ãģ«æ°´": 6552,
      "ĠAl": 6553,
      "ĠAime": 6554,
      "Ġçī©": 6555,
      "å®¿é¡Į": 6556,
      "ãĤĴçĲĨè§£": 6557,
      "urs": 6558,
      "Ġfaits": 6559,
      "Ġanc": 6560,
      "ãģ£ãģ¦ãģĦãģ¾ãģĹãģŁ": 6561,
      "ãģ«ãģªãĤĭãģ¨": 6562,
      "acun": 6563,
      "ãĥ«ãĤ®": 6564,
      "Ġfrais": 6565,
      "åĩºæĿ¥ãĤĭ": 6566,
      "Ġèĭ¥ãģĦ": 6567,
      "ãģ®é¦ĸ": 6568,
      "ĠOh": 6569,
      "æķ¬": 6570,
      "ãĥĥãĥĪãĥ": 6571,
      "ãĤĮãĤĭãģ®": 6572,
      "ãĤĮãĤĭãģ¨": 6573,
      "éĻ¸": 6574,
      "ãģ§ãģĤãĤĭãģĵãģ¨": 6575,
      "oya": 6576,
      "ĠVou": 6577,
      "åĭ¤": 6578,
      "ç´Ģ": 6579,
      "èĢħãģĮ": 6580,
      "æĹ¥æľ¬äºº": 6581,
      "çµ¡": 6582,
      "ĠMontre": 6583,
      "ãģ«è¡Įãģįãģ¾ãģĻ": 6584,
      "Ġcroit": 6585,
      "ãĤ³ãĥ¼ãĥĪ": 6586,
      "ï¼ģãĢį": 6587,
      "ĠmalgrÃ©": 6588,
      "ĠãģĬéĩĳ": 6589,
      "ãģ¨ãģĦãģ£ãģŁ": 6590,
      "emb": 6591,
      "æĪ¸": 6592,
      "ä¹ı": 6593,
      "ĠãģĤãģĦãģ¤": 6594,
      "mÃ©n": 6595,
      "ãģĮèī¯": 6596,
      "ãĤĢãģĹãĤį": 6597,
      "Ġå¤ĸåĽ½": 6598,
      "Ġenfin": 6599,
      "ĠarrivÃ©s": 6600,
      "rÃ©able": 6601,
      "çĲĨè§£": 6602,
      "éģķãģĦãģªãģĦ": 6603,
      "Ġautor": 6604,
      "æľĪãģ«": 6605,
      "Ġesc": 6606,
      "ifiques": 6607,
      "ãģ¶ãĤĵ": 6608,
      "ãģĭãģĳãģ¦": 6609,
      "ãĥģãĥ§": 6610,
      "Ġamus": 6611,
      "excus": 6612,
      "ãģ¨ãģĵãĤįãģłãģ£ãģŁ": 6613,
      "ayer": 6614,
      "Ġsouvenir": 6615,
      "oko": 6616,
      "ãģ£ãģ¦ãĤĤãģĦãģĦãģ§ãģĻãģĭ": 6617,
      "Ġå½¼å¥³ãģ¯å¤": 6618,
      "Ġmatins": 6619,
      "æ¸©": 6620,
      "Ġjaponaises": 6621,
      "åĲĽãģ¯": 6622,
      "å¤ĸåĩº": 6623,
      "è³¢": 6624,
      "Ġchamp": 6625,
      "ĠrÃ©sult": 6626,
      "Ġcaract": 6627,
      "ãĤĴèªŃãĤĵãģł": 6628,
      "ãģ®å¤ı": 6629,
      "ĠGe": 6630,
      "ãģ¯å¤ĸ": 6631,
      "Ġconduis": 6632,
      "Ġconduite": 6633,
      "ãĤ®ãĤ¿ãĥ¼": 6634,
      "èªŃæĽ¸": 6635,
      "Ġchef": 6636,
      "ä¼ĳæļĩ": 6637,
      "ãĥŁãĥ«ãĤ¯": 6638,
      "ãģĵãĤĮä»¥ä¸Ĭ": 6639,
      "Ġviol": 6640,
      "Ġimm": 6641,
      "ãĤĴé£Łãģ¹ãģŁ": 6642,
      "éĩİèıľ": 6643,
      "Ġcuisiner": 6644,
      "è£½": 6645,
      "ãģ¾ãģĹãĤĩãģĨãģĭ": 6646,
      "Ġcapit": 6647,
      "ĠarrÃªt": 6648,
      "ãĤĴå®Ł": 6649,
      "ãģªãģıãģ¦ãģ¯ãģªãĤīãģªãģĦ": 6650,
      "ãĤ´ãĥ«ãĥķ": 6651,
      "Ġgrosse": 6652,
      "è·¡": 6653,
      "è¾¼ãģ¿": 6654,
      "è¾¼ãĤĵãģł": 6655,
      "Ġæ¯įãģ¯": 6656,
      "Ġdiscut": 6657,
      "éľĬ": 6658,
      "éĢ£ãĤĮãģ¦": 6659,
      "éĢ£çµ¡": 6660,
      "ĠãģĶãĤģãĤĵ": 6661,
      "Ġjuge": 6662,
      "Ġå¥½ãģį": 6663,
      "ç¦ģ": 6664,
      "åĪĿãĤģãģ¦": 6665,
      "³åĥı": 6666,
      "appeler": 6667,
      "ĠPrenez": 6668,
      "æĮĻ": 6669,
      "Ġsuivre": 6670,
      "Ġhumains": 6671,
      "å°ĳå¥³": 6672,
      "çĶ³ãģĹè¨³": 6673,
      "Ġopinion": 6674,
      "éĩįè¦ģãģª": 6675,
      "Ġãģ¾ãģļ": 6676,
      "æ¬¡ç¬¬": 6677,
      "ike": 6678,
      "ãģ¯æ¯İæĹ¥": 6679,
      "ãģ£ãģ±ãĤĬ": 6680,
      "ĠTony": 6681,
      "ãĥ¬ãĥ³ãĤ¸": 6682,
      "Ķ¿æ²»": 6683,
      "Ġcircul": 6684,
      "ĠçĻ½ãģĦ": 6685,
      "ãĥīãĤ¤ãĥĦèªŀ": 6686,
      "ĠdifficultÃ©s": 6687,
      "ãĤĪãĤįãģĹãģĦ": 6688,
      "Ġsituation": 6689,
      "Angleterre": 6690,
      "ĠBonjour": 6691,
      "Ġphotos": 6692,
      "æĴĥ": 6693,
      "æĻĤãģ«èµ·": 6694,
      "Ġrecherche": 6695,
      "ĠArr": 6696,
      "occuper": 6697,
      "éĩ£ãĤĬ": 6698,
      "ä»ĺãģįåĲĪ": 6699,
      "éŁ¿": 6700,
      "Ġlundi": 6701,
      "Ġbicyclette": 6702,
      "ĠãĤıãĤĮãĤıãĤĮ": 6703,
      "ãĥ«ãĤ®ãĥ¼": 6704,
      "ĠrÃ©sultat": 6705,
      "ah": 6706,
      "hier": 6707,
      "ote": 6708,
      "voir": 6709,
      "zarre": 6710,
      "§¿": 6711,
      "¨æĸĩ": 6712,
      "±Ĭ": 6713,
      "¶ļ": 6714,
      "¶äºī": 6715,
      "·¦": 6716,
      "¸Ĭ": 6717,
      "¿ħè¦ģ": 6718,
      "æ¼Ķ": 6719,
      "èĤ": 6720,
      "Ġir": 6721,
      "Ġä¸ĩ": 6722,
      "ĨæĿ¥": 6723,
      "Ĭæķ¬": 6724,
      "Ŀĳ": 6725,
      "Ń©": 6726,
      "ãģģ": 6727,
      "ãģ¯ãģĦãģĦ": 6728,
      "ãģ¯æľ¬å½ĵ": 6729,
      "ãģ¯ãģĤãģ¾ãĤĬ": 6730,
      "Ġpierre": 6731,
      "ãĥ¶": 6732,
      "Ã©ch": 6733,
      "Ã©lÃ¨": 6734,
      "aill": 6735,
      "ãģ®çĶŁæ´»": 6736,
      "ãģ®ãģ»ãģĨ": 6737,
      "ãģ®èªķçĶŁæĹ¥": 6738,
      "ãģ®ä¸ĸè©±": 6739,
      "one": 6740,
      "onie": 6741,
      "once": 6742,
      "ãģ«ãģı": 6743,
      "ãĤĴãģĭãģĳãģŁ": 6744,
      "ãģĹãģķ": 6745,
      "ãģĹãģĿãģĨ": 6746,
      "ãģ§ä½ķ": 6747,
      "Ġå¹": 6748,
      "Ġåīį": 6749,
      "ĠåħĦ": 6750,
      "ĠåĮ»èĢħ": 6751,
      "Ġåĭķçī©": 6752,
      "Ġå¼Ł": 6753,
      "Ġtar": 6754,
      "ãģĮãģĻ": 6755,
      "ãģĮãģĦãģ¾ãģĻ": 6756,
      "ãģĭãĤĤ": 6757,
      "ãģ¨è¨ĢãĤı": 6758,
      "Ġpatr": 6759,
      "Ġfurent": 6760,
      "ãģĵãģ®æ": 6761,
      "ãģłãģŃ": 6762,
      "iser": 6763,
      "ãģĤãģĴãģŁ": 6764,
      "Ġbag": 6765,
      "ãģįãĤĥ": 6766,
      "Ġç§ģãģ®ç": 6767,
      "inter": 6768,
      "inst": 6769,
      "itation": 6770,
      "ori": 6771,
      "Ġå½¼ãģ¯ä¸Ģ": 6772,
      "Ġå½¼ãģ¯ãģĿãģ®ç": 6773,
      "ãģ®åł´": 6774,
      "ãģ®åĲį": 6775,
      "ĠprÃªter": 6776,
      "Ġtran": 6777,
      "Ġchale": 6778,
      "Ġaurait": 6779,
      "ãĤĴè£": 6780,
      "ãģ«åį": 6781,
      "ĠTatoeba": 6782,
      "ãģĵãģ¨ãģ«": 6783,
      "æĹ¥éĸĵ": 6784,
      "Ġç§ģãģ¯æ¯İæĹ¥": 6785,
      "ãĤĴæµ": 6786,
      "Ġæĸ°ãģĹãģĦ": 6787,
      "èªĮ": 6788,
      "ãģ®æķĻ": 6789,
      "ãģ®æĪĲåĬŁ": 6790,
      "endie": 6791,
      "ĠMaman": 6792,
      "ĠMike": 6793,
      "è¨º": 6794,
      "è¨Ń": 6795,
      "åĪ°çĿĢ": 6796,
      "Ãªtes": 6797,
      "ãĤıãģªãģĭãģ£ãģŁ": 6798,
      "å¤ª": 6799,
      "rim": 6800,
      "ãĤģãĤĵãģªãģķãģĦ": 6801,
      "ãģĻãĤĭãģ®ãģ¯": 6802,
      "tur": 6803,
      "ãģ«æĢ": 6804,
      "ãģ«æĦŁ": 6805,
      "ãģ«æºĢè¶³": 6806,
      "ĠAmÃ©ric": 6807,
      "ãģ®ç¾İ": 6808,
      "ãģ®çĻº": 6809,
      "ĠçļĨ": 6810,
      "å®¹": 6811,
      "ãĤĴç½®": 6812,
      "abord": 6813,
      "æĢ¥ãģĦãģ§": 6814,
      "Ġdipl": 6815,
      "ãģ¹ãģŁ": 6816,
      "Ġinnoc": 6817,
      "ï¼ĳï¼Ĵ": 6818,
      "ãģ®è³ªåķı": 6819,
      "Ġfront": 6820,
      "ãĤĵãģ§ãģĦãģ¾ãģĻ": 6821,
      "Ã´tre": 6822,
      "Ã´mes": 6823,
      "ãĤĴè¦ĭãĤĭãģ¨": 6824,
      "ãģĶãĤį": 6825,
      "ãģłãģ£ãģŁãĤī": 6826,
      "Ġmaj": 6827,
      "åīįãģ§": 6828,
      "å¤§åŃ¦": 6829,
      "å¤§ä¸Īå¤«": 6830,
      "ãģ¯ãĥĲ": 6831,
      "ãģ¯ãĥŃ": 6832,
      "ãĤĪãĤĬãģ¯": 6833,
      "ãģĮæ¸": 6834,
      "ãģĮæĤª": 6835,
      "Ġcru": 6836,
      "Ġcray": 6837,
      "Ġentendre": 6838,
      "ĠentiÃ¨rement": 6839,
      "Ġexemp": 6840,
      "çķ°": 6841,
      "èª°ãģĭ": 6842,
      "å½±": 6843,
      "ĠæĺłçĶ»": 6844,
      "ĠãģĬåīį": 6845,
      "Ġseras": 6846,
      "åľ§": 6847,
      "ãģ¨ãģĦãģ£ãģ¦": 6848,
      "ãĤ¸ãĤ§ãĥ¼ãĥ³": 6849,
      "Ã¢te": 6850,
      "åįģåĪĨ": 6851,
      "Ġattendu": 6852,
      "Ġretr": 6853,
      "ãģ®äººåı£": 6854,
      "ä¿¡ãģĹãģ¦ãģĦãĤĭ": 6855,
      "Ġç§ģãģŁãģ¡ãģ®": 6856,
      "ãģ«åħ¥ãĤĭ": 6857,
      "èĢĥãģĪãģŁ": 6858,
      "ãģŁãģıãģªãģĦ": 6859,
      "ãģ¨ãģĵãĤįãģł": 6860,
      "ĠæĹ¥æľ¬èªŀ": 6861,
      "Ġcouleur": 6862,
      "ãĤµãĥ³": 6863,
      "ĠpensÃ©": 6864,
      "èģŀãģĦãģŁ": 6865,
      "ãĥĹãĥ¬ãĤ¼ãĥ³ãĥĪ": 6866,
      "ĠAss": 6867,
      "Ġå½¼ãģ®è©±": 6868,
      "Ġpropres": 6869,
      "Ġcartes": 6870,
      "ãĤĴèªŃãĤĢ": 6871,
      "æļĸ": 6872,
      "æļĹ": 6873,
      "ĠGarde": 6874,
      "èªŃãĤĵãģł": 6875,
      "ãģĿãģĵãģ¸": 6876,
      "åħ¨éĥ¨": 6877,
      "æ¬²ãģĹãģĦ": 6878,
      "ĠdÃ©cision": 6879,
      "Ġtermes": 6880,
      "ãģ«åıĸ": 6881,
      "ĠmariÃ©e": 6882,
      "ĠrÃ©pondu": 6883,
      "ãģ¨åĲĮæ§ĺ": 6884,
      "Ġfume": 6885,
      "import": 6886,
      "ãģĵãģĨãģ¨": 6887,
      "ĠÃ©tudes": 6888,
      "èĭ¦": 6889,
      "ĠãģĿãĤĵãģªãģĵãģ¨": 6890,
      "action": 6891,
      "ĠpoÃ¨te": 6892,
      "åĸľ": 6893,
      "ãĤ½ãĥ³": 6894,
      "Ġsoient": 6895,
      "Ġefforts": 6896,
      "ãģłãģ¨æĢĿãģĦãģ¾ãģĻ": 6897,
      "ĠdÃ©barr": 6898,
      "ãģ¯å¥½ãģįãģ§ãģĻãģĭ": 6899,
      "æ¨©": 6900,
      "Ġinform": 6901,
      "æīĭç´ĻãĤĴæĽ¸": 6902,
      "ĠãĤıãģŁãģĹãģ¯": 6903,
      "Ġscience": 6904,
      "ãģ®éłŃ": 6905,
      "ĠagrÃ©able": 6906,
      "oublier": 6907,
      "ãģ«è¦ĭãģĪãĤĭ": 6908,
      "ãĤĴæıı": 6909,
      "Ġsurprise": 6910,
      "æ£®": 6911,
      "ãĤĴæīķ": 6912,
      "Ġattraper": 6913,
      "ãģ«éĸ¢ãģĹãģ¦": 6914,
      "Ġbattre": 6915,
      "ãģ®é«ª": 6916,
      "ãģįãĤĮãģĦãģª": 6917,
      "ĠinvitÃ©": 6918,
      "ĠsÃ©rieux": 6919,
      "ĠprogrÃ¨s": 6920,
      "ãĤĴå°½ãģı": 6921,
      "agnol": 6922,
      "Ġsymp": 6923,
      "Ġpleurer": 6924,
      "ĠfrappÃ©": 6925,
      "ãģ¯ãĥĨãĥ¬ãĥĵ": 6926,
      "ĠterminÃ©": 6927,
      "ĠÃ©checs": 6928,
      "ãĤįãģĦãĤį": 6929,
      "ç¯Ģ": 6930,
      "Ġbleu": 6931,
      "ãĤĴå¤±ãģ£ãģŁ": 6932,
      "¤įçī©": 6933,
      "ĠÃ©lÃ¨ves": 6934,
      "Ġemprunter": 6935,
      "Ġcomportement": 6936,
      "ãģĨãģĿãĤĴãģ¤": 6937,
      "ãĤĴç«ĭãģ¦": 6938,
      "ĠdiffÃ©rentes": 6939,
      "ĠpossÃ¨": 6940,
      "ĠéłŃ": 6941,
      "Ġbillet": 6942,
      "Ġrarement": 6943,
      "Ġarticle": 6944,
      "ĠpÃ©riode": 6945,
      "ĠCanada": 6946,
      "inquiÃ¨te": 6947,
      "Ġgouvernement": 6948,
      "dÃ©jeuner": 6949,
      "Ġrecommand": 6950,
      "ãĤĤãģ¡ãĤį": 6951,
      "ĠAimez": 6952,
      "cuse": 6953,
      "dis": 6954,
      "her": 6955,
      "ia": 6956,
      "lit": 6957,
      "lac": 6958,
      "naie": 6959,
      "uri": 6960,
      "uÃ©e": 6961,
      "wn": 6962,
      "¢«": 6963,
      "¬Ŀ": 6964,
      "®ãģĹ": 6965,
      "¸Ń": 6966,
      "ºå¸¯": 6967,
      "¿Ķ": 6968,
      "æ¿": 6969,
      "æºĢ": 6970,
      "æģĲ": 6971,
      "çĹħ": 6972,
      "Ġï¼ķ": 6973,
      "ĠæĹ¥æĽľæĹ¥": 6974,
      "ģèŃ·": 6975,
      "Ĥ¹": 6976,
      "ħåŃĲ": 6977,
      "ħåĬĽ": 6978,
      "Ī¦": 6979,
      "Į»": 6980,
      "İ³": 6981,
      "Ĳºå¸¯": 6982,
      "ĳãģĵãģĨ": 6983,
      "ĻãģĹãģĦ": 6984,
      "Ŀ±": 6985,
      "ãģ¯ãģªãģĭãģ£ãģŁ": 6986,
      "ãģ¯è¦ĭ": 6987,
      "ãģ¯ãģĦãģ¤": 6988,
      "ãģ¯ãģĵãģĵ": 6989,
      "ãģ¯éĿŀå¸¸": 6990,
      "Ġdiv": 6991,
      "Ã©ducation": 6992,
      "ãģ®ãģªãģĦ": 6993,
      "ãģ®è©¦åĲĪ": 6994,
      "ãģ«éģķãģĦãģªãģĦ": 6995,
      "ãĤĴãģĶ": 6996,
      "ãĤĴä¸ĭ": 6997,
      "ãĤĴãĤĪãģı": 6998,
      "ãĤĴãģŁãģıãģķãĤĵ": 6999,
      "ãĤĴé£Ľ": 7000,
      "Ġmou": 7001,
      "Ġmil": 7002,
      "Ġmign": 7003,
      "Ġmienne": 7004,
      "ãģ§ãģĤãĤĬ": 7005,
      "ãģ§æļ®ãĤī": 7006,
      "Ġå°": 7007,
      "ĠåĽ½": 7008,
      "Ġå½ĵ": 7009,
      "ãģĮåħ¥": 7010,
      "ãģĮãģĨãģ¾ãģĦ": 7011,
      "Ġfab": 7012,
      "ç§»": 7013,
      "ç§ģãģ¯å½¼": 7014,
      "ãģıãĤĮãģ¦": 7015,
      "omne": 7016,
      "Ġboute": 7017,
      "ãģįãģ¿": 7018,
      "Ġrav": 7019,
      "ĠrÃ©e": 7020,
      "Ġrenv": 7021,
      "Ġç§ģãĤĤ": 7022,
      "Ġç§ģãģ®å®¶": 7023,
      "ãģĿãģĹãģ¦": 7024,
      "ormÃ©": 7025,
      "Ġenc": 7026,
      "Ġenle": 7027,
      "Ġå½¼ãģ¯ä½ķ": 7028,
      "ãģ®å½¼": 7029,
      "ãģ®å¿ĥ": 7030,
      "ĠchangÃ©": 7031,
      "ĠparaÃ®t": 7032,
      "ãĤĴèĦ": 7033,
      "äººãģ¯æ": 7034,
      "ãģ£ãģ¦ãģŁ": 7035,
      "Ġç§ģãģ¯ãĤĤãģĨ": 7036,
      "Ġç§ģãģ¯èĩªåĪĨ": 7037,
      "Ġç§ģãģ¯ãģĦãģ¤ãĤĤ": 7038,
      "ãĤĴåĽ": 7039,
      "Ġæ¥½": 7040,
      "ãģĬãģĨ": 7041,
      "Ġceci": 7042,
      "Ġhonte": 7043,
      "ĠhÃ¢te": 7044,
      "ãģ®æ°´": 7045,
      "ĠãĥĶ": 7046,
      "endue": 7047,
      "ĠMal": 7048,
      "irÃ©": 7049,
      "ãĤģãģªãģĦ": 7050,
      "Ġrem": 7051,
      "ĠSu": 7052,
      "ĠPenses": 7053,
      "ãģ«æ²": 7054,
      "ãģ«æĤªãģĦ": 7055,
      "Ġãģĵãģ¡ãĤī": 7056,
      "è©³": 7057,
      "Ġmonnaie": 7058,
      "amÃ©": 7059,
      "äºĭæ¥Ń": 7060,
      "ãģ®çľŁ": 7061,
      "ãģ®çī©": 7062,
      "ĠÃ©m": 7063,
      "Ġå½¼å¥³ãģ¯ãģ¨ãģ¦ãĤĤ": 7064,
      "Ġå½¼å¥³ãģ¯èĩªåĪĨ": 7065,
      "Ġå½¼å¥³ãģ¯èĭ±èªŀ": 7066,
      "è¨ĢãģĪãģ°": 7067,
      "ãģĤãģªãģŁãģ«": 7068,
      "ãĤĴçĬ¯": 7069,
      "Ġcondu": 7070,
      "åĪĨãģ§": 7071,
      "urope": 7072,
      "Ġinqui": 7073,
      "ãģĺãģ¦": 7074,
      "åħ¬åľĴ": 7075,
      "ãģ«ãģ¯ä½ķ": 7076,
      "ãģ®è¿ĳãģı": 7077,
      "chement": 7078,
      "ãģŃãģ¦": 7079,
      "blig": 7080,
      "ãģ»ãģĭ": 7081,
      "æĺ¼": 7082,
      "åº«": 7083,
      "miÃ¨res": 7084,
      "Ġaim": 7085,
      "Ġaimes": 7086,
      "ĠaidÃ©": 7087,
      "Ġore": 7088,
      "Ġé»": 7089,
      "Ġå½¼ãģ¯å®¶": 7090,
      "å±Ī": 7091,
      "ãĤ«ãĥĬãĥĢ": 7092,
      "å¼ķ": 7093,
      "çµµ": 7094,
      "ãģĿãĤĮãģĮ": 7095,
      "ãģªãģıãģª": 7096,
      "ãģªãģıãģªãģ£ãģŁ": 7097,
      "éĥİ": 7098,
      "å½©": 7099,
      "Ġdisait": 7100,
      "Ġserp": 7101,
      "Ġcompter": 7102,
      "ãĤ¸ãĥ§": 7103,
      "æĪ¦äºī": 7104,
      "Ń¦å®ĺ": 7105,
      "æ³ģ": 7106,
      "Ġjoueur": 7107,
      "ãĥĲãĥ¼": 7108,
      "çļ¿": 7109,
      "çļĨ": 7110,
      "ãĤ·ãĤ¢": 7111,
      "ãģĮèī¯ãģĦ": 7112,
      "ĠFerme": 7113,
      "Ġarrivera": 7114,
      "çĲĨçĶ±": 7115,
      "Ġferai": 7116,
      "ãģĮç©º": 7117,
      "ĠEntre": 7118,
      "éģħãĤĮãģ¦": 7119,
      "Ġsaison": 7120,
      "æĻĤéĸĵãģĮ": 7121,
      "ãĥĳãĤ¤": 7122,
      "åĪĩãĤĮ": 7123,
      "èĢĥãģĪãģ¦": 7124,
      "ãģ¶ãĤĬ": 7125,
      "éķ·ãģı": 7126,
      "ä¸ĸç´Ģ": 7127,
      "çĶ¨æĦı": 7128,
      "ocat": 7129,
      "Ġsortit": 7130,
      "Ġsortie": 7131,
      "æĺİãģĹãģŁ": 7132,
      "Ġgarde": 7133,
      "ĠãĤ¸ãĤ§ãĥ¼ãĥ³": 7134,
      "ãģ«ãģªãĤĭãģłãĤįãģĨ": 7135,
      "æ¥½ãģĹãģĦ": 7136,
      "ãĤµãĥ¼ãĥĪ": 7137,
      "ãĤµãĤ®": 7138,
      "åĢĭ": 7139,
      "Ġriz": 7140,
      "ãĤĴãģ¤ãģĳãģŁ": 7141,
      "ãĤĴãģ¤ãģĳãģ¦": 7142,
      "è¨ĢãģĨãģĵãģ¨": 7143,
      "ãģ«åĩºãģĭãģĳ": 7144,
      "Ġtombe": 7145,
      "ãģ®å¤¢": 7146,
      "å¿ħè¦ģãģĮãģĤãĤĭ": 7147,
      "Ġmoindre": 7148,
      "åħ¨çĦ¶": 7149,
      "Ġadore": 7150,
      "ograph": 7151,
      "å·±": 7152,
      "Ġvitesse": 7153,
      "Ġsentir": 7154,
      "çĤº": 7155,
      "ï¼Ķï¼Ĳ": 7156,
      "æİĽ": 7157,
      "Ġå¤§ä¸Īå¤«": 7158,
      "Ġlitt": 7159,
      "¿Ĵæħ£": 7160,
      "ĠsÃ»re": 7161,
      "ĠarrÃªter": 7162,
      "ç¨ĭ": 7163,
      "æ³³ãģİ": 7164,
      "ãĤĴåĪ©çĶ¨": 7165,
      "ãĤĴéĸĭãģĳ": 7166,
      "çĶŁãģįãģ¦ãģĦãĤĭ": 7167,
      "ãĥ¯ãĥ¼": 7168,
      "ãĥ¯ãĤ¤ãĥ³": 7169,
      "Ġåı³": 7170,
      "ãģ«åĲĪæł¼": 7171,
      "Ġpuiss": 7172,
      "ãģ²ãģ¨ãĤĬ": 7173,
      "Ġå®ĩå®Ļ": 7174,
      "Ġfilms": 7175,
      "ç¶ļãģĳãģŁ": 7176,
      "ãĥªãĥ³ãĤ´": 7177,
      "Ġquitter": 7178,
      "ãģ®æĦıåĳ³": 7179,
      "Ġfoule": 7180,
      "Ġprincip": 7181,
      "Ġnuages": 7182,
      "è¬Ģ": 7183,
      "æ£Ĵ": 7184,
      "ãģ¯å¿ħãģļ": 7185,
      "ãģ®é«ĺ": 7186,
      "ç§ĳåŃ¦èĢħ": 7187,
      "ĠmÃ©tro": 7188,
      "¯ĿãĤĭ": 7189,
      "éģİãģĶãģĹãģŁ": 7190,
      "Ġpopulaire": 7191,
      "æĤĶ": 7192,
      "uko": 7193,
      "Ġtremble": 7194,
      "ãģ«æīĭç´ĻãĤĴæĽ¸": 7195,
      "ãĥ¼ãĥĪãĥ«": 7196,
      "Ġservice": 7197,
      "ãĤ¹ãĥļãĤ¤ãĥ³èªŀ": 7198,
      "ãģįãģ®ãģĨ": 7199,
      "ãģĮèģŀãģĵãģĪãģŁ": 7200,
      "ĠVoici": 7201,
      "Ġmidi": 7202,
      "ãĥ©ãĤ¸ãĤª": 7203,
      "Ġprobablement": 7204,
      "Ġchocol": 7205,
      "Ġsuffisamment": 7206,
      "llemagne": 7207,
      "excuser": 7208,
      "Ġcirculation": 7209,
      "11": 7210,
      "50": 7211,
      "bout": 7212,
      "con": 7213,
      "gne": 7214,
      "hÃ©s": 7215,
      "pes": 7216,
      "rou": 7217,
      "rain": 7218,
      "ug": 7219,
      "£®": 7220,
      "¤ħåŃĲ": 7221,
      "¨å¹´": 7222,
      "®º": 7223,
      "½éľĬ": 7224,
      "¾¤": 7225,
      "å¨ĺ": 7226,
      "å¦¹": 7227,
      "åĴĮ": 7228,
      "æ¼": 7229,
      "èĶ": 7230,
      "èĻ": 7231,
      "é¼": 7232,
      "ĠæĹ¥": 7233,
      "ĠãĤĪãģı": 7234,
      "Ġä¸į": 7235,
      "Ġäºĭæķħ": 7236,
      "ĠéĽ¨ãģĮéĻį": 7237,
      "Ġä¸¡è¦ª": 7238,
      "ĠãĤ¹ãĥŁãĤ¹": 7239,
      "ħ¹": 7240,
      "ĩãĤĬ": 7241,
      "ĭ¤": 7242,
      "ı¤ãģĦ": 7243,
      "Ĵæ¥Ń": 7244,
      "ķĳ": 7245,
      "ķ£æŃ©": 7246,
      "ļĸ": 7247,
      "ŀĦ": 7248,
      "ãģ¯ãģ£ãģįãĤĬ": 7249,
      "Ġdest": 7250,
      "Ã©te": 7251,
      "Ġligne": 7252,
      "aitement": 7253,
      "ãģ®ãģĽ": 7254,
      "ãģ®éĩĳ": 7255,
      "ãģ®ä¸Ģãģ¤": 7256,
      "ãģŁãģĹãģŁ": 7257,
      "Ġsom": 7258,
      "ãģ«äºº": 7259,
      "ãģ«ãģĹãģ¦ãģĦãģ¾ãģĻ": 7260,
      "ãģ«ãģĭãģĭ": 7261,
      "Ġcan": 7262,
      "ãģªäºº": 7263,
      "ãģªãĤĤãģ®": 7264,
      "ãĤĴãģĤãģĴ": 7265,
      "ãĤĴé£¼": 7266,
      "ãĤĭãģĦ": 7267,
      "ãĤĭãģłãĤįãģĨ": 7268,
      "Ġå¾": 7269,
      "Ġtaille": 7270,
      "ãģĻãģ§": 7271,
      "ãģĮãĤĭ": 7272,
      "ãģĮéĸĭ": 7273,
      "ãģĭãģªãģĦãģ§": 7274,
      "ãģĭãģĭãĤĬãģ¾ãģĻãģĭ": 7275,
      "ãģ¨å½¼ãģ¯": 7276,
      "lex": 7277,
      "Ġvendre": 7278,
      "ĠvÃ©rif": 7279,
      "ãģ¾ãģªãģĦ": 7280,
      "ãģ¾ãģ£ãģ¦": 7281,
      "entend": 7282,
      "entends": 7283,
      "ĠfiÃ¨": 7284,
      "ç§ģãģ¯æ": 7285,
      "ç§ģãģ¯ç": 7286,
      "istes": 7287,
      "ãĤĤãģĤãĤĭ": 7288,
      "ãĤĵãģ¾ãĤĬ": 7289,
      "ãģ£ãģŁãĤĬ": 7290,
      "Ġnive": 7291,
      "ĠbÃ¢t": 7292,
      "ãģ¯åŃĲä¾Ľ": 7293,
      "ä¸¸": 7294,
      "ãģįãĤī": 7295,
      "intÃ©": 7296,
      "itiÃ©": 7297,
      "ãģĿãĤį": 7298,
      "llection": 7299,
      "ãģķãģ¾": 7300,
      "Ġå½¼ãģ¯ãģĿãģ®æ": 7301,
      "ĠLuc": 7302,
      "ãģ®å°ı": 7303,
      "ãģ®åŃ¦æł¡": 7304,
      "aud": 7305,
      "ãģ¾ãģĻãģ¾ãģĻ": 7306,
      "atif": 7307,
      "Ġneig": 7308,
      "ĠchÃ¨re": 7309,
      "Ġaupar": 7310,
      "chait": 7311,
      "ĠTe": 7312,
      "Ġplage": 7313,
      "æĹ¥ãģ§": 7314,
      "Ġç§ģãģ¯ãģĵ": 7315,
      "Ġç§ģãģ¯æĺ": 7316,
      "Ġç§ģãģ¯æĺİæĹ¥": 7317,
      "Ġæīĭ": 7318,
      "ĠæĿ±äº¬": 7319,
      "ĠæĪ¦äºī": 7320,
      "ĠÃ©tions": 7321,
      "Ġhein": 7322,
      "ãģ®æ¯": 7323,
      "ãģ®æł": 7324,
      "allais": 7325,
      "ĠãĥĽ": 7326,
      "ĠMain": 7327,
      "irai": 7328,
      "ãģ¯æĻ": 7329,
      "ãģ¯æŃ»": 7330,
      "asp": 7331,
      "å¤ı": 7332,
      "quel": 7333,
      "ãģĻãĤĭãĤĪãģĨ": 7334,
      "Ġremet": 7335,
      "oires": 7336,
      "ãģ«æĮ¯": 7337,
      "ãģ«æħ£": 7338,
      "Ġãģĵãģ®é": 7339,
      "Ġãģĵãģ®æĸĩ": 7340,
      "ĠdÃ©part": 7341,
      "resp": 7342,
      "ĠAp": 7343,
      "ä¼ģ": 7344,
      "äºĭä»¶": 7345,
      "äºĭåĭĻæīĢ": 7346,
      "ĠÃ©l": 7347,
      "ivre": 7348,
      "Ġå½¼å¥³ãģ¯ä»Ĭ": 7349,
      "ĠrÃ©alis": 7350,
      "ãĤĴç¥": 7351,
      "ãĤĴç¿Ĵ": 7352,
      "ãĤĴçį²å¾Ĺ": 7353,
      "ueill": 7354,
      "è»į": 7355,
      "uritÃ©": 7356,
      "æĻĤãģ¾ãģ§": 7357,
      "ension": 7358,
      "ĠãĤ¦": 7359,
      "ĠãĤ¬": 7360,
      "ãģ«çĽ®": 7361,
      "Ġfruits": 7362,
      "å¿ľ": 7363,
      "ĠèŃ¦å¯Ł": 7364,
      "åĽ²": 7365,
      "ãģļãģ«": 7366,
      "å¥½ãģįãģ§ãģĻãģĭ": 7367,
      "ãģ«è¿ĳ": 7368,
      "ãģĶãĤģãĤĵãģªãģķãģĦ": 7369,
      "ĠéŁ³": 7370,
      "illÃ©e": 7371,
      "Ġpartici": 7372,
      "ĠVotre": 7373,
      "raite": 7374,
      "ãģĴãģªãģĦ": 7375,
      "Ġä»Ĭå¹´": 7376,
      "ãģĿãĤĮãģ¨ãĤĤ": 7377,
      "Ġæĺİ": 7378,
      "ĠãģĬèĮ¶": 7379,
      "Ġserais": 7380,
      "åľŁ": 7381,
      "ãģ¨ãģĦãģĳãģªãģĦ": 7382,
      "ĠãģĤãģ®äºº": 7383,
      "éĿ´": 7384,
      "Ġperte": 7385,
      "Ã¢teau": 7386,
      "æĸ¹ãģĮ": 7387,
      "ãĤĮãģªãģĦãģ§": 7388,
      "åįĥ": 7389,
      "adore": 7390,
      "Ġbonheur": 7391,
      "ãģ¨ãģĦãģĨãĤĤãģ®": 7392,
      "Ġç§ģãģŁãģ¡ãģĮ": 7393,
      "ãĤĴæĮģãģ£ãģ¦ãģĦãģŁ": 7394,
      "æľĪæĽľæĹ¥": 7395,
      "éģħåĪ»": 7396,
      "Ġcouru": 7397,
      "ãģ¯ä½ķãĤĤ": 7398,
      "ĠåĥķãģĮ": 7399,
      "Ã©crire": 7400,
      "Ã©conom": 7401,
      "Ġå½¼ãģ¯ç§ģãģ®": 7402,
      "ä¸įè¶³": 7403,
      "è¡Ģ": 7404,
      "ĠposÃ©": 7405,
      "ĠpayÃ©": 7406,
      "ä¹Ĺå®¢": 7407,
      "ãģĵãģĵãģ§": 7408,
      "ãģ«ãģ¯å¤": 7409,
      "æ´Ĺ": 7410,
      "Ġcoutu": 7411,
      "dÃ©es": 7412,
      "èģŀãģĵ": 7413,
      "Ġrevenir": 7414,
      "ĠQuelqu": 7415,
      "é¨Ĵ": 7416,
      "ĠãĤĤãģĨå°ĳãģĹ": 7417,
      "èĪ¹": 7418,
      "èĪĪåĳ³": 7419,
      "æķĻèĤ²": 7420,
      "ãģ¡ãĤĥãģ£ãģŁ": 7421,
      "Ġfautes": 7422,
      "ĠæĺİæĹ¥ãģ®æľĿ": 7423,
      "Ġèª°ãģ§ãĤĤ": 7424,
      "ĠdÃ©sir": 7425,
      "æ¬ł": 7426,
      "èµ·ãģįãģŁ": 7427,
      "ãģ¨ãģ¯éĻĲ": 7428,
      "Ġchauff": 7429,
      "åĤĺ": 7430,
      "ãģ«åı£": 7431,
      "ãģ«åıĤ": 7432,
      "éģ¸æĮĻ": 7433,
      "ĠvidÃ©": 7434,
      "ç¤¾ä¼ļ": 7435,
      "Ġmagaz": 7436,
      "èħķ": 7437,
      "é«ĺæł¡": 7438,
      "ãĥľãĥ¼ãĥ«": 7439,
      "ãĤĴè¨ĢãģĨ": 7440,
      "ãģ«ãĤĪãĤĮãģ°": 7441,
      "Ġdurant": 7442,
      "ä¸Ĭæīĭãģ«": 7443,
      "ãģ®æĸ¹ãģĮ": 7444,
      "ĠæĪĳãĢħãģ¯": 7445,
      "¹¸ç¦ı": 7446,
      "æķ°åŃ¦": 7447,
      "Ġmoder": 7448,
      "å¾ĹæĦı": 7449,
      "ãģ¯åį±éĻº": 7450,
      "ãģ²ãģ¨ãĤĬãģ§": 7451,
      "ãģĦãģĨæĦıåĳ³": 7452,
      "ãģĹãģ°ãĤīãģı": 7453,
      "Ġbizarre": 7454,
      "æµ´": 7455,
      "ãģ«ãģĹãģ¦ãģĬ": 7456,
      "Ġaccomp": 7457,
      "ãĤ³ãĥ³ãĥĶãĥ¥ãĥ¼ãĤ¿ãĥ¼": 7458,
      "ä¾¿ãĤĬ": 7459,
      "Ġ50": 7460,
      "Ġplaisanter": 7461,
      "vident": 7462,
      "ĠgÃ©nÃ©ralement": 7463,
      "³³ãģİ": 7464,
      "æĮ¯": 7465,
      "æĮĩ": 7466,
      "İŁåĽł": 7467,
      "Ġconnaissance": 7468,
      "Ġrattr": 7469,
      "ĠrefusÃ©": 7470,
      "ŃĶãģĪ": 7471,
      "ãģ®åĨĻçľŁ": 7472,
      "ãĤ·ãĥ£ãĥĦ": 7473,
      "ĠãĥīãĤ¤ãĥĦ": 7474,
      "Ġenvironnement": 7475,
      "Ġpatience": 7476,
      "Ġæĸĩ": 7477,
      "ãĤĴæŃ©": 7478,
      "iko": 7479,
      "Ġdoig": 7480,
      "avantage": 7481,
      "ãĤĴæĦĽãģĹãģ¦ãģĦãĤĭ": 7482,
      "Ġcalme": 7483,
      "éĺ²": 7484,
      "äº¡ãģıãģªãģ£ãģŁ": 7485,
      "äºĪå®ļãģ§ãģĻ": 7486,
      "ĲĮãģĺ": 7487,
      "æľºãģ®ä¸Ĭ": 7488,
      "ĠãģķãģĤ": 7489,
      "ä½Ļè£ķ": 7490,
      "ãģ®éĿ´": 7491,
      "Ġmoyens": 7492,
      "Ġmensonge": 7493,
      "Ġgarder": 7494,
      "arriver": 7495,
      "éĢĶä¸Ńãģ§": 7496,
      "ãĤĴä¸ĢæĿ¯": 7497,
      "Ġconstruit": 7498,
      "çĬ¶æħĭ": 7499,
      "è±¡": 7500,
      "Ġscientifique": 7501,
      "ĠsiÃ¨cle": 7502,
      "ãĤĴå£²": 7503,
      "åĲĪãĤıãģĽ": 7504,
      "åıĹãģĳ": 7505,
      "ĠlibertÃ©": 7506,
      "Ġcinquante": 7507,
      "Ġéķ·ãģĦ": 7508,
      "æ´¾ãģª": 7509,
      "ĠlycÃ©e": 7510,
      "ouillard": 7511,
      "ĠgoÃ»t": 7512,
      "ĠÃ©toiles": 7513,
      "ĠãĤ¸ãĥ§ãĥ¼ãĤ¸": 7514,
      "åĦĢ": 7515,
      "ĠTanaka": 7516,
      "ĠãĤ¸ãĥ£ãĥĥãĤ¯": 7517,
      "casion": 7518,
      "Ġtimide": 7519,
      "Ġexactement": 7520,
      "ĠprÃ©parer": 7521,
      "å¬īãģĹãģĦ": 7522,
      "ĵģçī©": 7523,
      "æ¢°": 7524,
      "ĠpoupÃ©e": 7525,
      "Ġrisque": 7526,
      "ĠGeorge": 7527,
      "ĠArrÃªte": 7528,
      "Ġexemple": 7529,
      "ĠfiÃ¨vre": 7530,
      "Ġauparavant": 7531,
      "ĠMaintenant": 7532,
      "allemand": 7533,
      "cience": 7534,
      "eff": 7535,
      "gan": 7536,
      "gles": 7537,
      "mÃ¨re": 7538,
      "main": 7539,
      "mage": 7540,
      "pens": 7541,
      "raÃ®": 7542,
      "th": 7543,
      "ª¨": 7544,
      "¶ħ": 7545,
      "·¥": 7546,
      "¸¸": 7547,
      "»ĥ": 7548,
      "åĺ": 7549,
      "åī²": 7550,
      "å»º": 7551,
      "å³¶": 7552,
      "æģ¯": 7553,
      "ĠçĶ·": 7554,
      "ĠãĤ¤ãĥ³": 7555,
      "Ġä»ĸ": 7556,
      "Ġä¸ŃåĽ½": 7557,
      "ģīå¤§ãģª": 7558,
      "Ĥ£èĢħ": 7559,
      "ĥ½": 7560,
      "ĥħ": 7561,
      "ĨŁ": 7562,
      "ĨĻçľŁ": 7563,
      "ĩç¬¦": 7564,
      "ĵ¶": 7565,
      "ķª": 7566,
      "ĸ«": 7567,
      "Ĺĺ": 7568,
      "ĿãĤģãģ¦": 7569,
      "Łº": 7570,
      "ãģ´": 7571,
      "Ġdavantage": 7572,
      "Ġpot": 7573,
      "Ã©le": 7574,
      "Ġlois": 7575,
      "ãģ®ä»£": 7576,
      "ãģ®è¨ĪçĶ»": 7577,
      "ãģŁãģļ": 7578,
      "Ġsigne": 7579,
      "ãģ«ä¸Ģ": 7580,
      "ãģ«ãģŁãģıãģķãĤĵ": 7581,
      "ãģ«éł¼": 7582,
      "Ġcoin": 7583,
      "Ġcouver": 7584,
      "ãĤĴãģª": 7585,
      "ãĤĴãģ¨ãģ¦ãĤĤ": 7586,
      "Ġmy": 7587,
      "Ġmen": 7588,
      "Ġmord": 7589,
      "ãģ§ä½ľ": 7590,
      "ãĤĭãģĵãģ¨ãģĮ": 7591,
      "Ġdebout": 7592,
      "Ġåģ¥": 7593,
      "anches": 7594,
      "ãģ£ãģĭ": 7595,
      "Ġtest": 7596,
      "Ġtal": 7597,
      "ãģĭãģªãģĳãĤĮãģ°ãģªãĤīãģªãģĦ": 7598,
      "ãģĭæķĻãģĪãģ¦": 7599,
      "let": 7600,
      "Ġvar": 7601,
      "net": 7602,
      "Ġpage": 7603,
      "Ġquant": 7604,
      "Ġfall": 7605,
      "eue": 7606,
      "ãģłãģª": 7607,
      "ãģĨãĤĭ": 7608,
      "Ġlaver": 7609,
      "isme": 7610,
      "ãĤĤãģ¨": 7611,
      "ĠnÃ©e": 7612,
      "Ġnot": 7613,
      "ãģ¦ãģĦãģ¾ãģĻãģĭ": 7614,
      "omac": 7615,
      "Ġlett": 7616,
      "ãĤĬãģ¾ãģĻãģĭ": 7617,
      "ãģ¯å¼": 7618,
      "ãģ¯å¾": 7619,
      "ãģ¯åĲ": 7620,
      "ãģ¯å·Ŀ": 7621,
      "Ġrendez": 7622,
      "inte": 7623,
      "inform": 7624,
      "ita": 7625,
      "Ġenne": 7626,
      "Ġå½¼ãģ¯ãĤĪãģı": 7627,
      "ãģ®å°ĳå¹´": 7628,
      "ãģ®å¦¹": 7629,
      "aujourd": 7630,
      "ãģĳãĤĮ": 7631,
      "Ġsueur": 7632,
      "Ġnett": 7633,
      "ĠchÃ¨": 7634,
      "Ġparmi": 7635,
      "vement": 7636,
      "ĠgÃ©": 7637,
      "cevoir": 7638,
      "éģ¿": 7639,
      "ãģĬé¡ĺãģĦãģĹãģ¾ãģĻ": 7640,
      "ãĤ¹ãģ¯": 7641,
      "Ġhaute": 7642,
      "ãģ®æĺ": 7643,
      "ãģ®æķ°": 7644,
      "Ġãĥª": 7645,
      "Ġãĥ¬": 7646,
      "ĠãĥŁ": 7647,
      "ãģ¯æµ·": 7648,
      "ãģ¯æĿ±äº¬": 7649,
      "ãĤıãĤĮãģ¦ãģĦãĤĭ": 7650,
      "rig": 7651,
      "ãģĻãĤĭãĤĪ": 7652,
      "ĠSel": 7653,
      "ãģ«æ±º": 7654,
      "ãģ«æĸ°ãģĹãģĦ": 7655,
      "ĠdÃ©mar": 7656,
      "ãĥ¼ãĥģ": 7657,
      "ĠAv": 7658,
      "ãģ®çłĶç©¶": 7659,
      "osition": 7660,
      "ĠçĨ±": 7661,
      "ĠÃ©vident": 7662,
      "éĢĨ": 7663,
      "çĶŁçī©": 7664,
      "ãģĤãģªãģŁãģ®": 7665,
      "ortÃ©": 7666,
      "å½¼ãģ¯å": 7667,
      "Ġprov": 7668,
      "åĲ¦": 7669,
      "ãĤ¢ãĥ³": 7670,
      "ãģ¯ç°¡åįĺ": 7671,
      "Ġign": 7672,
      "ĠDÃ¨s": 7673,
      "ãģ«ãģªãĤīãģªãģĦ": 7674,
      "ãĥ©ãĤ¦ãĥ³": 7675,
      "ä¸Ńãģ«": 7676,
      "ãģ®èĬ±": 7677,
      "utilis": 7678,
      "ãĤĴè¦ģ": 7679,
      "è¦ĭãģ¦": 7680,
      "è»Ĭãģ§": 7681,
      "è»ĬãĤĴéģĭè»¢": 7682,
      "Ġè¶³": 7683,
      "ãģ®é¡": 7684,
      "ãģ®é§ħ": 7685,
      "ĠãģĤãģªãģŁãģ®ãģĬ": 7686,
      "ĠOu": 7687,
      "ĠOsaka": 7688,
      "Ġdemie": 7689,
      "ãģ¦ãĤĤãģĦãģĦãģ§ãģĻãģĭ": 7690,
      "mine": 7691,
      "ãģĶé£¯": 7692,
      "ãģĶãĤīãĤĵ": 7693,
      "Ġé³¥": 7694,
      "Ġpartout": 7695,
      "ãĤ«ãĥ¼ãĥī": 7696,
      "ĠCeci": 7697,
      "ãģ«è¡ĮãģĭãģªãģĦ": 7698,
      "ĠmariÃ©": 7699,
      "ãģ¯èµ¤": 7700,
      "Ġexam": 7701,
      "Ġextr": 7702,
      "ãĢħãģ¨": 7703,
      "ãĥĨãĥ³": 7704,
      "ĠãģĬçĪ¶ãģķãĤĵ": 7705,
      "Ġç§ģãģ¯å°ĳãģĹ": 7706,
      "ãĥ¡ãĥ¼ãĥĪãĥ«": 7707,
      "Ġcompagn": 7708,
      "é£Łãģ¹ãģŁ": 7709,
      "ãĤ¸ãĤ¢": 7710,
      "çŁ¥ãĤī": 7711,
      "çŁ¥ãĤĬåĲĪ": 7712,
      "Ġvase": 7713,
      "ãģłãģĳãģ§ãģĻ": 7714,
      "æľĢåĸĦ": 7715,
      "Ġgrands": 7716,
      "çĻ¾": 7717,
      "Ġsemaines": 7718,
      "Ġå¤ı": 7719,
      "ä½ıãĤĢ": 7720,
      "ĠMay": 7721,
      "Ġretraite": 7722,
      "ãĤĪãģĨãģ«ãģĹãģ¦": 7723,
      "ãĤĴèª¿": 7724,
      "ãĤĴèªį": 7725,
      "Ġaccus": 7726,
      "ãĥĵãĥ¼ãĥ«": 7727,
      "ãĤĴæĮģãģ£ãģ¦ãģĦãģ¾ãģĻãģĭ": 7728,
      "ĠconnaÃ®tre": 7729,
      "éģħãģĦ": 7730,
      "Ġclim": 7731,
      "Ġcourse": 7732,
      "ãģ¯ä½ķãģ§ãĤĤ": 7733,
      "Ġconst": 7734,
      "ãģ¨ãģįãģ©ãģį": 7735,
      "åĨ·": 7736,
      "ãĤªãĥ¬ãĥ³ãĤ¸": 7737,
      "Ġcouteau": 7738,
      "è³ŀ": 7739,
      "Ġcollection": 7740,
      "ĠcoupÃ©": 7741,
      "ĠrÃ©serv": 7742,
      "è¾ŀæĽ¸": 7743,
      "ãĤĴèªŃãģ¿": 7744,
      "ãĥŀãĥ³": 7745,
      "ãģ®å¤ľ": 7746,
      "æļĳ": 7747,
      "ãģ®çµĮ": 7748,
      "ãĤĴãĤĦãĤģ": 7749,
      "ãģ£ãģ¦ãĤĭãĤĪ": 7750,
      "éĸĵéģķãģ£ãģ¦ãģĦãĤĭ": 7751,
      "ides": 7752,
      "ĠprÃ©fÃ©": 7753,
      "Ġportable": 7754,
      "åĥįãģĦãģŁ": 7755,
      "Ġmauvaises": 7756,
      "Ġpoints": 7757,
      "ãĤĴãģĬé¡ĺãģĦãģĹãģ¾ãģĻ": 7758,
      "ption": 7759,
      "Ġmontrer": 7760,
      "æİ¥": 7761,
      "ãģ«å¤¢": 7762,
      "ãģ«å¤ļãģı": 7763,
      "ĠÃ¢g": 7764,
      "Ġå½¼å¥³ãģ¯ç§ģãģ«": 7765,
      "Ġmets": 7766,
      "å¸°å®ħ": 7767,
      "ĠgÃ©nie": 7768,
      "Ġsecond": 7769,
      "Ġincap": 7770,
      "Ġinconn": 7771,
      "ãĤĴåĲĳ": 7772,
      "æ³³ãģĲ": 7773,
      "accomp": 7774,
      "åĸ¶": 7775,
      "è¦ªåĪĩãģ«ãĤĤ": 7776,
      "Ġ20": 7777,
      "éĽªãģĮéĻį": 7778,
      "ĠãĤ³ãĥ³": 7779,
      "Ġsoif": 7780,
      "æľįãĤĴçĿĢ": 7781,
      "ä¸Ģåº¦ãĤĤ": 7782,
      "ãģĤãĤĬãģĮãģ¨ãģĨãģĶãģĸãģĦãģ¾ãģĻ": 7783,
      "ãĤĴãģ¨ãģ£ãģŁ": 7784,
      "ãģ¯å¥½ãģįãģ§ãģ¯ãģªãģĦ": 7785,
      "ħĻèįī": 7786,
      "ãĤĴä½¿ãģĨ": 7787,
      "èª¿åŃĲ": 7788,
      "envir": 7789,
      "ivement": 7790,
      "ĠcoÃ»t": 7791,
      "Ġendormi": 7792,
      "Ġhumain": 7793,
      "Ġsouffle": 7794,
      "ĠãĤ¸ãĥ§ãĥ³ãģ¯": 7795,
      "ç¿Ĵæħ£": 7796,
      "åĽ³æĽ¸é¤¨": 7797,
      "ãĤĦãĤĬæĸ¹": 7798,
      "ĠLorsqu": 7799,
      "ĠsÃ©rieusement": 7800,
      "Ġindis": 7801,
      "é©ļãģĦãģŁ": 7802,
      "æĪ»ãģ£ãģ¦": 7803,
      "ãģĨãĤĵãģĸ": 7804,
      "Ġproduits": 7805,
      "ception": 7806,
      "ãĤĴè¨ªãĤĮãģŁ": 7807,
      "çµĤãĤıãģ£ãģŁ": 7808,
      "ãģłãģĳãģ§ãģªãģı": 7809,
      "Ķ¿åºľ": 7810,
      "Ġinstant": 7811,
      "anniversaire": 7812,
      "Ġtype": 7813,
      "ãĤĴæĦŁãģĺãģŁ": 7814,
      "ãģ«ãģ¡ãģĮãģĦãģªãģĦ": 7815,
      "Ġcitoy": 7816,
      "ãģĮé³´ãģ£ãģŁ": 7817,
      "éĽĳèªĮ": 7818,
      "Ġå¤©æ°Ĺ": 7819,
      "åŁŁ": 7820,
      "ãĤĴãģªãģıãģĹãģŁ": 7821,
      "ĠConnaissez": 7822,
      "Ġskier": 7823,
      "ãģĭçŁ¥ãģ£ãģ¦ãģĦãģ¾ãģĻãģĭ": 7824,
      "Ã©tudi": 7825,
      "Ġchinois": 7826,
      "Ġsoudainement": 7827,
      "æįķ": 7828,
      "Ġstupide": 7829,
      "ãĤ³ãĥ¬ãĥ¼ãĥĪ": 7830,
      "éģĵãģ«è¿·ãģ£ãģŁ": 7831,
      "ãĥ¶æľĪ": 7832,
      "ãĤĤãģ¡ãĤįãĤĵ": 7833,
      "Ġmilieu": 7834,
      "Ġfabri": 7835,
      "Ġchocolat": 7836,
      "Ġsommet": 7837,
      "Ġlettres": 7838,
      "ĠSelon": 7839,
      ".Â»": 7840,
      "Oui": 7841,
      "aÃ¯": 7842,
      "ich": 7843,
      "ibles": 7844,
      "land": 7845,
      "los": 7846,
      "man": 7847,
      "pÃ©ri": 7848,
      "ta": 7849,
      "vÃ©e": 7850,
      "±ĭ": 7851,
      "²¾": 7852,
      "´¹ä»ĭ": 7853,
      "µĲ": 7854,
      "¶¯": 7855,
      "·¨": 7856,
      "»ħ": 7857,
      "åģ¥åº·": 7858,
      "å¦»": 7859,
      "å¦Ļ": 7860,
      "æ¶": 7861,
      "æ»ŀåľ¨": 7862,
      "çĹĩ": 7863,
      "çĵ¶": 7864,
      "éº": 7865,
      "éĹĺ": 7866,
      "Ġãģ¨": 7867,
      "Ġãģ©": 7868,
      "Ġæľ¨": 7869,
      "Ġé£Ľè¡Įæ©Ł": 7870,
      "ĠéĽ»è»Ĭ": 7871,
      "Ġä»ĸäºº": 7872,
      "Ģĸ": 7873,
      "ģµ": 7874,
      "ħèĮ¶": 7875,
      "Ĩ¬": 7876,
      "īµ": 7877,
      "ĮçĴ": 7878,
      "įĺèªŀ": 7879,
      "İå¹´": 7880,
      "ĸĦ": 7881,
      "Ľĩ": 7882,
      "Ŀ¡": 7883,
      "Łéĩĳ": 7884,
      "łå®Ł": 7885,
      "ãĤħ": 7886,
      "ãģ¯ãģª": 7887,
      "ãģ¯ãģ¾": 7888,
      "ãģ¯ãģĿãģ®å": 7889,
      "ãģ¯ãģ¿ãĤĵãģª": 7890,
      "ãģ¯ãģ¿ãģª": 7891,
      "ãģĦãĤĦ": 7892,
      "ãģ®ãĤĪãģĦ": 7893,
      "ãģŁãĤĵ": 7894,
      "Ġsoup": 7895,
      "ãģ«ãģ§ãĤĤ": 7896,
      "Ġallemand": 7897,
      "Ġcess": 7898,
      "ãĤĴãģĭãĤī": 7899,
      "ãĤĴä¿®çĲĨ": 7900,
      "Ġmorce": 7901,
      "ãģ§ãģªãģı": 7902,
      "ãģ§æŃ»ãĤĵãģł": 7903,
      "ĠåĪĨ": 7904,
      "Ġtim": 7905,
      "Ġtenu": 7906,
      "ãģĮæĿ¥": 7907,
      "ãģĮä¸ĭ": 7908,
      "ãģĮé«ĺ": 7909,
      "ãģĮä¸Ĭæīĭ": 7910,
      "ãģĭãģ£ãģ¦ãģĦãĤĭ": 7911,
      "ãģĭãĤĮãĤĭ": 7912,
      "ãģĭãĤĮãģ¦ãģĦãĤĭ": 7913,
      "ãģĭãģ®ãĤĪãģĨãģ«": 7914,
      "Ġvain": 7915,
      "Ġvide": 7916,
      "ĠJou": 7917,
      "ĠJus": 7918,
      "ãģ¾ãģ£ãģ¦ãģĦãĤĭ": 7919,
      "Ġfon": 7920,
      "issez": 7921,
      "ãģıãģĵãģ¨": 7922,
      "ãĤīãģĦãģĦ": 7923,
      "ilise": 7924,
      "ãģ£ãģŁãģĮ": 7925,
      "ãĢģãĢĮ": 7926,
      "ãģ¦ãģĦãģ¦": 7927,
      "Ġbar": 7928,
      "Ġbal": 7929,
      "Ġboit": 7930,
      "Ġbelles": 7931,
      "ãģ¯å¯": 7932,
      "ouse": 7933,
      "ouser": 7934,
      "ä¸ĺ": 7935,
      "ãģªãģĦãģ®": 7936,
      "inaire": 7937,
      "å¥ĩ": 7938,
      "arbre": 7939,
      "user": 7940,
      "ãģķãģĭ": 7941,
      "ãģķãĤĮãģ¦": 7942,
      "orÃ©": 7943,
      "ortu": 7944,
      "Ġeng": 7945,
      "Ġå½¼ãģ¯ãģĿãĤĮ": 7946,
      "Ġå½¼ãģ¯æĸ°ãģĹãģĦ": 7947,
      "Ġå½¼ãģ¯éĩĳæĮģãģ¡": 7948,
      "ãģ®å°": 7949,
      "ãģ®åĲ": 7950,
      "ãĥ¼ãĤ¶": 7951,
      "aurai": 7952,
      "Ġprenez": 7953,
      "Ġaurais": 7954,
      "ĠauprÃ¨s": 7955,
      "ãĤĴè¡¨": 7956,
      "ä»°": 7957,
      "ãģ£ãģ¦ãģıãĤĮ": 7958,
      "æĹ¥ãģ«": 7959,
      "ãģĪãģĪ": 7960,
      "ãģĪãģ¾ãģĹãģŁ": 7961,
      "ãģĪãģªãģķãģĦ": 7962,
      "cemment": 7963,
      "Ġç§ģãģ¯éŁ³æ¥½": 7964,
      "ãĤĴåĨ": 7965,
      "ãĤĴåī²": 7966,
      "ãĤĴåĤ·": 7967,
      "ãĤĴæ°Ĺ": 7968,
      "ãĤĴæ¨ª": 7969,
      "Ġæİ": 7970,
      "ĠæĤªãģĦ": 7971,
      "ĠæŃ»": 7972,
      "ĠÃ©tais": 7973,
      "Ġå½¼å¥³ãģ®æ": 7974,
      "ãģ¡ãģ°ãĤĵ": 7975,
      "ãģ®æī": 7976,
      "Ġãĥĭãĥ¥ãĥ¼ãĥ¨ãĥ¼ãĤ¯": 7977,
      "agÃ¨re": 7978,
      "ĠMont": 7979,
      "ãģ¯æķ°": 7980,
      "ãģ¯æļĹ": 7981,
      "å¤ķé£Ł": 7982,
      "ãģĻãĤĭãģĵãģ¨ãģĮ": 7983,
      "ãģĻãĤĭãģŁãĤģ": 7984,
      "ãģĻãĤĭãĤĪãģĨãģ«": 7985,
      "ãģĻãĤĭãģŁãĤģãģ«": 7986,
      "ĠNag": 7987,
      "llerai": 7988,
      "ĠSal": 7989,
      "ĠdÃ©mÃ©n": 7990,
      "ãģ°ãģĭ": 7991,
      "ãģ°ãĤĮãģŁ": 7992,
      "ĠAimes": 7993,
      "anges": 7994,
      "ä¼¸": 7995,
      "ãģ®ç¿Ĵæħ£": 7996,
      "ĠçŁ¥": 7997,
      "Ġçľł": 7998,
      "ĠÃ©lu": 7999,
      "ãĤĴç£¨": 8000,
      "ãĤĪãģĨãģ«ãģªãģ£ãģŁ": 8001,
      "ãĤ¤ãĥ¤": 8002,
      "abilitÃ©": 8003,
      "åĪĨãģ®": 8004,
      "åĪĨãģĭãģ£ãģŁ": 8005,
      "ãģ¯çĹħæ°Ĺ": 8006,
      "æĻĤãģ«å": 8007,
      "èĩĵ": 8008,
      "Ġpeup": 8009,
      "ĠDites": 8010,
      "ãģĺãĤĭ": 8011,
      "çīĩ": 8012,
      "esses": 8013,
      "essayer": 8014,
      "ĠgrÃ¢ce": 8015,
      "ãģ«çŁ¥": 8016,
      "ãģ«ç½®": 8017,
      "ãģ®èĥĮ": 8018,
      "å¾¡": 8019,
      "siÃ¨re": 8020,
      "oph": 8021,
      "opp": 8022,
      "Ġarbre": 8023,
      "Ġarbres": 8024,
      "Ġallait": 8025,
      "å¿Ĺ": 8026,
      "æĢĿãģĦåĩº": 8027,
      "ãģ¸åĩº": 8028,
      "Ġdevrions": 8029,
      "æĺĩ": 8030,
      "ãĤĮãģ°ãģĦãģĦ": 8031,
      "ãģĶãĤģãĤĵ": 8032,
      "Ġoblig": 8033,
      "ãģĦãģ¦ãĤĭ": 8034,
      "åĬ¹": 8035,
      "ĠéŃļ": 8036,
      "å±ŀ": 8037,
      "ctif": 8038,
      "ãĤĤãģ®ãģ§ãģĤãĤĭ": 8039,
      "ĠVenez": 8040,
      "å¼¾": 8041,
      "ortez": 8042,
      "å¤§åĪĩ": 8043,
      "ä¸ĭéīĦ": 8044,
      "ãģªãģıãģ¦ãģĦãģĦ": 8045,
      "éĥ·": 8046,
      "éĥµä¾¿": 8047,
      "ĠentrÃ©": 8048,
      "èª°ãģ§ãĤĤ": 8049,
      "èĩªåĪĨãģ§": 8050,
      "ãģĮå¥½ãģįãģ§ãģ¯ãģªãģĦ": 8051,
      "çĽĬ": 8052,
      "éłĨ": 8053,
      "ĠÃ©criv": 8054,
      "Ġvaleur": 8055,
      "ä»ķäºĭãĤĴçµĤ": 8056,
      "åĲĪãģĨ": 8057,
      "Ġgrandi": 8058,
      "Ġmaterne": 8059,
      "Ġarriva": 8060,
      "Ġ16": 8061,
      "Ġ18": 8062,
      "Ġfinan": 8063,
      "ãĥĭãĥ¥ãĥ¼ãĥ¨ãĥ¼ãĤ¯": 8064,
      "Ġbros": 8065,
      "éģķãģĦ": 8066,
      "ĠRe": 8067,
      "ãĤŃãĥ£ãĥ³": 8068,
      "Ġpassion": 8069,
      "éĽ»è©±çķªåı·": 8070,
      "ãĥĵãĥ«": 8071,
      "ĠfermÃ©": 8072,
      "ãģ¨ãģĦãģĨãģ®": 8073,
      "ãģ®ãģĭãģª": 8074,
      "Ġcontact": 8075,
      "ãģĮçĹħæ°Ĺ": 8076,
      "Ġconnu": 8077,
      "assembl": 8078,
      "ãĤĭãģ¨ãģĵãĤį": 8079,
      "ľŁãģ£": 8080,
      "ãĤĴçŁ¥ãģ£ãģ¦ãģĦãģ¾ãģĻ": 8081,
      "ĠenvoyÃ©": 8082,
      "æĽ¿": 8083,
      "ãģ¨ãģįãģ¯": 8084,
      "ãĥŃãĥ³": 8085,
      "æĹ©ãģĦ": 8086,
      "æĹ©èµ·ãģį": 8087,
      "ä½ľåĵģ": 8088,
      "okk": 8089,
      "ãģ«ä¼ļãģĦ": 8090,
      "ãģ«ä¼ļãģĦãģ¾ãģĹãģŁ": 8091,
      "è¨Ģãģ£ãģŁãģĵãģ¨": 8092,
      "éļĬ": 8093,
      "ĠHokk": 8094,
      "ãĤªãĥ¼ãĤ¹ãĥĪãĥ©ãĥªãĤ¢": 8095,
      "©Łæ¢°": 8096,
      "è²¸": 8097,
      "ãģĹãģıãģ¦": 8098,
      "ãģŁãģıãģķãĤĵãģ®": 8099,
      "Ġregardant": 8100,
      "éĩįãģĦ": 8101,
      "ĠãģĿãģ®åĽ½": 8102,
      "ãĤĴãģ¤ãģĳ": 8103,
      "æŃ©ãģĦãģŁ": 8104,
      "è¾º": 8105,
      "ĠQuelques": 8106,
      "ãģ«åĩºçĻº": 8107,
      "ãĥŀãĤ¤ãĥ«": 8108,
      "ĠParlez": 8109,
      "ĠsoirÃ©e": 8110,
      "ãģ®å¤©": 8111,
      "Ġminute": 8112,
      "æķĻå¸«": 8113,
      "ãģ¨ãģĨãģ¨ãģĨ": 8114,
      "å¿ħè¦ģãģ¯ãģªãģĦ": 8115,
      "ãĥĬãĥ¼": 8116,
      "ãģ§ãģĹãģŁãģĭ": 8117,
      "èªŃãĤĵãģ§": 8118,
      "èªŃãĤĢ": 8119,
      "ãģĿãģĵãģ¸è¡Į": 8120,
      "espoir": 8121,
      "ãĤ¨ãĥ³": 8122,
      "ãģłãģ¨ä¿¡ãģĺ": 8123,
      "éĿ¢çĻ½": 8124,
      "Ġcorresp": 8125,
      "Ġrentre": 8126,
      "Ġutile": 8127,
      "èī¯ãģı": 8128,
      "Ġentreprise": 8129,
      "ãģ«ãģĬä¼ļãģĦ": 8130,
      "Ġpeint": 8131,
      "ãģĵãĤĮãĤī": 8132,
      "ĠrÃ©pondit": 8133,
      "Ġballe": 8134,
      "Ħıåĳ³": 8135,
      "ãĤĦãģ£ãģ¦ãģįãģŁ": 8136,
      "æİĪ": 8137,
      "Ġmerveille": 8138,
      "æĸĩåŃ¦": 8139,
      "å§ĭãĤģ": 8140,
      "è¨ĢãĤıãģªãģĭãģ£ãģŁ": 8141,
      "ãģ«ãģªãĤĬãģ¾ãģĹãģŁ": 8142,
      "¿ĺãĤĮ": 8143,
      "éĢ²æŃ©": 8144,
      "æĶ¯": 8145,
      "ãģĨãģ¡ãģ«": 8146,
      "å°ıãģķãģĦ": 8147,
      "Ġenseigne": 8148,
      "Ĭ©è¨Ģ": 8149,
      "ãĤĴåĩºãģĹãģŁ": 8150,
      "Ġpasseport": 8151,
      "éĥ½å¸Ĥ": 8152,
      "Ġnaturellement": 8153,
      "åıĭäºº": 8154,
      "è²·ãģĦçī©": 8155,
      "ä¸»ç¾©": 8156,
      "Ġbouche": 8157,
      "Ġouver": 8158,
      "ãĥ¯ãĤ¤": 8159,
      "æµ·éģĵ": 8160,
      "å¹¸ç¦ı": 8161,
      "ãģ²ãģ¨ãģ¤": 8162,
      "çĶ°ä¸Ń": 8163,
      "Ġaccidents": 8164,
      "ãĤ³ãĥ³ãĤµãĥ¼ãĥĪ": 8165,
      "æ¨¡": 8166,
      "æ¨ª": 8167,
      "rown": 8168,
      "Ġãĥĳãĥª": 8169,
      "ĠintÃ©ressÃ©": 8170,
      "ãģ¯ãģļãģĮãģªãģĦ": 8171,
      "ĲĨçĶ±": 8172,
      "æľ¬ãĤĴèªŃãĤĢ": 8173,
      "ãģķãģĪãģĻãĤĮãģ°": 8174,
      "Ġsuivant": 8175,
      "ĠdÃ©faut": 8176,
      "åĲĳãģĳ": 8177,
      "ãģ«å¿ľ": 8178,
      "éĢĥãģĴãģŁ": 8179,
      "çĶŁæ¶¯": 8180,
      "Ġartiste": 8181,
      "å£°ãģ§": 8182,
      "Ġcrime": 8183,
      "Ġåħ¬åľĴ": 8184,
      "Ġdistance": 8185,
      "ĸ¬ãĤĴé£²": 8186,
      "ãĤĴè¦ļãģĪãģ¦ãģĦãĤĭ": 8187,
      "æ°ĹãģĮãģĻãĤĭ": 8188,
      "ãģ«éģħåĪ»": 8189,
      "ãĤĴä¸İãģĪãĤĭ": 8190,
      "ãĤ¹ãĥĿãĥ¼ãĥĪ": 8191,
      "ĠFumer": 8192,
      "ãĤĴå®ĪãĤĭ": 8193,
      "ologie": 8194,
      "Ġsouhaite": 8195,
      "ĠRegardez": 8196,
      "ç¸¾": 8197,
      "ãģĦãģ¦ãģĦãģ¾ãģĻãģĭ": 8198,
      "éĢĢå±Ī": 8199,
      "ĠåħĪéĢ±": 8200,
      "ĠdifficultÃ©": 8201,
      "Ġcolline": 8202,
      "Ġrappeler": 8203,
      "ãĥ¦ãĤ³": 8204,
      "Ġscientifiques": 8205,
      "Ġatteindre": 8206,
      "ä¾¡åĢ¤ãģĮãģĤãĤĭ": 8207,
      "ä¹ħãģĹ": 8208,
      "Ĭ¸è¡ĵå®¶": 8209,
      "ãģĮãģŁãģıãģķãĤĵãģĤãĤĭ": 8210,
      "ĠÃ©couter": 8211,
      "ãĤĴæŃ¢ãĤģ": 8212,
      "ĠrÃ©flÃ©chir": 8213,
      "Ġfaveur": 8214,
      "Ã©glise": 8215,
      "Ġconvaincu": 8216,
      "âĢ¦": 8217,
      "ãĤĴå§ĭãĤģãģŁ": 8218,
      "ĠacceptÃ©": 8219,
      "ãģ¯çĻ½": 8220,
      "Ġmagnifique": 8221,
      "Ġticket": 8222,
      "ĠhÃ´tel": 8223,
      "ãĤ¯ãĥ©ãĥĸ": 8224,
      "ãĤ²ãĥ¼ãĥł": 8225,
      "Ġmessage": 8226,
      "ĠFinalement": 8227,
      "ĠRome": 8228,
      "ãĤ¯ãĥªãĤ¹ãĥŀãĤ¹": 8229,
      "ramme": 8230,
      "ĠfantÃ´mes": 8231,
      "ĠAlors": 8232,
      "instant": 8233,
      "Ġchaleur": 8234,
      "ĠdÃ©barrasser": 8235,
      "Ġniveau": 8236,
      "intÃ©resse": 8237,
      "ĠéŁ³æ¥½": 8238,
      "ĠMayuko": 8239,
      "Ġindispens": 8240,
      "ĮçĴ§": 8241,
      "Ġcorrespond": 8242,
      "Italie": 8243,
      "cture": 8244,
      "feuille": 8245,
      "irer": 8246,
      "iquer": 8247,
      "lent": 8248,
      "lait": 8249,
      "ocher": 8250,
      "pÃ©": 8251,
      "rie": 8252,
      "tin": 8253,
      "tout": 8254,
      "uir": 8255,
      "uction": 8256,
      "¦Ĥ": 8257,
      "±ãģ£ãģŁ": 8258,
      "³¨æĦı": 8259,
      "·±": 8260,
      "·çī©": 8261,
      "ºĬ": 8262,
      "½Ķ": 8263,
      "çģ": 8264,
      "Ġ-": 8265,
      "Ġãģĭ": 8266,
      "ĠäºĮ": 8267,
      "ĬªåĬĽ": 8268,
      "ıĲæ¡Ī": 8269,
      "ĳ½": 8270,
      "ķħ": 8271,
      "ļ®ãĤī": 8272,
      "Ľ³æĽ¸é¤¨": 8273,
      "łãģĳ": 8274,
      "Ń°": 8275,
      "ãģ¯ãģĻãģĲ": 8276,
      "ãģ¯ãģ»ãģ¨ãĤĵãģ©": 8277,
      "ãģ¯ãģ©ãĤĮ": 8278,
      "ãģ¯ãģ©ãģ®ãģıãĤīãģĦ": 8279,
      "Ġpeau": 8280,
      "ĠpÃªcher": 8281,
      "ãģ®æľĢ": 8282,
      "ãģ®ä¸Ģäºº": 8283,
      "ãģ®ä¸»": 8284,
      "ãģ®ãĤĪãģĨãģł": 8285,
      "Ġsoupe": 8286,
      "ãģ«éģ¸": 8287,
      "ãĤĴãģĹãģ¦ãģĦãģ¾ãģĻ": 8288,
      "ãģ¦ãģ¦": 8289,
      "ãģĹãĤī": 8290,
      "Ġmonsieur": 8291,
      "erm": 8292,
      "erver": 8293,
      "ãģ§åŃ¦æł¡": 8294,
      "ãģ§å¯Ŀ": 8295,
      "ãĤĭãĤĤãģ®": 8296,
      "Ġå¿ĥ": 8297,
      "quis": 8298,
      "quÃ©e": 8299,
      "quille": 8300,
      "ãģĮãģĵ": 8301,
      "ãģĮæĿ¥ãĤĭ": 8302,
      "ãģĮæŃ¢": 8303,
      "ãģ¨åĲį": 8304,
      "ãģ¨ãģĹãģ¦ãĤĤ": 8305,
      "ãģ¾ãģ§ãģ¯": 8306,
      "Ġå½¼ãģ¨": 8307,
      "Ġå½¼ãģ«ãģ¯å": 8308,
      "Ġfasse": 8309,
      "ãģłãģĦ": 8310,
      "istre": 8311,
      "ãģ£ãģŁãģ®ãģ§ãģĻãģĭ": 8312,
      "Ġnaiss": 8313,
      "Ġjoin": 8314,
      "Ġbeur": 8315,
      "Ġbaiss": 8316,
      "ãĤĬãģŁ": 8317,
      "ãģ¯åħ¥": 8318,
      "ãģ¯åŃ¦æł¡": 8319,
      "ãģ¯åľ°": 8320,
      "ãģķãģªãģĳãĤĮãģ°ãģªãĤīãģªãģĦ": 8321,
      "orie": 8322,
      "oritÃ©": 8323,
      "Ġå½¼ãģ¯ãģ¾ãģł": 8324,
      "Ġå½¼ãģ¯èĭ¥ãģĦ": 8325,
      "ãģ®åĭīå¼·": 8326,
      "ãģ®åĭķçī©": 8327,
      "ãģ®å¹´": 8328,
      "ãģ®å£°": 8329,
      "ãģ®åĢ¤æ®µ": 8330,
      "Ã©taire": 8331,
      "ãĥ¼ãĤ·ãĥ¼": 8332,
      "ãģĳãĤĭãģ®": 8333,
      "ĠCor": 8334,
      "ĠsupÃ©ri": 8335,
      "ãģ¦ãģĦãĤĭãģ®": 8336,
      "ãĤĴèĤ²": 8337,
      "ãĤĴèµ°": 8338,
      "ãģ«åĪĨ": 8339,
      "ãģ«åĭĿ": 8340,
      "ĠTh": 8341,
      "ãģ£ãģ¦ãģªãģĦ": 8342,
      "ãģ©ãģĵãĤį": 8343,
      "ãģ¤ãģĦãģŁ": 8344,
      "ãĥ³ãĤ¯": 8345,
      "ãĥ³ãĤ·ãĥ¼": 8346,
      "æĹ¥è¨ĺ": 8347,
      "ãģĪãģ¾ãģĽãĤĵ": 8348,
      "ãģĪãĤīãĤĮãģŁ": 8349,
      "ãģĪãĤīãĤĮãĤĭ": 8350,
      "Ġç§ģãģ¯æĹ¥æľ¬": 8351,
      "ãĤĴæļĹ": 8352,
      "éģ£": 8353,
      "éģº": 8354,
      "ĠÃ©tage": 8355,
      "Ġceinture": 8356,
      "ĠhÃ©r": 8357,
      "alisÃ©": 8358,
      "ĠãĥĢ": 8359,
      "ĠãĥĹ": 8360,
      "ĠãĥĿ": 8361,
      "åĪĳ": 8362,
      "ãģĹãģ¦ãģįãģŁ": 8363,
      "avis": 8364,
      "ric": 8365,
      "rice": 8366,
      "è¡ĮãģĭãģªãģĦ": 8367,
      "è¡ĮãģįãģŁãģıãģªãģĦ": 8368,
      "Ġserez": 8369,
      "ãģĻãĤĭãģ«ãģ¯": 8370,
      "ĠNos": 8371,
      "ĠNanc": 8372,
      "ĠSans": 8373,
      "ĠPau": 8374,
      "ãģ«æ¸": 8375,
      "ãģ«æĸ": 8376,
      "ãģ«æĢĴ": 8377,
      "ãģĭãĤīè¦ĭ": 8378,
      "Ġãģĵãģ®éĥ¨å±ĭ": 8379,
      "ãĥ¼ãĥį": 8380,
      "Ġmondi": 8381,
      "ĠAk": 8382,
      "Ġavions": 8383,
      "Ġavocat": 8384,
      "amis": 8385,
      "Ġç¾İ": 8386,
      "Ġçģ«": 8387,
      "ĠÃ©ner": 8388,
      "è¨ĢãģĦãģŁãģĦ": 8389,
      "ĠrÃ©cemment": 8390,
      "ãĤ¢ãĥ«": 8391,
      "ãĤ¢ãĥĭ": 8392,
      "ãĤĴçł´": 8393,
      "ãĤ¤ãĤª": 8394,
      "ĠcongÃ©": 8395,
      "ãģ¿ãĤĭ": 8396,
      "ãģ¿ãĤĪãģĨ": 8397,
      "ãĥªãĤ¹ãĥĪ": 8398,
      "ĠtuÃ©": 8399,
      "ãģ¯çĽ®": 8400,
      "æĻĤãģ¯": 8401,
      "åıįå¯¾": 8402,
      "èĩªå·±": 8403,
      "åħŃ": 8404,
      "Ã©ra": 8405,
      "Ã©ration": 8406,
      "ãģ§ãģ¯ãģªãģıãģ¦": 8407,
      "Ġgra": 8408,
      "ãģ§ãģįãģ¾ãģĻ": 8409,
      "acitÃ©": 8410,
      "ä¼ļè©±": 8411,
      "ards": 8412,
      "å¹´ãģ«": 8413,
      "æ°Ĺãģ«": 8414,
      "æ°ĹæĮģãģ¡": 8415,
      "Ġè¿ĳ": 8416,
      "Ġè³ªåķı": 8417,
      "æĢĿãģĦ": 8418,
      "æĢĿãģĨ": 8419,
      "Ġdemi": 8420,
      "ãģ«èĭ¦": 8421,
      "Ġdevint": 8422,
      "ãĤĴè¦ĭãģĽãģ¦ãģıãģłãģķãģĦ": 8423,
      "Įģãģ¡": 8424,
      "ãģĿãģ®ãģĵãģ¨": 8425,
      "å¸½åŃĲ": 8426,
      "æīĭãĤĴ": 8427,
      "æĿ¥ãģªãģĦ": 8428,
      "ç´¹ä»ĭ": 8429,
      "outer": 8430,
      "Ġappart": 8431,
      "cule": 8432,
      "cupe": 8433,
      "ãģĦãģ¤ãģ§ãĤĤ": 8434,
      "ãģ¯ãĥĶ": 8435,
      "ãģ¯ãĥĪãĥł": 8436,
      "Ġdites": 8437,
      "ãĤĪãĤĬãģļãģ£ãģ¨": 8438,
      "ãĤĤãģĨä¸Ģåº¦": 8439,
      "æĦļ": 8440,
      "èª°ãģ«ãĤĤ": 8441,
      "ĠBonne": 8442,
      "ĠãģĬãģĺ": 8443,
      "ĠãģĬæ¯įãģķãĤĵ": 8444,
      "Ġdisent": 8445,
      "æ¥µ": 8446,
      "ä¹¾": 8447,
      "ĠãģĤãģ¨": 8448,
      "Ġpersonn": 8449,
      "Ġjambes": 8450,
      "ãĥĲãĥĥãĤ°": 8451,
      "åį°": 8452,
      "åį±éĻº": 8453,
      "ãĤ·ãĤ³": 8454,
      "ãĤ·ãĥ§": 8455,
      "ãģªãģĳãĤĮãģ°ãģĦãģĳãģªãģĦ": 8456,
      "Ġatta": 8457,
      "Ġattrib": 8458,
      "ongÃ©": 8459,
      "ãĤĪãģıãģĤãĤĭ": 8460,
      "Ġbrouillard": 8461,
      "ãĤŃãĤ·ãĤ³": 8462,
      "Ġimpression": 8463,
      "ãĤĴæĮģãģ¤": 8464,
      "ãģ©ãģĵãģ§": 8465,
      "Ġpleine": 8466,
      "Ġmesure": 8467,
      "ãĤĤãģĹãĤįãģĦ": 8468,
      "Ġvaisselle": 8469,
      "Ġtoile": 8470,
      "Ã©cie": 8471,
      "Ġå½¼ãģ¯ç§ģãģŁãģ¡": 8472,
      "assÃ©": 8473,
      "ãģ®æĸ°èģŀ": 8474,
      "ãģ®ãģĵãģ¨ãĤĴ": 8475,
      "Ġconscience": 8476,
      "æĽ²": 8477,
      "æĽ´": 8478,
      "Ġblague": 8479,
      "éħ¸": 8480,
      "ĠæĹ¥æľ¬ãģ§": 8481,
      "Ġdonnerai": 8482,
      "ãģ«ä¼ļãģĦãģŁãģĦ": 8483,
      "åħ¥ãĤĬ": 8484,
      "Ġå½¼å¥³ãģ¯åŃĲä¾Ľ": 8485,
      "ĠKate": 8486,
      "é£²ãĤĵãģł": 8487,
      "uvres": 8488,
      "Ġcouleurs": 8489,
      "åĮ»": 8490,
      "Ġphy": 8491,
      "ãģĮå¢Ĺ": 8492,
      "ãģĸãģ¾": 8493,
      "Ġä»ĬæĹ¥ãģ®åįĪå¾Į": 8494,
      "Ġportefeuille": 8495,
      "ĠmanquÃ©": 8496,
      "Ġform": 8497,
      "Ġfortu": 8498,
      "ĠQuelque": 8499,
      "å¾ħãģŁ": 8500,
      "æŃ»ãĤĵãģ§": 8501,
      "ãģ®çµ¦æĸĻ": 8502,
      "ãģĹãģĭãģªãģĦ": 8503,
      "ãģ¯å¤©": 8504,
      "Ġdocu": 8505,
      "æĹ©ãģıèµ·ãģį": 8506,
      "Ġãģ©ãģĨãģĭ": 8507,
      "issant": 8508,
      "è¿ĳãģĦ": 8509,
      "ä¿¡ãģĺãĤīãĤĮãģªãģĦ": 8510,
      "ĠlumiÃ¨res": 8511,
      "ãĤ¦ãĤµãĤ®": 8512,
      "ãģ«ä¹Ĺãģ£ãģŁ": 8513,
      "æĻ¯": 8514,
      "¢ºãģĭ": 8515,
      "attendre": 8516,
      "Ġcorde": 8517,
      "éŃħåĬĽ": 8518,
      "ä»ĺãģĳãģŁ": 8519,
      "çĦ¡é§Ħ": 8520,
      "ı¾åľ¨": 8521,
      "èĥ½åĬĽ": 8522,
      "ä»ĸãģ®": 8523,
      "Ġdouleur": 8524,
      "æĬĺ": 8525,
      "ãĥľãĤ¿ãĥ³": 8526,
      "æİĪæ¥Ń": 8527,
      "ãģ«ãĤĪãĤĭãģ¨": 8528,
      "Ġå½¼ãģ¯çĹħæ°Ĺ": 8529,
      "ãĤĴå¾Į": 8530,
      "ãģ«è¡Įãģ£ãģŁãģĵãģ¨ãģĮãģĤãĤĬãģ¾ãģĻãģĭ": 8531,
      "Ġcuisin": 8532,
      "ĠÃ©tranger": 8533,
      "ä»ĬæĹ¥ãģ®åįĪå¾Į": 8534,
      "Ã©pouser": 8535,
      "Ġabsent": 8536,
      "ĠpoÃ¨me": 8537,
      "ãĤĴæİĥéĻ¤": 8538,
      "ãģĺãĤĥãģªãģĦãģ®": 8539,
      "è©±ãģĻãģ®": 8540,
      "Ġåı£": 8541,
      "Ġdiscuss": 8542,
      "Ġå½¼ãģ®åĲįåīį": 8543,
      "ãĤ»ãĥ³ãĥĪ": 8544,
      "Ġsouri": 8545,
      "Ġsourire": 8546,
      "entreprise": 8547,
      "Ġfeuilles": 8548,
      "åĬ©ãģĳ": 8549,
      "expÃ©rience": 8550,
      "ĠcontrÃ´le": 8551,
      "ĠgÃ©nÃ©rale": 8552,
      "³³ãģĲ": 8553,
      "Ġmentir": 8554,
      "Ġscol": 8555,
      "ĠcassÃ©e": 8556,
      "å¢Ĺ": 8557,
      "Ġãĥŀãĥ¦ãĤ³": 8558,
      "Ġconvers": 8559,
      "æ·±ãģĦ": 8560,
      "æĪĳæħ¢": 8561,
      "ãĤĴãģĭãģĳãģ¦": 8562,
      "Ġåħĥæ°Ĺ": 8563,
      "Ġdisting": 8564,
      "Ġtransf": 8565,
      "ĠrÃ©veillÃ©": 8566,
      "¬ĳãģĦ": 8567,
      "å«ĮãģĦ": 8568,
      "Ġæĸ°": 8569,
      "Ġdonnez": 8570,
      "éīĽ": 8571,
      "ĠintÃ©rÃªt": 8572,
      "çµĮé¨ĵ": 8573,
      "çµĮæ¸Ī": 8574,
      "çĽ¸æīĭ": 8575,
      "ĠåĨ¬": 8576,
      "ç«ł": 8577,
      "ĠAttention": 8578,
      "Ġè²´": 8579,
      "ãģ«ä¹ĹãĤĬéģħãĤĮãģŁ": 8580,
      "ãģ«çµĤãĤı": 8581,
      "ãĤ¿ãĤ¤ãĥĹ": 8582,
      "ãĤĴæįķ": 8583,
      "æĻ´ãĤīãģĹãģĦ": 8584,
      "æŁ»": 8585,
      "ãĤĴéĢģãģ£ãģŁ": 8586,
      "Ġtromper": 8587,
      "Ġpardonn": 8588,
      "é»Ļãģ£ãģ¦ãģĦãģŁ": 8589,
      "ĠConnais": 8590,
      "Ġchoisi": 8591,
      "è¡ĨåĽ½": 8592,
      "³ķå¾ĭ": 8593,
      "ĠrÃ¨gle": 8594,
      "ãģ«çŃĶãģĪãĤĭ": 8595,
      "ãģ¯ãĥķãĥ©ãĥ³ãĤ¹": 8596,
      "Ġsemblait": 8597,
      "ãģ®åĩºèº«": 8598,
      "Ã©nergie": 8599,
      "Ġrespect": 8600,
      "Ġactuellement": 8601,
      "ĠAppelle": 8602,
      "ãģ®éĻ°": 8603,
      "ãĤĴæĢĿãģĦåĩºãģĻ": 8604,
      "éĮ²": 8605,
      "ľ¼éı¡": 8606,
      "ãģĭãģ¤ãģ¦": 8607,
      "ãĤĴæĸŃ": 8608,
      "ãĤ¹ãĤ«ãĥ¼ãĥĪ": 8609,
      "ãģ«èĲ½ãģ¡ãģŁ": 8610,
      "ãģ«åĲĮæĦı": 8611,
      "Ġlapin": 8612,
      "ĠpossÃ¨de": 8613,
      "ģèŃ·å£«": 8614,
      "Ã©conomie": 8615,
      "ãģ¨ãģ¯éĻĲãĤīãģªãģĦ": 8616,
      "ĥħåł±": 8617,
      "Ġincapable": 8618,
      "Ġouverte": 8619,
      "ĠNancy": 8620,
      "clÃ©": 8621,
      "ctÃ©": 8622,
      "gg": 8623,
      "gu": 8624,
      "ial": 8625,
      "ril": 8626,
      "sh": 8627,
      "umi": 8628,
      "£Ĭ": 8629,
      "¥ãģķãĤĵ": 8630,
      "±ç¤¼": 8631,
      "¹¯": 8632,
      "ºãģĦ": 8633,
      "»¶": 8634,
      "¼¸": 8635,
      "½ª": 8636,
      "¾²": 8637,
      "å¨": 8638,
      "å§ī": 8639,
      "æģ¯åŃĲ": 8640,
      "çį": 8641,
      "çªĵ": 8642,
      "çªģ": 8643,
      "éºĹ": 8644,
      "Ġ(": 8645,
      "Ġeau": 8646,
      "Ġãģ§ãĤĤ": 8647,
      "ĠãģªãĤĵ": 8648,
      "Ġï¼ĸ": 8649,
      "ĠãĤ¤ãĤ¿ãĥªãĤ¢": 8650,
      "ģ¶çĦ¶": 8651,
      "Ħļ": 8652,
      "ħ°": 8653,
      "ĩĥ": 8654,
      "ĬåĪĨ": 8655,
      "ĭĤ": 8656,
      "ĭĩ": 8657,
      "Įåħ¨": 8658,
      "ĮæľĽ": 8659,
      "įèĢĲ": 8660,
      "Ķæ¯į": 8661,
      "ķãģ£": 8662,
      "ãģ¯ãģ©ãģ®": 8663,
      "ãģ¯èĩªçĦ¶": 8664,
      "ãģĦãģ¾": 8665,
      "ãĥĺ": 8666,
      "Ã©l": 8667,
      "enons": 8668,
      "ãģ®ãģĵãĤį": 8669,
      "ãģ®ä¸į": 8670,
      "Ġsh": 8671,
      "Ġsombre": 8672,
      "Ġsinc": 8673,
      "Ġciv": 8674,
      "ĠcÃ´t": 8675,
      "Ġcentre": 8676,
      "ãĤĴãģĦãģŁ": 8677,
      "ãĤĴéĽ¢": 8678,
      "ãĤĴéĻ¤": 8679,
      "ãĤĴãģįãĤĮ": 8680,
      "ãĤĴä¿Ŀ": 8681,
      "ãģ¦ãģĹãģ¾ãģ£ãģŁ": 8682,
      "Ġmous": 8683,
      "ĠmÃ©tÃ©": 8684,
      "erais": 8685,
      "erait": 8686,
      "ãģ§åĪ¤æĸŃ": 8687,
      "ãĤĭãģĵãģ¨ãģĮãģ§ãģįãĤĭ": 8688,
      "ĠåĲįåīį": 8689,
      "Ġå¦¹": 8690,
      "Ġtenir": 8691,
      "ãģĮä¸Ģ": 8692,
      "ãģĮå½¼å¥³": 8693,
      "ãģĮå¤ļ": 8694,
      "ãģ¨ãģĵ": 8695,
      "ãģ¨ãģŁãĤĵ": 8696,
      "ĠvÃ´tre": 8697,
      "ãģ¾ãģĹ": 8698,
      "Ġå½¼ãģ¯å½¼ãĤī": 8699,
      "estomac": 8700,
      "ãģĵãģ¡ãĤī": 8701,
      "ãĤĮãģ¾ãģĻ": 8702,
      "ister": 8703,
      "ãĤīãģ£ãģĹãĤĥ": 8704,
      "ãĤĤãģ¯ãĤĦ": 8705,
      "teaux": 8706,
      "ãĤĵãģĭ": 8707,
      "ourne": 8708,
      "ãģĤãĤĵãģª": 8709,
      "Ã¨le": 8710,
      "Ġlecture": 8711,
      "Ġboiss": 8712,
      "ãĤĬãģĹãģŁ": 8713,
      "ãģ¯åĽ½": 8714,
      "ãģ¯åĪĨ": 8715,
      "ãģ¯åĮ»èĢħ": 8716,
      "ãģ¯å¹´": 8717,
      "ãģ¯åİ»å¹´": 8718,
      "ä¸¦": 8719,
      "ãģįãģ¾ãģĹãģŁãģĭ": 8720,
      "Ġromp": 8721,
      "Ġroses": 8722,
      "ind": 8723,
      "arine": 8724,
      "ãģĹãģŁãģıãģªãģĦ": 8725,
      "Ġå½¼ãģ¯ãģĻãģĲ": 8726,
      "Ġå½¼ãģ¯éĥ¨å±ĭ": 8727,
      "Ġå½¼ãģ¯çĪ¶è¦ª": 8728,
      "ãģ®åľ°": 8729,
      "ãģ®å¨ĺ": 8730,
      "Ġpratique": 8731,
      "Ġsugg": 8732,
      "æĹ¢": 8733,
      "ath": 8734,
      "Ġnez": 8735,
      "Ġparf": 8736,
      "Ġpars": 8737,
      "ãĤĴè¾": 8738,
      "ãĤĴèĲ½": 8739,
      "ãĤĴèģ´": 8740,
      "ãĤĴè´Ī": 8741,
      "ãģ«åĨ": 8742,
      "ãģ«å½ĵ": 8743,
      "ãģ«å»º": 8744,
      "ãģ«åĢ¤": 8745,
      "Ġgaz": 8746,
      "çĶĺãģĦ": 8747,
      "äººãģ§": 8748,
      "ãģ£ãģ¦ä½ķ": 8749,
      "ãģ¤ãģ¥": 8750,
      "ãĥ³ãĥģ": 8751,
      "æĹ¥ãģ§ãģĻ": 8752,
      "Ġç§ģãģ¯ãĤĪãģı": 8753,
      "Ġç§ģãģ¯èĭ±èªŀ": 8754,
      "ãĤĴå¿ħè¦ģ": 8755,
      "ãĤĴæĴ": 8756,
      "ãĤĴæĺ": 8757,
      "ãĤĴæĶ¯": 8758,
      "Ġpours": 8759,
      "ĠæĤª": 8760,
      "Ġæļĩ": 8761,
      "ãģĬæ¯įãģķãĤĵ": 8762,
      "ãĤ¹ãĤ¿": 8763,
      "ãģ®æĶ¯": 8764,
      "ĠãĥĪãĥ": 8765,
      "ĠãĥĪãĥ©": 8766,
      "agr": 8767,
      "agers": 8768,
      "agnes": 8769,
      "ãģĹãģ¦ãĤĭãģ®": 8770,
      "cine": 8771,
      "ciÃ¨re": 8772,
      "ãģ¯æ¸": 8773,
      "ãģ¯æļĳ": 8774,
      "Ġdanser": 8775,
      "ast": 8776,
      "ãĤıãģ£ãģŁ": 8777,
      "ãĤıãģªãģĦãģ§": 8778,
      "ãĤģãģ§": 8779,
      "ãĤģãģ£ãģŁ": 8780,
      "è¡Įãģ£ãģ¦": 8781,
      "è¡ĮãģįãģŁãģĦ": 8782,
      "è¡ĮçĤº": 8783,
      "Ġrej": 8784,
      "llent": 8785,
      "ãģĭãĤīãĤĤ": 8786,
      "ãģĭãĤīãģŃ": 8787,
      "ĠdÃ©v": 8788,
      "ãĥ¼ãĥĳ": 8789,
      "é£½ãģį": 8790,
      "Ġavance": 8791,
      "äºĭãģĮåĩºæĿ¥": 8792,
      "ãģ®çļ": 8793,
      "ivitÃ©": 8794,
      "ãģĤãģªãģŁãģ¯": 8795,
      "åĲ¸": 8796,
      "ãĤĴçīĩ": 8797,
      "æĻĤãģ«å¯Ŀ": 8798,
      "Ġmaisons": 8799,
      "Ġinvent": 8800,
      "æŃ´åı²": 8801,
      "ï¼ĳï¼ĸ": 8802,
      "ĠDu": 8803,
      "çī²": 8804,
      "Ã©rie": 8805,
      "Ã©rÃ©e": 8806,
      "ãģĤãĤĬãģ¾ãģĹãģŁ": 8807,
      "oter": 8808,
      "é£Łæ¬²": 8809,
      "ãģ«çĻ»": 8810,
      "ãģ®è³": 8811,
      "aces": 8812,
      "acle": 8813,
      "ãģĹãģ¦ãģĦãĤĭãģ®": 8814,
      "Ġfrom": 8815,
      "onneur": 8816,
      "æĢĿèŃ°": 8817,
      "īįèĥ½": 8818,
      "ãģķãĤĵãģ¨": 8819,
      "Ġdevenue": 8820,
      "ãģĵãģ¨ãģĮãģĤãĤĬãģ¾ãģĽãĤĵ": 8821,
      "ãģĵãģ¨ãģĮåĩºæĿ¥": 8822,
      "ãĤĴè¦ĭãģ¾ãģĹãģŁ": 8823,
      "ãģĶãģ¨": 8824,
      "Ġod": 8825,
      "Ġé¦¬": 8826,
      "ãģĿãģ®æľ¬": 8827,
      "å±ħ": 8828,
      "ctes": 8829,
      "ãĤĤãģ®ãģĮ": 8830,
      "ãĤĤãģ®ãģłãģ£ãģŁ": 8831,
      "ĠãĥĪãĥłãģ®": 8832,
      "æīĭãģ«": 8833,
      "æīĭãģł": 8834,
      "æĿ¥ãģ¾ãģĹãģŁ": 8835,
      "ãģıãģłãģķ": 8836,
      "ãģ¯ãĥģ": 8837,
      "Ġä»ĬæĻ©": 8838,
      "ãģ«è¡ĮãģĵãģĨ": 8839,
      "ãģ¯è²": 8840,
      "Ġexcus": 8841,
      "å¯Ĵ": 8842,
      "Ġmalheure": 8843,
      "ĠåĲĽãģĮ": 8844,
      "ĠåĲĽãģŁãģ¡": 8845,
      "ãĤ¸ãĥ³": 8846,
      "automne": 8847,
      "ãģĿãģĨãģª": 8848,
      "ä¹±": 8849,
      "ä»ķæĸ¹": 8850,
      "ãģ¯ç§ģéģĶ": 8851,
      "éłĤ": 8852,
      "éĿ©": 8853,
      "Ġjoues": 8854,
      "Ġjouait": 8855,
      "ãģłãģĳãģ©": 8856,
      "Ã¢tre": 8857,
      "Ã¢chÃ©": 8858,
      "æĸ¹æ³ķ": 8859,
      "ãĥĲãĥ©": 8860,
      "ĠãģĿãĤĮãĤĴ": 8861,
      "ray": 8862,
      "ĠãģĿãģ®çĶ·": 8863,
      "ãĤ·ãĥ¥": 8864,
      "Ġmanges": 8865,
      "è¦ģæ±Ĥ": 8866,
      "ãģĮè²": 8867,
      "Ġå¤«": 8868,
      "Ġå¤ķé£Ł": 8869,
      "Ġå¤ªéĻ½": 8870,
      "Ġdirection": 8871,
      "Ġå½¼ãĤīãģ¯ç": 8872,
      "ancÃ©": 8873,
      "ãĤŃãĥ£": 8874,
      "ãģ¦ãģĦãģŁãģ®ãģ§": 8875,
      "Ġpassagers": 8876,
      "çļĦãģł": 8877,
      "ãģ®äººçĶŁ": 8878,
      "Ġferait": 8879,
      "Ġcontente": 8880,
      "Ġcommand": 8881,
      "ãĤĭãģ¨ãģį": 8882,
      "Ġlongs": 8883,
      "ifiÃ©": 8884,
      "ãģ®ä¸Ńãģ«": 8885,
      "Ġpensez": 8886,
      "ãģ«åħ¥ãģ£ãģ¦": 8887,
      "ĠprofondÃ©": 8888,
      "ayez": 8889,
      "ãģ«ãĤĤãģĭãģĭ": 8890,
      "Ġblanche": 8891,
      "ock": 8892,
      "occupe": 8893,
      "æīĢãģ§": 8894,
      "ħ¨ãģ¦": 8895,
      "ä¼Ŀè¨Ģ": 8896,
      "åĮĹ": 8897,
      "ãĤµãĥ¼": 8898,
      "å¿ĥãģĹãģŁ": 8899,
      "lib": 8900,
      "lice": 8901,
      "liquer": 8902,
      "liquÃ©": 8903,
      "Ġpouvons": 8904,
      "ĠAsse": 8905,
      "æķħéļľ": 8906,
      "Īĳæħ¢": 8907,
      "è¾±": 8908,
      "è¾²": 8909,
      "ãģĵãģ®æľ¬": 8910,
      "Ġprofession": 8911,
      "åł´åĲĪ": 8912,
      "ãģ®å®¶æĹı": 8913,
      "é£Ľãģ³": 8914,
      "é§Ĩ": 8915,
      "Ġmonter": 8916,
      "ĠmontrÃ©": 8917,
      "æŃ»ãģ«": 8918,
      "æŃ»ãģ¬": 8919,
      "ĠDev": 8920,
      "ãģĺãĤĥãĤĵ": 8921,
      "Ġtomba": 8922,
      "ãģ®å¤±æķĹ": 8923,
      "Ġãģĵãģĵãģ«": 8924,
      "Ġhabitude": 8925,
      "ãĤĴãģĹãģªãģĳãĤĮãģ°ãģªãĤīãģªãģĦ": 8926,
      "æŀĹ": 8927,
      "ĠdÃ©pÃª": 8928,
      "ãģĿãģĵãģ§": 8929,
      "è¿ĳãģı": 8930,
      "ç«ĭãģ¤": 8931,
      "ãģ«ä¹ĹãĤĭ": 8932,
      "åľ°çĲĥ": 8933,
      "ãģ«ãģĬãģĦãģ¦": 8934,
      "ãģ«åıĹ": 8935,
      "ãģ«åıįå¯¾": 8936,
      "å·¥": 8937,
      "æĬķ": 8938,
      "Ġessaya": 8939,
      "Ġç§ģãģ®å§ī": 8940,
      "ĠfatiguÃ©e": 8941,
      "ãĤīãģĽãģŁ": 8942,
      "ãĤĴåıĸãģ£ãģŁ": 8943,
      "ãģ«å¤±æķĹ": 8944,
      "ãĤ¬ãĥ³": 8945,
      "ãģ¯å¥³": 8946,
      "ãĤĴå¤ĸ": 8947,
      "apprÃ©cie": 8948,
      "è£ħ": 8949,
      "å°ıãģķãģª": 8950,
      "ãĤīãĤĮãģ¾ãģĻãģĭ": 8951,
      "é«ĺãģĦå±±": 8952,
      "Ġabsence": 8953,
      "ç¨İ": 8954,
      "Ġpoche": 8955,
      "Ġnaturel": 8956,
      "éĢŁãģĦ": 8957,
      "Ġç§ģãģ¯å½¼å¥³ãģĮ": 8958,
      "è¦ªåĪĩãģª": 8959,
      "é»ĴãģĦ": 8960,
      "Ġouvrir": 8961,
      "Ġmoque": 8962,
      "ãĥļãĥ¼ãĤ¸": 8963,
      "Ġå®¿é¡Į": 8964,
      "ä¸Ģç·Ĵãģ«": 8965,
      "Ġsouris": 8966,
      "ĠEss": 8967,
      "Ġå½¼ãģ¯å½¼å¥³ãģ«": 8968,
      "æ¨Ļ": 8969,
      "ĠÃ©gal": 8970,
      "æĦŁãģĺ": 8971,
      "ãģ¯å®Ł": 8972,
      "Ġorgan": 8973,
      "ãģłãĤĮãĤĤ": 8974,
      "ĠÅĵil": 8975,
      "ĠÅĵuvre": 8976,
      "ãĤĴå¿ĺãĤĮãģŁ": 8977,
      "ĠPrends": 8978,
      "Ġinterromp": 8979,
      "Ġcertainement": 8980,
      "Ġmenti": 8981,
      "ãģ«å¸°ãģ£ãģŁ": 8982,
      "Ġconseils": 8983,
      "ĠnuclÃ©": 8984,
      "uya": 8985,
      "ãĥıãĥ³": 8986,
      "Ġkil": 8987,
      "Ġåįļçī©é¤¨": 8988,
      "ãĤĴæıĲ": 8989,
      "ãģĮãģ¤ãģĦãģŁ": 8990,
      "ãĤĴæīĵ": 8991,
      "Ġãĥ¡ãĤ¢ãĥªãĥ¼ãģ¯": 8992,
      "Ġopp": 8993,
      "Ĭ¯ç½ª": 8994,
      "éħĴãĤĴé£²": 8995,
      "ãģ®åīįãģ§": 8996,
      "Ġæĸ°èģŀ": 8997,
      "Ġé¢¨éĤª": 8998,
      "ĠAngleterre": 8999,
      "ĠçµĲå©ļ": 9000,
      "Ġappartement": 9001,
      "Ġcopain": 9002,
      "Ġprogramme": 9003,
      "Ġoffert": 9004,
      "Ġdessus": 9005,
      "Ġhauteur": 9006,
      "åĩºçĻºãģĹãģŁ": 9007,
      "ĠéĿ´": 9008,
      "Ġsilen": 9009,
      "Ġrempli": 9010,
      "ĠtempÃ©rature": 9011,
      "Ġoiseau": 9012,
      "ĠæĿ¥éĢ±": 9013,
      "Ġfrappa": 9014,
      "ãĤĴéĸīãĤģãģ¦": 9015,
      "ãĤĴåŃ¦ãģ¶": 9016,
      "Ġemm": 9017,
      "ãģ®éĿ¢": 9018,
      "Ġmoyen": 9019,
      "ãģ§ãģĤãĤįãģĨ": 9020,
      "Ġsentiments": 9021,
      "æ§ĭãģ§ãģĻ": 9022,
      "ãģ¯æĸĻçĲĨ": 9023,
      "ãģ«æ³¨æĦı": 9024,
      "ç¨®é¡ŀ": 9025,
      "Ġmillions": 9026,
      "ãģ¨ä¸Ģç·Ĵãģ«": 9027,
      "é£²ãģ¿çī©": 9028,
      "ãģĮå«ĮãģĦãģł": 9029,
      "ĠamÃ©ricain": 9030,
      "Ġamoureuse": 9031,
      "åģ¶çĦ¶": 9032,
      "ĠInter": 9033,
      "Ġhabituellement": 9034,
      "Ĭłçī²": 9035,
      "ennemi": 9036,
      "Ġå½¼ãģ¯æģ¯åŃĲ": 9037,
      "ĠÃ©lÃ¨ve": 9038,
      "ĠrÃ¨gles": 9039,
      "Ã©tude": 9040,
      "Ġtraiter": 9041,
      "çīĽä¹³": 9042,
      "ãģ«æī±": 9043,
      "ĠexpliquÃ©": 9044,
      "½¹ãģ«ç«ĭãģ¤": 9045,
      "Ġzo": 9046,
      "Ġmeurtre": 9047,
      "å¤§ãģįãģĦ": 9048,
      "ä¸įåı¯èĥ½ãģł": 9049,
      "Ġç§ģãģ®çĪ¶ãģ¯": 9050,
      "Ġé«ĺ": 9051,
      "è³ĩæºĲ": 9052,
      "Ġmembres": 9053,
      "ãĥ¼ãĥ©ãĥ³ãĥī": 9054,
      "ãģ¯ç¾İãģĹãģĦ": 9055,
      "Ġdisparu": 9056,
      "è²§ãģĹãģĦ": 9057,
      "Ġregrett": 9058,
      "æķµãģª": 9059,
      "Ġæķ°åŃ¦": 9060,
      "ãģ®ãģĬãģĭãģĴãģ§": 9061,
      "Ġquartier": 9062,
      "ãģ¯å«ĮãģĦãģł": 9063,
      "Ġãĥ«ãĥ¼ãĤ·ãĥ¼": 9064,
      "Ġamusant": 9065,
      "Ġå½¼å¥³ãģ¯å¤«": 9066,
      "ĠcaractÃ¨re": 9067,
      "Ġcapitale": 9068,
      "ç¦ģæŃ¢": 9069,
      "Ġpatron": 9070,
      "Ġbagages": 9071,
      "Ġtranquille": 9072,
      "ĠdiplÃ´": 9073,
      "Ġcrayon": 9074,
      "herbe": 9075,
      "æ¿¯": 9076,
      "Ġtremblement": 9077,
      "ĩãĤĬãģ«æĢĿ": 9078,
      "Ġdestin": 9079,
      "ãģ«åıĤåĬł": 9080,
      "Ġmagazine": 9081,
      "Ġmoderne": 9082,
      "Ġfallu": 9083,
      "environnement": 9084,
      "±ĭæł¹": 9085,
      "ĠSalut": 9086,
      "Ġmaternelle": 9087,
      "ĠHokkai": 9088,
      "Ġfortune": 9089,
      "Ġdiscussion": 9090,
      "Ġconversation": 9091,
      "ķãģ£è¶Ĭ": 9092,
      "ĠcÃ´tÃ©s": 9093,
      "ĠprofondÃ©ment": 9094,
      "ãģ«ãĤĤãģĭãģĭãĤıãĤīãģļ": 9095,
      "30": 9096,
      "Australie": 9097,
      "Allemagne": 9098,
      "York": 9099,
      "ame": 9100,
      "cer": 9101,
      "cie": 9102,
      "cope": 9103,
[...]
